<s>	0
<pad>	0
</s>	0
<unk>	0
,	-3.09221
.	-3.25201
s	-3.45902
'	-3.48314
▁the	-4.1893
▁de	-4.19217
▁a	-4.39352
▁to	-4.60597
▁of	-4.72722
▁and	-4.78635
▁la	-4.87936
▁et	-4.91644
▁that	-4.96684
▁I	-5.01323
▁que	-5.05686
▁in	-5.06071
▁le	-5.07586
▁les	-5.125
▁à	-5.12995
▁l	-5.13901
t	-5.24087
-	-5.29711
▁d	-5.30406
▁is	-5.33602
▁un	-5.35
▁you	-5.35099
▁it	-5.35549
e	-5.39386
▁des	-5.39965
▁we	-5.44024
▁en	-5.46909
est	-5.591
▁nous	-5.59883
▁une	-5.63245
▁qui	-5.67918
▁vous	-5.69566
▁	-5.70655
▁pour	-5.75212
▁pas	-5.75302
▁ce	-5.7583
▁And	-5.75902
▁dans	-5.76482
▁this	-5.77637
▁on	-5.7919
▁est	-5.79864
r	-5.82056
▁—	-5.86242
re	-5.95255
▁c	-5.97053
▁je	-5.97881
▁qu	-6.01082
▁was	-6.02486
▁for	-6.04922
d	-6.06217
ing	-6.06648
er	-6.08039
▁"	-6.09099
▁du	-6.102
▁Et	-6.1109
)	-6.14089
▁are	-6.14493
▁plus	-6.14646
▁(	-6.158
▁n	-6.16109
▁have	-6.16438
▁ne	-6.17459
ed	-6.20613
▁they	-6.21634
▁with	-6.25866
▁can	-6.28533
▁me	-6.30171
▁sur	-6.30328
ai	-6.30477
▁s	-6.31805
▁be	-6.32433
▁C	-6.32933
y	-6.34019
▁So	-6.34549
▁il	-6.35509
a	-6.36264
▁j	-6.37612
il	-6.39207
▁what	-6.40202
é	-6.40209
▁about	-6.4177
m	-6.42121
▁?	-6.43972
es	-6.44606
?	-6.45597
▁:	-6.46958
▁not	-6.51243
▁sont	-6.51361
▁se	-6.52215
▁do	-6.52472
▁all	-6.53363
▁at	-6.55117
▁au	-6.55773
▁avec	-6.56567
▁so	-6.59083
▁my	-6.62899
▁Je	-6.63014
▁y	-6.63782
▁an	-6.6512
on	-6.6538
▁people	-6.6648
▁par	-6.67049
▁like	-6.67469
▁one	-6.67989
▁fait	-6.68322
▁there	-6.70224
c	-6.70515
▁from	-6.73037
▁but	-6.73383
▁as	-6.73803
▁comme	-6.73962
▁It	-6.74623
▁si	-6.75178
ve	-6.75838
▁our	-6.76348
▁ces	-6.77656
▁Il	-6.78962
▁or	-6.79417
un	-6.79681
▁cette	-6.80532
▁’	-6.80777
▁mais	-6.83434
ly	-6.83491
▁just	-6.84967
▁ça	-6.85047
:	-6.85052
▁faire	-6.8513
▁ou	-6.87654
▁ont	-6.88366
▁We	-6.89027
ment	-6.89595
n	-6.90744
en	-6.90795
▁But	-6.91553
▁out	-6.91753
▁Nous	-6.94602
▁tout	-6.94957
al	-6.95263
▁if	-6.95449
▁Mais	-6.95528
▁J	-6.95846
▁avons	-6.96187
▁these	-6.96308
▁The	-6.99368
▁up	-7.00172
▁know	-7.00517
▁by	-7.00936
▁very	-7.01431
▁them	-7.0286
▁when	-7.03223
▁he	-7.03253
nt	-7.0423
▁more	-7.05328
▁had	-7.05624
▁going	-7.06646
▁because	-7.07471
▁m	-7.09412
ant	-7.10596
ent	-7.10939
▁who	-7.11346
▁their	-7.11486
▁très	-7.11735
▁peut	-7.11774
▁think	-7.12546
▁«	-7.1288
▁see	-7.13417
▁were	-7.14261
▁your	-7.16975
▁us	-7.17244
▁monde	-7.17294
▁bien	-7.17509
p	-7.17574
▁gens	-7.17962
▁would	-7.18353
▁ils	-7.18445
▁how	-7.18742
in	-7.18791
▁really	-7.21628
▁get	-7.21821
▁which	-7.23148
l	-7.23938
▁être	-7.24744
▁time	-7.25043
▁leur	-7.25938
▁mon	-7.26171
une	-7.26579
▁chose	-7.28103
ll	-7.28754
▁notre	-7.29572
le	-7.29685
ce	-7.3041
▁même	-7.31267
."	-7.31442
▁world	-7.3154
Laughter	-7.32658
▁La	-7.32775
▁has	-7.33569
▁don	-7.33583
▁re	-7.33754
▁cela	-7.34283
▁A	-7.34618
▁»	-7.34739
u	-7.35557
▁dit	-7.36919
▁some	-7.38378
▁suis	-7.38558
▁here	-7.39126
▁way	-7.3948
▁then	-7.39495
▁était	-7.39652
▁This	-7.3968
▁into	-7.40198
▁ma	-7.40236
▁aux	-7.40748
▁Le	-7.40875
ons	-7.41051
▁go	-7.41314
▁quand	-7.42036
▁You	-7.42761
▁will	-7.43007
▁où	-7.43211
Rires	-7.43735
▁want	-7.44093
▁where	-7.45035
▁other	-7.45393
▁été	-7.4577
z	-7.45834
▁tous	-7.46098
▁years	-7.46422
▁actually	-7.4651
ait	-7.4689
▁aussi	-7.47375
▁son	-7.48043
g	-7.48669
▁could	-7.48825
▁now	-7.49809
▁Ce	-7.50035
▁make	-7.50128
▁things	-7.50507
o	-7.51973
▁Les	-7.52092
▁Vous	-7.52423
▁been	-7.52759
ation	-7.53081
▁Now	-7.53156
▁They	-7.54387
ur	-7.5488
▁beaucoup	-7.5494
f	-7.55814
▁no	-7.56274
▁nos	-7.56634
▁L	-7.57251
▁vie	-7.58143
▁vraiment	-7.58255
or	-7.58657
ils	-7.58985
▁On	-7.5967
▁donc	-7.60496
▁deux	-7.60839
était	-7.61724
▁parce	-7.62275
▁elle	-7.62993
▁En	-7.6443
être	-7.64559
it	-7.65047
▁right	-7.65065
▁over	-7.65154
▁than	-7.65253
▁said	-7.65914
▁something	-7.6605
▁those	-7.6639
▁choses	-7.67165
▁In	-7.687
▁voir	-7.69293
▁ans	-7.69762
▁first	-7.70099
▁Donc	-7.70272
▁two	-7.70291
▁votre	-7.70736
▁sa	-7.70855
▁much	-7.71231
▁work	-7.71614
▁also	-7.72519
"	-7.72529
b	-7.74319
▁dire	-7.75069
▁thing	-7.7507
▁quelque	-7.75317
ez	-7.7583
▁back	-7.76322
▁look	-7.77147
▁car	-7.77323
▁she	-7.77454
▁là	-7.77572
ra	-7.77627
▁moi	-7.77652
an	-7.77679
i	-7.77727
h	-7.78187
▁need	-7.78737
▁even	-7.79106
▁say	-7.79262
▁peu	-7.79696
▁Ils	-7.79814
▁got	-7.80032
ic	-7.80187
▁temps	-7.80312
▁question	-7.80863
▁little	-7.8107
ro	-7.81318
▁life	-7.81938
▁Si	-7.82731
▁his	-7.83119
ci	-7.83241
▁most	-7.83282
▁point	-7.83339
▁only	-7.83949
▁important	-7.84085
▁That	-7.84147
▁fois	-7.84236
li	-7.84239
▁avait	-7.85965
▁S	-7.87194
ée	-7.87783
▁take	-7.88094
▁many	-7.88233
▁comment	-7.88317
▁lot	-7.88546
th	-7.88801
age	-7.90802
▁new	-7.91949
ri	-7.92207
▁g	-7.94133
ar	-7.94188
ion	-7.94265
▁kind	-7.94825
elle	-7.9518
able	-7.9577
▁moment	-7.95789
▁her	-7.95943
▁ici	-7.96315
▁did	-7.96415
▁good	-7.96497
te	-7.96887
▁pouvez	-7.97482
▁What	-7.978
▁around	-7.98008
A	-7.98229
ie	-7.98323
▁part	-7.98404
▁va	-7.98781
aient	-7.98969
▁personnes	-7.9942
▁different	-7.9985
▁non	-7.99913
▁sommes	-8.00089
▁He	-8.00298
▁being	-8.01931
▁There	-8.03521
▁place	-8.03569
ir	-8.037
▁pense	-8.04158
S	-8.04164
▁encore	-8.04185
▁down	-8.0421
▁leurs	-8.04808
▁every	-8.0505
ch	-8.0571
▁façon	-8.05733
▁through	-8.06568
▁same	-8.06637
▁autre	-8.06644
▁avoir	-8.0674
w	-8.07094
▁change	-8.07148
I	-8.07431
ter	-8.07479
▁use	-8.07503
▁come	-8.07681
v	-8.08319
▁dont	-8.08499
▁10	-8.08985
;	-8.09577
Applause	-8.10325
▁Alors	-8.10682
▁besoin	-8.11278
▁sans	-8.11887
▁day	-8.11995
▁D	-8.12885
▁pays	-8.1298
la	-8.13725
▁entre	-8.13916
▁lui	-8.14027
▁long	-8.14673
x	-8.14777
Applaudissements	-8.1534
at	-8.1614
▁avez	-8.16665
ité	-8.17727
lo	-8.17973
is	-8.18378
us	-8.1858
ul	-8.18602
▁put	-8.1866
ont	-8.18714
▁alors	-8.18724
C	-8.1885
▁juste	-8.19841
▁human	-8.19845
▁doing	-8.20268
▁jamais	-8.20515
hui	-8.20573
▁enfants	-8.2086
▁toutes	-8.21236
▁three	-8.213
▁percent	-8.21379
ive	-8.2235
▁maintenant	-8.22364
▁mes	-8.22565
▁vais	-8.22637
▁années	-8.22939
▁eu	-8.23309
▁If	-8.23591
ais	-8.2443
▁dis	-8.24568
▁20	-8.24791
▁own	-8.2527
nce	-8.25727
▁ré	-8.26297
▁any	-8.26331
▁T	-8.26451
▁problème	-8.26629
▁well	-8.27117
▁tell	-8.27653
▁fact	-8.27834
▁called	-8.281
▁pouvons	-8.28604
▁toujours	-8.28763
▁Elle	-8.29255
▁moins	-8.29347
▁made	-8.29478
▁dé	-8.29878
▁quelques	-8.30029
me	-8.30218
▁grand	-8.30281
k	-8.30496
▁find	-8.30526
▁-	-8.30612
▁E	-8.31172
▁should	-8.31561
és	-8.3234
▁peuvent	-8.32776
▁why	-8.33077
▁year	-8.33103
▁didn	-8.33299
▁t	-8.33334
ne	-8.33843
▁veux	-8.34252
▁Well	-8.34575
,"	-8.34618
▁chaque	-8.35032
ions	-8.35112
au	-8.3528
▁M	-8.35309
▁jour	-8.35668
▁talk	-8.35705
▁G	-8.35731
ad	-8.35862
▁today	-8.36574
▁travail	-8.36759
▁personne	-8.36806
autres	-8.3681
▁seulement	-8.36832
ate	-8.37256
▁idea	-8.37733
à	-8.3818
▁parler	-8.38684
▁partie	-8.39055
▁thought	-8.39255
▁dollars	-8.3926
vous	-8.39328
▁♫	-8.39421
▁started	-8.39433
▁after	-8.39481
▁B	-8.39653
▁great	-8.39705
▁simple	-8.39735
▁;	-8.40014
▁après	-8.40083
ity	-8.40757
ta	-8.40897
▁autres	-8.41048
eau	-8.41101
▁soit	-8.41578
ers	-8.41741
ine	-8.41875
▁possible	-8.41902
▁Voici	-8.41994
▁Un	-8.42351
▁pendant	-8.42661
▁étaient	-8.42667
▁science	-8.42844
▁might	-8.43104
▁off	-8.43557
étais	-8.43566
▁before	-8.43611
▁better	-8.43612
ique	-8.43914
▁course	-8.4402
▁never	-8.44479
▁première	-8.44665
▁Merci	-8.44881
▁Thank	-8.4492
▁%	-8.45041
▁give	-8.45242
▁last	-8.45402
▁problem	-8.45526
▁face	-8.45588
▁P	-8.45845
▁trois	-8.45884
▁exemple	-8.45916
▁vers	-8.46151
ou	-8.4649
▁système	-8.46567
ement	-8.4669
▁end	-8.47189
▁start	-8.4727
D	-8.4735
▁big	-8.47388
▁bit	-8.47438
té	-8.4774
▁quoi	-8.48189
▁elles	-8.48491
▁four	-8.48547
di	-8.48654
▁con	-8.48728
M	-8.48837
▁still	-8.48986
▁cas	-8.49308
▁tant	-8.49522
▁together	-8.4954
vi	-8.49694
que	-8.49751
▁ai	-8.50101
am	-8.50759
▁aujourd	-8.50832
▁system	-8.50908
▁able	-8.50913
▁public	-8.51172
aux	-8.51332
▁sûr	-8.51332
▁millions	-8.51656
▁commencé	-8.51701
▁tu	-8.51708
▁went	-8.52284
▁few	-8.52802
el	-8.52979
▁design	-8.52989
▁him	-8.53138
ma	-8.53243
▁another	-8.53335
autre	-8.53363
de	-8.5356
▁show	-8.53741
▁Quand	-8.53817
▁savez	-8.53887
ut	-8.54215
▁brain	-8.5443
▁toute	-8.54617
▁De	-8.5464
▁manière	-8.54743
▁sort	-8.54804
▁ses	-8.55131
ance	-8.55171
▁story	-8.55219
id	-8.55393
▁came	-8.55498
▁puis	-8.5562
▁man	-8.55667
ées	-8.55951
▁help	-8.56036
▁avant	-8.56096
▁femmes	-8.56389
if	-8.56579
ig	-8.56597
entre	-8.56733
▁When	-8.5708
▁next	-8.57105
▁pro	-8.57159
no	-8.57242
avais	-8.57253
▁Ma	-8.5728
▁F	-8.57745
▁too	-8.5778
▁let	-8.57889
▁bon	-8.58034
▁ago	-8.58067
▁love	-8.58161
▁found	-8.58199
▁voyez	-8.58309
▁Cela	-8.58538
▁New	-8.58615
▁real	-8.58687
▁women	-8.58844
▁million	-8.58989
▁mean	-8.58999
▁water	-8.59089
▁each	-8.59248
E	-8.59374
▁é	-8.59702
▁!	-8.59781
▁data	-8.59817
▁grande	-8.60135
▁feel	-8.60136
tra	-8.60547
▁Ça	-8.60616
▁jusqu	-8.60617
▁pourquoi	-8.60689
▁trouver	-8.60845
...	-8.61245
▁cet	-8.6155
mi	-8.61687
▁call	-8.62157
▁social	-8.62158
▁vu	-8.62175
im	-8.62404
▁does	-8.62665
▁used	-8.62724
▁again	-8.62963
▁depuis	-8.63054
▁êtes	-8.6306
▁Une	-8.63347
ag	-8.63354
▁live	-8.63538
▁sous	-8.6363
▁sens	-8.63704
op	-8.64012
qu	-8.64058
▁données	-8.64398
▁faut	-8.64451
▁between	-8.64523
ni	-8.64544
B	-8.64822
▁co	-8.65092
sse	-8.6546
▁example	-8.65503
▁font	-8.65636
▁home	-8.65773
▁Dans	-8.66057
hi	-8.66074
▁second	-8.66151
ies	-8.66258
▁rien	-8.66392
▁technology	-8.66681
P	-8.66728
▁Pour	-8.6708
▁p	-8.67152
▁passe	-8.67183
mo	-8.67211
▁cerveau	-8.67381
▁30	-8.67727
co	-8.67937
▁understand	-8.68002
man	-8.68196
▁quelqu	-8.68383
▁petit	-8.68494
▁cancer	-8.68637
ha	-8.68672
ry	-8.6869
to	-8.68938
▁travers	-8.68991
▁r	-8.69188
▁19	-8.69294
▁3	-8.69576
▁assez	-8.69975
2	-8.7
▁pourrait	-8.704
▁créer	-8.70849
▁devons	-8.70853
ette	-8.71052
▁pouvoir	-8.71435
ti	-8.7177
tu	-8.71796
?"	-8.71857
▁technologie	-8.72157
as	-8.72282
▁doesn	-8.72525
ge	-8.7258
up	-8.72583
▁per	-8.72775
▁prendre	-8.72876
▁wanted	-8.729
▁50	-8.72938
▁person	-8.72956
▁train	-8.73689
▁passé	-8.73994
▁school	-8.74012
▁information	-8.74371
ner	-8.74487
▁believe	-8.7455
▁looking	-8.74611
▁may	-8.74847
▁always	-8.74868
▁K	-8.7502
T	-8.75259
▁idée	-8.75265
▁children	-8.75292
▁For	-8.75462
R	-8.7548
ck	-8.75603
ac	-8.76007
▁vos	-8.76198
▁am	-8.76418
▁ever	-8.76597
▁sais	-8.76643
▁create	-8.76762
▁eux	-8.76849
▁questions	-8.76865
▁space	-8.7688
ist	-8.76941
▁Au	-8.77067
▁high	-8.77665
▁nature	-8.77739
▁f	-8.77772
▁done	-8.78082
▁100	-8.78144
ho	-8.78675
▁ch	-8.78812
▁genre	-8.78817
▁comprendre	-8.78857
▁country	-8.78995
▁six	-8.79207
▁light	-8.79281
▁working	-8.79582
▁b	-8.79666
▁nouveau	-8.79799
pi	-8.79977
▁sorte	-8.79998
▁R	-8.80133
he	-8.80194
▁away	-8.80277
▁U	-8.80649
les	-8.80889
▁whole	-8.8093
▁power	-8.80962
▁fin	-8.81094
▁crois	-8.81096
na	-8.81177
▁premier	-8.81457
be	-8.81566
▁main	-8.81965
▁Because	-8.82118
▁trying	-8.82198
▁histoire	-8.82758
▁trop	-8.83001
▁déjà	-8.83246
nous	-8.83264
▁future	-8.83284
▁mal	-8.83298
▁population	-8.83338
▁N	-8.83497
eux	-8.83513
et	-8.83636
tic	-8.83645
▁pu	-8.83707
che	-8.83808
▁e	-8.83996
ia	-8.84077
ton	-8.84138
▁image	-8.84334
▁mis	-8.84514
ol	-8.84751
▁peux	-8.84871
▁ceux	-8.85019
▁try	-8.85029
um	-8.85307
▁chez	-8.85372
▁global	-8.85467
eur	-8.8596
▁Maintenant	-8.8603
▁cause	-8.8617
mp	-8.8646
▁contre	-8.8658
ness	-8.86805
ru	-8.86885
▁using	-8.87005
▁hard	-8.87087
▁bonne	-8.87154
▁donner	-8.87469
elles	-8.87535
▁thinking	-8.87541
▁maybe	-8.87564
▁000	-8.87644
▁How	-8.87843
ver	-8.8796
▁old	-8.88004
▁money	-8.88031
▁savoir	-8.88335
▁small	-8.88518
▁plutôt	-8.88893
▁become	-8.88971
▁plan	-8.8912
po	-8.8985
ard	-8.89953
▁corps	-8.90015
▁4	-8.90023
ex	-8.90056
ated	-8.90254
▁My	-8.90267
▁type	-8.90274
▁took	-8.9033
▁nombre	-8.90379
▁TED	-8.90454
▁means	-8.90473
▁minutes	-8.90479
▁everything	-8.90553
min	-8.90569
▁15	-8.9071
▁raison	-8.90785
▁men	-8.90788
▁br	-8.90842
▁She	-8.91247
▁vrai	-8.91266
▁compte	-8.91385
▁kids	-8.91445
▁number	-8.91757
per	-8.91766
▁plupart	-8.91892
art	-8.91957
▁five	-8.92086
O	-8.92359
iv	-8.92433
▁parents	-8.92744
ting	-8.92927
▁enough	-8.93035
va	-8.9304
▁nouvelle	-8.93112
▁1	-8.93114
▁mieux	-8.93607
1	-8.93682
▁sense	-8.93761
bi	-8.93776
▁best	-8.93853
ap	-8.94103
nd	-8.94383
▁Par	-8.94501
pe	-8.94696
ure	-8.94778
▁changer	-8.94906
▁left	-8.94913
ale	-8.95054
▁ask	-8.95445
▁jours	-8.95598
▁problèmes	-8.95666
▁2	-8.9581
▁culture	-8.95812
▁simplement	-8.95985
▁machine	-8.9601
▁Tout	-8.96087
▁One	-8.96159
▁photo	-8.96165
▁aller	-8.9659
5	-8.96653
▁art	-8.96661
▁environ	-8.96671
em	-8.96804
▁projet	-8.97201
▁avaient	-8.97247
▁getting	-8.97354
▁côté	-8.97377
▁W	-8.97724
ating	-8.97769
ère	-8.98091
▁ainsi	-8.98118
bo	-8.98126
▁super	-8.98236
▁lieu	-8.9825
aire	-8.98256
▁York	-8.98277
ot	-8.98304
lé	-8.98352
▁mettre	-8.98384
▁mois	-8.98533
▁ceci	-8.98538
▁play	-8.9867
8	-8.98745
▁test	-8.98796
tte	-8.99029
▁Parce	-8.99042
▁serait	-8.99098
▁montrer	-8.99301
histoire	-8.99339
▁bring	-8.99341
▁doit	-8.99363
▁santé	-8.99402
▁hand	-8.99429
▁food	-8.99672
▁head	-8.99681
▁OK	-8.99869
▁No	-9.00024
▁answer	-9.0021
▁Re	-9.00217
▁femme	-9.00227
▁pris	-9.00539
7	-9.0081
▁making	-9.00929
▁ville	-9.00953
▁maison	-9.00982
▁These	-9.01024
▁pré	-9.01132
▁large	-9.01385
L	-9.01552
▁process	-9.01756
]	-9.01849
▁without	-9.01898
▁passer	-9.02087
Unis	-9.02103
▁told	-9.02213
▁pre	-9.02422
▁met	-9.02456
▁care	-9.02621
▁seule	-9.0268
▁body	-9.02687
▁talking	-9.02687
▁As	-9.02827
ian	-9.02839
▁film	-9.02876
▁[	-9.02906
ations	-9.03042
▁under	-9.0309
▁O	-9.03097
▁quel	-9.03238
▁veut	-9.03246
▁souvent	-9.03293
▁side	-9.03386
G	-9.0362
lu	-9.03725
▁local	-9.0391
▁interesting	-9.0393
▁sera	-9.04109
▁sujet	-9.04191
▁family	-9.04248
▁far	-9.04346
▁lives	-9.04359
▁propos	-9.04525
▁petite	-9.04574
▁voici	-9.04593
▁planète	-9.04647
▁young	-9.04688
▁happened	-9.04779
tion	-9.04834
▁penser	-9.04907
▁build	-9.0498
▁open	-9.04984
▁Comment	-9.04987
▁laquelle	-9.05042
▁probably	-9.05098
▁matter	-9.05175
4	-9.05192
▁room	-9.05212
ab	-9.05236
là	-9.05239
▁H	-9.05367
même	-9.05483
▁quite	-9.05483
▁chance	-9.0549
urs	-9.05564
▁energy	-9.05669
▁5	-9.06164
N	-9.06208
▁move	-9.06365
con	-9.06419
ff	-9.06501
▁health	-9.06703
▁famille	-9.06707
vo	-9.06915
▁forme	-9.07017
▁Mo	-9.07063
▁reason	-9.07186
▁form	-9.07246
▁experience	-9.07309
▁building	-9.07786
▁po	-9.07914
avoir	-9.07964
▁réalité	-9.08051
▁countries	-9.08104
▁Africa	-9.08216
▁All	-9.0822
▁certains	-9.08336
go	-9.08351
▁comes	-9.08392
▁propre	-9.08495
▁anything	-9.08574
▁trouvé	-9.08576
▁comp	-9.08646
▁difficile	-9.08823
▁CA	-9.08995
▁vont	-9.09005
▁utiliser	-9.09032
▁cours	-9.09051
idée	-9.09057
tor	-9.09062
▁ensemble	-9.09121
▁ensuite	-9.09343
▁across	-9.09343
▁pretty	-9.09402
▁coup	-9.09759
rait	-9.0979
▁mère	-9.0988
▁happen	-9.09903
▁such	-9.09992
▁Mon	-9.10327
▁surface	-9.10809
▁coming	-9.10833
!	-9.10895
▁lorsque	-9.11112
▁bad	-9.1122
der	-9.11269
▁Qu	-9.11286
sh	-9.11552
▁billion	-9.12082
▁learn	-9.1242
▁gros	-9.12434
ue	-9.12473
▁certain	-9.1256
▁asked	-9.12968
H	-9.12992
▁trouve	-9.13003
ling	-9.13076
od	-9.13115
▁base	-9.13115
os	-9.1329
▁stuff	-9.13343
▁Pourquoi	-9.13368
▁saw	-9.13488
▁40	-9.13493
ally	-9.13507
▁Let	-9.13614
▁half	-9.13686
▁living	-9.13715
ow	-9.13779
mer	-9.13897
▁18	-9.14102
▁hommes	-9.14112
ary	-9.14118
agit	-9.14236
and	-9.14242
▁Internet	-9.14581
▁else	-9.14716
fi	-9.1476
▁tard	-9.15053
▁nom	-9.15078
▁marché	-9.1512
▁près	-9.15137
gi	-9.152
▁having	-9.15405
▁force	-9.15509
▁début	-9.15593
▁remember	-9.15656
▁ligne	-9.15743
air	-9.15821
use	-9.15863
▁fond	-9.15865
▁bas	-9.15957
▁celui	-9.15973
▁hope	-9.15989
ous	-9.16107
▁ex	-9.16114
▁war	-9.16154
▁case	-9.16161
▁while	-9.16176
▁Here	-9.1627
▁patients	-9.16634
▁autour	-9.16737
▁often	-9.1685
cu	-9.16871
argent	-9.16954
▁appris	-9.16956
▁single	-9.16997
▁keep	-9.17228
6	-9.17336
▁times	-9.17348
▁vision	-9.17368
▁Ro	-9.17391
com	-9.176
▁lumière	-9.17702
▁city	-9.17739
▁seul	-9.17935
▁mind	-9.17955
▁project	-9.17973
▁donné	-9.17988
ux	-9.18035
iez	-9.18218
▁société	-9.18413
▁groupe	-9.18459
3	-9.18475
▁imagine	-9.18482
▁ni	-9.1849
▁community	-9.18494
▁images	-9.18786
▁both	-9.18795
▁age	-9.18806
▁reste	-9.18985
▁structure	-9.19103
end	-9.19131
▁later	-9.19231
▁changement	-9.19261
ach	-9.19299
▁produit	-9.19491
▁To	-9.19632
▁seen	-9.19662
je	-9.19663
ted	-9.19764
▁St	-9.2004
par	-9.20074
▁différentes	-9.20083
gu	-9.20198
avons	-9.20312
▁bo	-9.20518
▁planet	-9.20519
▁couple	-9.2052
▁ho	-9.20526
▁almost	-9.20584
▁solution	-9.20651
do	-9.20683
▁read	-9.20805
▁demandé	-9.20847
▁picture	-9.2086
eurs	-9.20926
▁Earth	-9.20984
less	-9.21058
mon	-9.21061
ative	-9.21353
▁job	-9.21405
▁business	-9.21413
▁control	-9.21539
▁situation	-9.21553
out	-9.21753
▁di	-9.21822
▁parle	-9.21953
▁mort	-9.22176
▁allons	-9.22412
ler	-9.22416
▁quatre	-9.22465
rons	-9.22471
▁air	-9.23064
▁music	-9.23169
ial	-9.2331
▁presque	-9.23485
▁rend	-9.23548
▁already	-9.23689
▁celle	-9.23737
iser	-9.23779
▁someone	-9.23944
▁computer	-9.24004
▁Do	-9.24009
▁signifie	-9.24116
ke	-9.24283
▁inside	-9.24325
ors	-9.24356
▁goes	-9.24428
▁set	-9.24431
▁myself	-9.24516
▁recherche	-9.24653
▁happens	-9.25024
▁Ces	-9.25047
▁name	-9.25054
▁réponse	-9.25077
▁travailler	-9.25086
▁vue	-9.25272
▁Des	-9.25353
▁wrong	-9.25488
▁V	-9.25493
▁attention	-9.25565
▁saying	-9.25581
ign	-9.25612
ud	-9.25674
▁faisons	-9.25895
▁yet	-9.26428
ante	-9.26459
▁peur	-9.26464
▁homme	-9.26577
▁days	-9.26846
ns	-9.26853
ici	-9.26853
▁Or	-9.27043
ep	-9.27156
▁sub	-9.27198
▁niveau	-9.27434
▁12	-9.27538
▁run	-9.27672
▁w	-9.27703
,000	-9.27714
▁looked	-9.27944
▁Que	-9.28032
▁support	-9.28033
▁stop	-9.28196
▁cent	-9.28383
K	-9.28465
▁history	-9.28536
▁nothing	-9.2861
ast	-9.28611
isme	-9.28733
moi	-9.2882
▁order	-9.28825
ier	-9.28964
▁guerre	-9.28969
▁également	-9.28977
▁mo	-9.29009
▁États	-9.29071
énergie	-9.29146
ized	-9.29192
ction	-9.29315
▁mother	-9.29488
▁mot	-9.29587
▁research	-9.29592
▁savons	-9.29694
▁v	-9.29742
▁milliards	-9.29854
▁whether	-9.29913
▁donne	-9.30001
▁technologies	-9.30008
act	-9.30033
▁state	-9.3006
▁amazing	-9.30132
▁rest	-9.30169
▁politique	-9.30305
▁problems	-9.30318
▁sure	-9.30328
▁group	-9.30337
▁arrive	-9.3057
▁enfant	-9.30601
land	-9.30707
da	-9.30713
▁once	-9.30832
▁book	-9.3087
▁année	-9.31245
▁Why	-9.31394
▁self	-9.31473
▁front	-9.31522
ster	-9.31947
F	-9.32022
om	-9.32072
▁ways	-9.32277
▁tête	-9.32306
ins	-9.32399
iens	-9.32485
▁makes	-9.32642
▁quelle	-9.32712
▁haut	-9.32827
▁months	-9.32844
▁capacité	-9.32875
▁says	-9.33033
▁tellement	-9.33055
▁top	-9.33149
▁nouvelles	-9.33171
ateur	-9.33229
▁».	-9.33404
▁wasn	-9.33448
▁true	-9.33497
▁government	-9.33545
▁stories	-9.33554
▁Ba	-9.33576
▁partir	-9.33583
▁continue	-9.33777
▁education	-9.33857
▁plusieurs	-9.33933
▁exist	-9.33968
ator	-9.34061
old	-9.34213
▁humain	-9.34309
▁voulez	-9.34313
▁child	-9.34383
appelle	-9.34439
▁robot	-9.34531
▁beautiful	-9.34542
abord	-9.34578
▁night	-9.34881
▁language	-9.34925
▁cinq	-9.35067
00	-9.35086
▁dernière	-9.35103
▁Elles	-9.35168
▁video	-9.35191
▁pouvait	-9.35232
▁gr	-9.35427
▁within	-9.35432
▁communauté	-9.35502
▁line	-9.35523
ise	-9.3556
qui	-9.35687
importe	-9.35753
▁commencer	-9.35931
▁terre	-9.3612
▁words	-9.36234
▁heart	-9.36253
9	-9.36276
▁figure	-9.36315
▁Bien	-9.36376
▁cellules	-9.36454
▁guy	-9.36543
▁dernier	-9.36551
▁humains	-9.36552
ful	-9.36702
▁gouvernement	-9.36786
▁inter	-9.36794
▁imp	-9.36833
ib	-9.36958
ism	-9.36986
▁impact	-9.37107
▁livre	-9.3711
▁United	-9.37175
dy	-9.3718
▁heard	-9.37294
▁créé	-9.37308
▁Ne	-9.3738
▁model	-9.37457
▁Co	-9.3747
▁différents	-9.37755
ize	-9.37774
ég	-9.3787
▁incroyable	-9.38046
▁learned	-9.38224
▁6	-9.38241
▁Terre	-9.38445
▁faites	-9.38448
▁app	-9.38509
▁knew	-9.38597
▁semble	-9.38668
▁market	-9.38779
▁expérience	-9.38911
▁turn	-9.38985
▁construire	-9.38996
▁aider	-9.38997
we	-9.39004
▁probablement	-9.39091
pa	-9.39197
▁cells	-9.39365
ca	-9.39371
▁prison	-9.39428
cent	-9.39446
▁moyen	-9.39489
▁60	-9.39578
▁mesure	-9.39602
▁heures	-9.39654
▁vivre	-9.39898
▁share	-9.39969
▁Bo	-9.3998
ront	-9.40001
▁black	-9.40044
▁woman	-9.40121
hy	-9.40202
▁concept	-9.40326
▁idées	-9.40538
▁pay	-9.40618
▁until	-9.40822
▁regarder	-9.40897
▁voiture	-9.40914
line	-9.41112
▁fais	-9.41124
▁Eh	-9.4115
▁America	-9.41266
▁7	-9.41337
▁table	-9.41356
▁close	-9.41376
▁Y	-9.41418
▁difference	-9.41422
▁marche	-9.41503
▁entendu	-9.41507
▁basically	-9.41678
▁must	-9.41753
The	-9.41782
bu	-9.41808
▁allez	-9.41866
accord	-9.4208
▁arm	-9.42146
▁rendre	-9.42169
▁Tu	-9.42544
▁became	-9.42575
▁siècle	-9.42575
▁mots	-9.42613
▁25	-9.42616
▁Comme	-9.42632
▁message	-9.42776
▁decided	-9.42822
▁though	-9.43127
▁futur	-9.43258
▁violence	-9.43323
▁study	-9.43342
▁père	-9.43343
▁patient	-9.43627
▁built	-9.43658
▁meilleur	-9.4369
▁endroit	-9.43749
▁modèle	-9.43975
▁écrit	-9.43979
▁free	-9.44069
▁ideas	-9.44123
▁environment	-9.44172
▁universe	-9.4422
▁color	-9.44296
▁team	-9.44381
▁te	-9.44519
▁Al	-9.44573
▁présent	-9.44616
▁petits	-9.44679
▁découvert	-9.44722
▁word	-9.44765
▁Voilà	-9.44837
▁devez	-9.44852
men	-9.44895
▁friends	-9.44982
▁San	-9.45055
▁grâce	-9.45091
▁house	-9.45162
ite	-9.45275
né	-9.45333
▁processus	-9.45392
▁voyage	-9.45517
▁land	-9.45557
▁développement	-9.4562
▁porte	-9.45708
▁view	-9.45753
▁centre	-9.45805
▁ourselves	-9.45858
▁yeux	-9.45935
▁Oui	-9.45938
▁11	-9.45966
▁vient	-9.46018
▁village	-9.4603
▁Be	-9.46179
▁against	-9.46239
▁bi	-9.46287
▁sound	-9.46299
all	-9.46336
▁red	-9.46514
▁hear	-9.46539
▁Se	-9.46574
ob	-9.46576
▁code	-9.46636
iques	-9.4668
▁Car	-9.46699
▁appelé	-9.46898
▁commence	-9.46918
▁site	-9.47067
▁species	-9.47154
▁Bon	-9.47166
▁partout	-9.47283
▁intéressant	-9.47328
▁completely	-9.47362
▁ba	-9.47377
▁voulais	-9.47411
ran	-9.47416
▁afin	-9.47442
▁devenir	-9.47463
▁jeu	-9.47466
▁décidé	-9.47509
▁disent	-9.47674
ang	-9.47689
▁Ra	-9.47814
ière	-9.47852
▁Est	-9.4816
▁since	-9.48171
▁exactly	-9.48322
▁amis	-9.48403
nu	-9.4842
rr	-9.48485
ord	-9.48569
▁themselves	-9.48723
▁everybody	-9.48811
ade	-9.48859
ga	-9.48894
▁80	-9.48944
▁phone	-9.4896
▁company	-9.48988
▁leave	-9.49004
▁bio	-9.49058
▁choix	-9.49076
▁society	-9.49076
▁taking	-9.49083
ice	-9.49134
▁dur	-9.49135
▁permet	-9.49162
▁States	-9.49193
▁programme	-9.4927
▁fer	-9.49306
ssent	-9.49317
ical	-9.49332
▁im	-9.49352
▁animal	-9.4936
▁arrivé	-9.49425
▁jeunes	-9.49654
▁somebody	-9.49696
▁piece	-9.49868
▁step	-9.49868
▁Google	-9.49874
▁Ou	-9.50099
▁demande	-9.50102
▁disease	-9.50144
espace	-9.50212
▁sometimes	-9.50233
▁utilisé	-9.50407
▁record	-9.50411
▁sp	-9.50525
▁Sa	-9.50542
ble	-9.50705
fe	-9.50863
▁voilà	-9.50949
▁huge	-9.51142
rie	-9.51168
▁isn	-9.51198
▁economic	-9.51234
▁die	-9.51361
▁8	-9.51382
▁cell	-9.5142
▁complètement	-9.516
▁tour	-9.5162
und	-9.51804
wa	-9.51945
dé	-9.51979
▁happening	-9.52024
app	-9.52098
0	-9.52144
▁Non	-9.52172
ç	-9.52177
W	-9.52262
information	-9.52345
▁fille	-9.52492
▁sta	-9.52492
▁everyone	-9.52525
▁h	-9.52534
▁looks	-9.52544
▁Ha	-9.52671
▁Puis	-9.52687
▁places	-9.52693
▁instead	-9.52858
▁parfois	-9.52858
école	-9.52989
▁ta	-9.5337
▁level	-9.53386
▁post	-9.53424
ba	-9.5347
▁facile	-9.53494
▁fi	-9.53582
▁demand	-9.53603
▁walk	-9.53624
▁milliers	-9.5369
▁hours	-9.53756
tes	-9.53762
▁regardez	-9.53769
▁students	-9.5388
king	-9.53922
ber	-9.53976
▁pensé	-9.54116
io	-9.54163
▁tr	-9.54195
▁ro	-9.5426
▁At	-9.54293
▁micro	-9.54325
▁loin	-9.54392
▁9	-9.54429
▁capable	-9.545
▁difficult	-9.54588
iste	-9.54813
▁compris	-9.54933
â	-9.54943
du	-9.55042
▁avions	-9.55088
▁certaines	-9.55183
▁risk	-9.55214
one	-9.5524
ible	-9.55307
▁worked	-9.55319
▁itself	-9.55462
▁unique	-9.556
▁montre	-9.5577
▁police	-9.55776
▁direction	-9.56022
▁act	-9.5614
▁Ch	-9.56223
▁position	-9.56225
▁voit	-9.5634
ning	-9.56355
▁source	-9.56395
▁couldn	-9.56528
ateurs	-9.56532
▁photograph	-9.56626
▁fish	-9.56791
▁created	-9.56929
▁connect	-9.57047
ger	-9.57054
▁along	-9.57057
▁rapport	-9.57202
▁rather	-9.57271
▁Mars	-9.57281
tique	-9.57392
ng	-9.57456
ide	-9.57458
▁physique	-9.57551
▁American	-9.57551
▁plein	-9.57561
▁animaux	-9.57597
▁énorme	-9.57633
lle	-9.57642
ring	-9.57708
▁musique	-9.57749
▁aurait	-9.5781
▁taille	-9.57877
▁progress	-9.57942
▁Some	-9.57967
▁early	-9.5797
▁nourriture	-9.58135
▁thousands	-9.58182
our	-9.58259
▁classe	-9.58351
▁ha	-9.58462
▁conversation	-9.58505
▁grow	-9.58578
isation	-9.58579
▁ressemble	-9.58606
▁learning	-9.58696
▁aucune	-9.58748
▁comportement	-9.58751
▁essayer	-9.59049
▁histoires	-9.59285
▁voulons	-9.59303
rais	-9.59398
gue	-9.59434
▁vo	-9.59462
▁entire	-9.59494
▁maladie	-9.59612
ities	-9.59693
▁short	-9.59795
ther	-9.59898
▁économique	-9.59909
▁vidéo	-9.60021
▁Me	-9.60074
▁su	-9.60117
▁prend	-9.60161
▁common	-9.60197
▁least	-9.60272
▁political	-9.60287
▁meilleure	-9.6035
▁demander	-9.60355
▁outside	-9.60384
▁fear	-9.60514
▁game	-9.60543
teur	-9.6058
▁aucun	-9.60627
lin	-9.60686
▁virus	-9.60782
▁dernières	-9.6095
▁robots	-9.60973
▁behavior	-9.60981
▁photos	-9.60995
ème	-9.61064
▁Oh	-9.61117
▁works	-9.61174
▁sait	-9.61266
è	-9.61303
▁Europe	-9.6133
▁lequel	-9.61386
▁respect	-9.61418
▁version	-9.61571
▁feeling	-9.61718
▁poor	-9.61769
▁normal	-9.618
▁animals	-9.61811
ny	-9.61852
▁friend	-9.61884
▁trans	-9.61933
▁dû	-9.62042
▁vol	-9.6205
nne	-9.62081
▁won	-9.62156
▁rep	-9.62257
▁Pas	-9.62344
intérieur	-9.62358
▁exactement	-9.62596
▁turns	-9.62661
▁?"	-9.62775
▁»,	-9.62799
ute	-9.62801
▁Ca	-9.62903
▁impossible	-9.62907
▁ocean	-9.62992
way	-9.63086
▁particular	-9.63089
▁milieu	-9.63095
▁buy	-9.63156
▁/	-9.63196
▁Then	-9.63201
▁rapidement	-9.63268
▁pi	-9.63313
▁cool	-9.63441
▁third	-9.63502
avez	-9.63623
▁machines	-9.63717
▁apprendre	-9.63721
▁fonctionne	-9.63743
aime	-9.63757
▁jouer	-9.63801
▁collect	-9.63826
▁villes	-9.63833
▁tend	-9.63858
▁ten	-9.63866
pro	-9.63868
▁arriver	-9.63896
ome	-9.64005
▁téléphone	-9.64014
▁mondiale	-9.64035
▁commun	-9.64128
▁gave	-9.64221
ug	-9.64273
▁grands	-9.64292
▁full	-9.64301
▁attend	-9.64375
▁fut	-9.6452
▁changé	-9.64528
▁défi	-9.64651
▁calcul	-9.64791
▁cities	-9.64798
▁religion	-9.64838
▁felt	-9.64838
▁points	-9.65019
▁changed	-9.65035
▁sécurité	-9.65045
car	-9.65049
ish	-9.65103
▁scale	-9.65135
And	-9.65171
▁secret	-9.65252
▁devrait	-9.65253
▁contrôle	-9.65272
port	-9.65288
▁affect	-9.6529
ô	-9.65356
▁entier	-9.65367
▁death	-9.65375
red	-9.65433
ak	-9.65507
▁fonction	-9.65512
▁sh	-9.65516
▁salle	-9.65523
▁compassion	-9.65565
▁longtemps	-9.65568
ick	-9.65607
▁field	-9.65713
▁200	-9.65761
rez	-9.65843
▁équipe	-9.65967
▁importante	-9.66191
▁companies	-9.66192
▁voyons	-9.66192
▁accept	-9.66263
▁mé	-9.66307
▁taken	-9.66356
▁Z	-9.66468
▁devant	-9.6648
▁existe	-9.66531
▁droit	-9.66631
▁fall	-9.66808
▁amount	-9.66823
side	-9.66862
▁nuit	-9.66886
▁middle	-9.67035
▁natural	-9.67138
▁easy	-9.6714
▁powerful	-9.67167
▁fini	-9.67222
▁India	-9.67335
▁transform	-9.67641
▁media	-9.67645
▁humaine	-9.6768
the	-9.67727
À	-9.67778
▁construit	-9.67884
▁appelle	-9.68032
▁national	-9.68072
▁90	-9.68083
▁past	-9.68196
▁behind	-9.68205
▁environnement	-9.68209
▁dois	-9.68258
▁o	-9.68274
og	-9.68305
▁pen	-9.6832
▁God	-9.68388
▁conditions	-9.68558
▁needed	-9.68708
▁veulent	-9.68741
aires	-9.68837
▁ver	-9.68955
▁week	-9.69014
▁pensez	-9.69043
vis	-9.69044
▁mouvement	-9.69069
▁cost	-9.69143
cy	-9.69223
ire	-9.69226
aide	-9.69253
▁mer	-9.69312
▁fix	-9.69322
▁ca	-9.6966
▁coût	-9.69704
▁Ceci	-9.69769
▁transport	-9.69776
uring	-9.69787
▁seven	-9.69909
▁China	-9.70044
▁selon	-9.70055
▁reality	-9.70109
by	-9.7017
▁paper	-9.70269
avait	-9.70404
▁perspective	-9.70587
year	-9.70591
▁news	-9.70792
▁yourself	-9.70806
▁Chris	-9.70815
▁différence	-9.70868
▁allé	-9.70933
▁systems	-9.70944
▁70	-9.70987
▁seeing	-9.71009
&	-9.71026
▁began	-9.71027
▁given	-9.71068
▁service	-9.71119
▁réalisé	-9.71142
ché	-9.71244
▁vite	-9.71298
▁kinds	-9.7133
▁types	-9.71653
▁entreprises	-9.71654
ization	-9.71688
▁devenu	-9.71725
val	-9.71882
▁gauche	-9.71911
▁particulier	-9.71911
▁protect	-9.71927
▁parti	-9.71931
uff	-9.71945
ward	-9.7198
▁challenge	-9.72008
▁scientifiques	-9.72037
▁doivent	-9.72134
▁realized	-9.72244
▁oui	-9.72299
▁happy	-9.72356
▁domaine	-9.72374
▁access	-9.72461
gen	-9.72481
▁auto	-9.72596
▁puisse	-9.72676
▁grandes	-9.72715
▁low	-9.72718
▁voice	-9.72813
▁guys	-9.72815
▁century	-9.72849
▁bu	-9.72993
".	-9.73054
▁♪	-9.73141
▁Dieu	-9.73144
▁mine	-9.73168
▁turned	-9.732
▁k	-9.73352
▁size	-9.73385
▁eyes	-9.73409
▁spend	-9.73485
ition	-9.73499
▁jeune	-9.73524
▁combien	-9.73593
homme	-9.736
▁prix	-9.73614
▁14	-9.73614
▁route	-9.73677
▁An	-9.73715
ienne	-9.7373
▁bar	-9.73743
▁chacun	-9.73817
▁simply	-9.73817
▁father	-9.74052
▁stay	-9.74149
▁trou	-9.7422
▁production	-9.74318
▁génération	-9.74365
▁beginning	-9.74391
▁traitement	-9.74401
▁class	-9.7443
▁rate	-9.74474
▁cannot	-9.74502
▁shape	-9.74502
▁Di	-9.74558
▁parlé	-9.74675
▁solve	-9.74714
▁Chine	-9.7474
▁deuxième	-9.74747
tant	-9.7475
▁17	-9.74754
▁différent	-9.74757
▁stress	-9.74765
ay	-9.74823
▁longer	-9.74953
▁Po	-9.74965
▁communication	-9.74983
U	-9.75044
▁réellement	-9.75115
▁anti	-9.75122
▁movement	-9.7524
▁center	-9.75244
▁measure	-9.75299
▁sign	-9.7532
▁pouvais	-9.75414
▁explain	-9.75414
▁innovation	-9.75463
▁regarde	-9.75563
ables	-9.75567
des	-9.75604
▁key	-9.75719
▁réussi	-9.75866
ien	-9.75963
▁visual	-9.75995
▁travaille	-9.76031
▁effet	-9.76211
▁bou	-9.76217
▁Ho	-9.76276
▁fun	-9.76296
▁represent	-9.76454
▁Just	-9.76489
▁16	-9.76539
▁finally	-9.76586
▁Mi	-9.76621
▁Our	-9.76624
▁solutions	-9.76686
▁regard	-9.76728
ê	-9.76741
ments	-9.76768
▁area	-9.768
▁sex	-9.76835
▁program	-9.76895
▁personal	-9.76934
▁capital	-9.77026
▁stand	-9.77044
▁espace	-9.77238
▁terme	-9.77248
▁white	-9.77303
▁services	-9.77318
cle	-9.77324
▁nouveaux	-9.77348
hé	-9.77357
▁signal	-9.77415
▁croissance	-9.77507
▁prochaine	-9.77544
▁value	-9.77555
nant	-9.77622
▁eight	-9.77634
aimerais	-9.77717
▁generation	-9.77891
org	-9.77933
▁suite	-9.77959
▁Ainsi	-9.77977
▁bout	-9.78011
▁Te	-9.78018
▁People	-9.78095
▁nécessaire	-9.78095
ès	-9.78139
▁institutions	-9.78197
▁voix	-9.78217
▁produits	-9.78277
▁hands	-9.78323
industrie	-9.78331
▁perhaps	-9.78331
▁venir	-9.78358
▁speak	-9.78363
led	-9.78363
ah	-9.78421
▁confiance	-9.78455
V	-9.78558
▁devient	-9.78573
time	-9.78638
▁sortir	-9.78827
▁map	-9.78891
▁port	-9.78899
▁réseau	-9.789
▁begin	-9.78969
raient	-9.79094
▁zone	-9.79144
▁terms	-9.79259
▁informations	-9.7926
▁moving	-9.79283
nes	-9.79345
▁climate	-9.79381
rop	-9.79509
▁lost	-9.7953
bas	-9.79599
▁action	-9.79681
▁kid	-9.79782
esprit	-9.79794
▁sent	-9.7984
▁experiment	-9.80008
▁present	-9.80107
▁carte	-9.80202
▁centaines	-9.80212
▁Go	-9.80589
▁others	-9.80595
▁blood	-9.80607
▁chemin	-9.80607
▁mission	-9.80709
▁sol	-9.80726
ious	-9.8076
▁systèmes	-9.80897
année	-9.80939
▁strong	-9.81215
▁special	-9.81217
▁perdu	-9.81231
▁final	-9.81371
▁rendu	-9.81388
▁pick	-9.81406
▁fe	-9.81506
▁break	-9.81532
▁individual	-9.81573
▁ve	-9.81595
▁hu	-9.81604
▁petites	-9.8167
▁filles	-9.81688
▁Da	-9.81699
▁document	-9.81704
▁rare	-9.81725
▁wonderful	-9.81752
▁spent	-9.81817
▁ground	-9.81996
▁product	-9.82024
▁fil	-9.82094
ship	-9.82135
▁semaine	-9.82142
▁plant	-9.82147
▁contact	-9.82318
▁dessus	-9.82422
▁John	-9.82436
▁pratique	-9.82464
▁sold	-9.82498
▁ability	-9.82589
▁résoudre	-9.82688
mar	-9.82705
▁cœur	-9.82812
▁quickly	-9.82858
▁étudiants	-9.82916
▁blue	-9.82936
▁tried	-9.82971
▁fire	-9.83313
▁prise	-9.83323
duc	-9.8335
▁bus	-9.83355
▁partager	-9.8337
▁vivant	-9.83389
▁produce	-9.83453
▁cut	-9.83507
▁autant	-9.83605
▁com	-9.8367
mêmes	-9.8367
▁moitié	-9.83682
▁droite	-9.83702
▁born	-9.83756
▁report	-9.83763
riez	-9.8379
▁approach	-9.83807
▁girl	-9.83808
▁mode	-9.83889
▁sentiment	-9.83993
▁choisi	-9.84129
▁ob	-9.84229
▁lit	-9.84301
▁focus	-9.84358
▁vent	-9.84398
▁travel	-9.84435
▁relation	-9.84449
▁endroits	-9.8448
inter	-9.84576
▁issue	-9.84645
▁opportunity	-9.84687
ient	-9.84726
▁Dr	-9.848
lement	-9.8483
▁whatever	-9.8485
▁offer	-9.84863
▁dés	-9.84919
ual	-9.84964
▁semaines	-9.8512
▁known	-9.85155
▁radio	-9.85185
▁moral	-9.85236
▁valeur	-9.85395
▁efficace	-9.85447
▁prêt	-9.85485
▁wall	-9.85501
▁page	-9.85555
▁allow	-9.85602
▁fast	-9.8565
J	-9.85669
▁hit	-9.8568
▁oil	-9.85682
iff	-9.85699
Afrique	-9.85754
▁mur	-9.85791
années	-9.85809
▁minute	-9.85893
▁série	-9.85949
▁win	-9.86028
▁ri	-9.86055
▁tel	-9.86065
éducation	-9.86139
▁distance	-9.86213
form	-9.86266
▁rôle	-9.86341
▁complex	-9.86376
▁visage	-9.86404
▁fa	-9.86445
▁article	-9.86529
▁profit	-9.86673
▁interested	-9.8688
▁court	-9.86884
▁soient	-9.86943
▁rouge	-9.86988
▁étions	-9.87005
vers	-9.87064
▁World	-9.87113
▁Right	-9.87125
ole	-9.87161
▁né	-9.87195
▁résultats	-9.87223
▁multi	-9.87232
▁montré	-9.87243
ami	-9.87277
▁risque	-9.87356
▁gone	-9.87375
▁content	-9.87406
▁état	-9.87448
▁Not	-9.87459
fu	-9.8747
▁charge	-9.87483
▁13	-9.87496
▁eat	-9.87503
▁stage	-9.87539
▁Okay	-9.87546
ase	-9.87558
You	-9.87625
▁derrière	-9.87632
▁weeks	-9.87639
ok	-9.87712
▁Mar	-9.87723
▁pe	-9.87754
tive	-9.87782
▁laisser	-9.87789
▁ép	-9.87914
▁pourraient	-9.87985
pp	-9.88028
lon	-9.88037
▁fr	-9.88093
▁web	-9.8816
▁reach	-9.88271
▁hold	-9.88273
▁télé	-9.88291
▁ac	-9.88342
▁African	-9.88465
▁Can	-9.88471
▁character	-9.88546
▁positive	-9.88572
▁lead	-9.88594
▁matin	-9.88717
▁instant	-9.88776
▁DNA	-9.88808
▁either	-9.88808
▁provide	-9.88809
mes	-9.88821
▁clear	-9.88833
▁justice	-9.88968
▁21	-9.88974
▁habit	-9.88976
▁500	-9.88987
▁growth	-9.88991
ever	-9.89037
▁gets	-9.8911
▁sitting	-9.89137
▁conférence	-9.89203
▁pla	-9.89238
fo	-9.89314
▁write	-9.89342
iers	-9.89352
▁esprit	-9.89434
▁voudrais	-9.89468
▁qualité	-9.89482
▁based	-9.896
lan	-9.89667
ures	-9.8974
▁venu	-9.8979
▁Li	-9.89797
▁Afrique	-9.8981
espère	-9.89901
▁result	-9.89932
▁rencontré	-9.89954
▁deep	-9.89958
▁needs	-9.90006
▁durant	-9.90007
▁Après	-9.90018
▁lots	-9.90075
▁Facebook	-9.90132
▁terrible	-9.90132
bra	-9.90249
▁Aujourd	-9.90265
▁lorsqu	-9.90363
▁propres	-9.90413
▁quantité	-9.90416
▁camera	-9.90433
▁réel	-9.90436
▁Pro	-9.90488
▁déc	-9.90582
▁sea	-9.90591
▁vérité	-9.90666
▁trust	-9.90667
▁thank	-9.90741
▁box	-9.90813
▁maladies	-9.90914
▁economy	-9.90935
▁théorie	-9.90935
▁pensent	-9.90976
▁lu	-9.91023
▁touch	-9.91105
▁realize	-9.91137
▁serve	-9.91143
▁audience	-9.91224
issent	-9.91297
▁takes	-9.91466
▁tendance	-9.91499
▁réalis	-9.91538
▁scientifique	-9.91624
▁construction	-9.91797
▁safe	-9.91858
▁material	-9.9187
▁similar	-9.91879
▁nombreux	-9.91907
▁growing	-9.91931
▁visit	-9.9194
▁truth	-9.92015
▁average	-9.92016
▁pr	-9.92163
▁sociale	-9.92338
lie	-9.92339
▁scientists	-9.92388
▁digital	-9.92424
▁pain	-9.92443
▁Peut	-9.92477
amour	-9.92505
▁différente	-9.92547
▁crise	-9.92551
izing	-9.92612
▁passion	-9.92747
utiliser	-9.92778
ray	-9.92834
▁medical	-9.9284
▁drive	-9.92863
ping	-9.92927
▁lire	-9.92937
▁South	-9.93048
▁développé	-9.93063
▁fu	-9.93087
▁standard	-9.93123
amb	-9.93165
▁knowledge	-9.93244
euse	-9.93379
▁alone	-9.93395
nait	-9.9352
▁organ	-9.93543
▁camp	-9.93635
▁mou	-9.93638
▁understanding	-9.93643
▁morning	-9.93658
▁accident	-9.93705
▁network	-9.93708
▁es	-9.93843
▁humans	-9.93844
▁deal	-9.93856
▁seconde	-9.93892
▁wouldn	-9.9396
▁nombreuses	-9.94212
▁effect	-9.94246
▁cap	-9.9427
▁invest	-9.94276
▁hospital	-9.9435
▁X	-9.94351
▁leaders	-9.94434
▁pièce	-9.94565
rap	-9.94672
ium	-9.94701
▁literally	-9.94908
▁movie	-9.94909
▁Notre	-9.94914
▁performance	-9.94923
▁Avec	-9.95049
▁finalement	-9.95072
▁physical	-9.9508
What	-9.95139
▁brought	-9.95188
ult	-9.95195
▁dessin	-9.95288
rent	-9.9532
▁parts	-9.95332
▁emb	-9.95374
▁Br	-9.95533
▁cou	-9.9556
▁Wa	-9.95571
▁incredible	-9.9575
▁troisième	-9.95761
▁intelligent	-9.95783
▁pourrions	-9.95826
▁termes	-9.95848
▁pan	-9.95898
▁descend	-9.95918
▁Vi	-9.95946
▁matière	-9.96174
▁watch	-9.96307
univers	-9.9638
époque	-9.96412
▁telling	-9.96443
ête	-9.96587
▁Sp	-9.96852
▁green	-9.96885
▁shows	-9.96961
ding	-9.96979
▁ordinateur	-9.96983
▁dream	-9.97046
Oh	-9.97115
off	-9.97142
▁professeur	-9.97169
▁journée	-9.97191
▁devrions	-9.97313
▁résultat	-9.97334
▁hundreds	-9.97346
▁disait	-9.9736
▁parmi	-9.97368
▁langue	-9.97457
ologie	-9.97486
▁connaissance	-9.976
▁surtout	-9.97601
▁essayé	-9.97626
▁livres	-9.97723
▁strange	-9.97747
▁mauvais	-9.9785
▁ban	-9.97885
▁nice	-9.97885
▁direct	-9.97938
▁mental	-9.97942
▁tools	-9.97975
▁24	-9.98042
▁development	-9.98134
▁girls	-9.98176
▁faisant	-9.9818
▁produire	-9.98221
▁continu	-9.98308
▁scène	-9.9832
▁Ensuite	-9.98464
▁étant	-9.9856
▁mi	-9.9861
chi	-9.98673
avi	-9.98676
gram	-9.98736
▁heureux	-9.9876
cal	-9.9881
▁doute	-9.98823
▁extraordinaire	-9.98902
▁Yeah	-9.98955
▁dépend	-9.99045
▁pensons	-9.99048
ages	-9.99078
▁seems	-9.99102
her	-9.99186
▁wrote	-9.99191
▁giving	-9.99191
▁voie	-9.99192
ake	-9.99276
▁ressources	-9.99312
▁race	-9.99341
▁baby	-9.99347
▁climatique	-9.99363
▁encourage	-9.99374
▁influence	-9.99563
▁extra	-9.99646
▁soi	-9.99704
▁faible	-9.99784
▁likely	-9.99831
like	-9.9987
istic	-9.99885
▁général	-9.99891
▁Pa	-9.99903
▁reli	-9.99928
▁numbers	-10.0002
Well	-10.0009
ja	-10.0009
▁taux	-10.002
▁bottom	-10.0022
▁pose	-10.0022
▁starting	-10.0027
ris	-10.0027
▁crée	-10.0029
▁feet	-10.0039
▁fou	-10.004
fin	-10.0041
▁Ka	-10.0042
▁dark	-10.005
▁reçu	-10.0051
▁forward	-10.0053
▁raisons	-10.0056
▁Ar	-10.0059
▁goal	-10.0061
▁trait	-10.0067
vé	-10.0068
▁areas	-10.0079
▁running	-10.0082
nel	-10.0084
▁road	-10.0085
▁developed	-10.0085
▁meet	-10.009
▁travaillé	-10.0091
▁continent	-10.0096
▁nation	-10.0101
▁époque	-10.0115
ren	-10.0123
▁ami	-10.0125
▁vois	-10.0128
ule	-10.0133
▁vitesse	-10.0143
▁anyone	-10.0145
▁longue	-10.0154
▁char	-10.0156
▁intelligence	-10.0157
ka	-10.0161
▁faisait	-10.0166
▁issues	-10.0167
▁vis	-10.0177
ability	-10.0182
ros	-10.0183
▁Na	-10.0184
▁blanc	-10.0184
▁industry	-10.0185
▁Hu	-10.0197
▁star	-10.0198
▁développer	-10.02
▁modern	-10.0203
▁success	-10.0205
▁push	-10.0209
▁discovered	-10.0216
imp	-10.023
▁ait	-10.0231
tation	-10.0236
▁Sud	-10.0243
▁viv	-10.025
▁rapide	-10.026
▁especially	-10.026
row	-10.0264
▁Sur	-10.0264
▁teach	-10.0268
▁major	-10.027
▁obtenir	-10.0271
▁miles	-10.0274
▁listen	-10.0283
▁seront	-10.0289
aller	-10.0291
▁mètres	-10.0291
▁entreprise	-10.0301
ets	-10.0305
▁vies	-10.0317
aï	-10.0322
▁aura	-10.0345
▁Ni	-10.0353
▁asking	-10.0354
ps	-10.036
océan	-10.0366
ham	-10.0372
▁worth	-10.0374
▁books	-10.0374
▁importe	-10.0387
cher	-10.039
▁commercial	-10.0397
▁spread	-10.0397
▁lors	-10.0406
▁soon	-10.041
▁rester	-10.0412
si	-10.0417
expérience	-10.0426
▁guess	-10.0428
▁lab	-10.0431
▁outils	-10.0436
▁belle	-10.0436
▁vraie	-10.0442
▁moyenne	-10.0442
▁eye	-10.0453
▁génétique	-10.0459
▁voulait	-10.0459
éré	-10.0464
lock	-10.0466
▁conscience	-10.0474
▁voitures	-10.0481
qué	-10.0481
▁terrain	-10.0489
▁ice	-10.0491
▁save	-10.0498
▁role	-10.05
▁subject	-10.0505
▁période	-10.0505
▁creating	-10.0505
▁réfléchir	-10.0506
ana	-10.0508
▁send	-10.0511
▁develop	-10.0512
▁recognize	-10.052
▁With	-10.0524
▁choice	-10.0533
▁crime	-10.0542
▁fils	-10.055
▁règles	-10.0555
évolution	-10.0564
▁relations	-10.0565
▁etc	-10.0565
▁relationship	-10.0566
ification	-10.0567
van	-10.0571
▁nu	-10.0586
▁demi	-10.0588
▁Qui	-10.0588
for	-10.0594
▁vivent	-10.0607
▁raconter	-10.0611
ock	-10.0613
rat	-10.0624
▁succès	-10.0629
▁soleil	-10.063
▁pire	-10.064
▁assis	-10.0643
▁pa	-10.0645
▁viennent	-10.0645
▁communities	-10.0646
▁chercher	-10.0647
light	-10.0652
▁premiers	-10.0652
▁pensée	-10.0653
▁papier	-10.0661
née	-10.0665
▁pauvres	-10.0671
▁cru	-10.0679
▁active	-10.0681
atif	-10.0688
▁prop	-10.0689
▁ir	-10.0692
▁atteint	-10.0693
▁mass	-10.0696
▁pé	-10.0698
▁carbon	-10.071
ose	-10.0719
▁total	-10.072
▁designed	-10.0724
▁utilisant	-10.0728
▁utilise	-10.0728
▁trouble	-10.0741
▁politiques	-10.075
▁manque	-10.075
▁online	-10.0751
▁tiny	-10.0756
▁path	-10.0759
▁office	-10.0778
cho	-10.078
▁seem	-10.0784
▁screen	-10.0787
▁agree	-10.0788
▁recently	-10.0793
▁groupes	-10.0793
▁joue	-10.0803
▁dead	-10.0813
▁Mu	-10.0822
▁peine	-10.0822
▁follow	-10.0824
ologist	-10.0833
▁double	-10.0834
dessus	-10.0834
▁Plus	-10.0837
▁bras	-10.0844
▁300	-10.085
▁Même	-10.0867
lam	-10.087
ze	-10.0872
▁door	-10.0876
▁op	-10.0877
▁favorite	-10.0884
ane	-10.0891
ack	-10.0892
isé	-10.0897
▁noir	-10.0914
nge	-10.0918
pé	-10.0919
▁law	-10.0926
cha	-10.0931
▁langage	-10.0932
▁smart	-10.0932
▁découvrir	-10.0935
▁rue	-10.0936
▁défini	-10.0947
▁changing	-10.0954
oir	-10.0956
▁revolution	-10.0964
▁satellite	-10.0964
▁genetic	-10.0968
▁coin	-10.0974
▁gas	-10.0979
▁zones	-10.0983
▁collective	-10.0984
▁étude	-10.0985
nger	-10.0987
▁tri	-10.0996
▁cycle	-10.0996
▁pri	-10.1001
▁wonder	-10.1001
ari	-10.1007
▁kill	-10.1015
▁absolutely	-10.1015
▁basic	-10.1022
▁showed	-10.1028
▁certaine	-10.1028
▁sleep	-10.1029
ica	-10.1033
▁changes	-10.1035
▁marcher	-10.1043
▁treat	-10.1046
▁solaire	-10.1047
▁cher	-10.1047
▁portable	-10.1059
▁period	-10.1061
day	-10.1063
oo	-10.1067
▁By	-10.1077
▁dirige	-10.1078
▁retour	-10.1086
▁expect	-10.1089
▁Inde	-10.1092
▁couleur	-10.1094
impression	-10.1095
leur	-10.1096
▁déco	-10.1097
▁Imaginez	-10.1098
▁pourriez	-10.1102
▁allait	-10.1108
▁evidence	-10.1111
lée	-10.1112
▁sun	-10.1116
oli	-10.1117
▁fit	-10.1118
▁vote	-10.1124
image	-10.1125
▁mobile	-10.1127
▁forces	-10.1132
▁journey	-10.1145
▁towards	-10.1148
oy	-10.115
▁connection	-10.1152
▁lien	-10.1152
▁connu	-10.1153
étaient	-10.1167
▁talked	-10.1178
▁courage	-10.1181
▁mains	-10.1181
nez	-10.1183
▁conçu	-10.1193
sol	-10.1196
uel	-10.1204
▁savent	-10.1207
▁sport	-10.1207
▁War	-10.121
▁énergie	-10.1219
rate	-10.122
▁beyond	-10.1226
▁add	-10.1231
▁resources	-10.1235
ight	-10.1244
▁international	-10.1259
▁pouvaient	-10.126
▁libre	-10.126
uit	-10.1261
▁celles	-10.1267
environnement	-10.1277
▁fly	-10.1279
▁intéressante	-10.128
▁street	-10.1288
▁cat	-10.1289
▁continuer	-10.1291
▁clean	-10.1293
non	-10.1299
▁Yes	-10.1313
cor	-10.1336
▁publique	-10.1343
▁croire	-10.1344
âge	-10.1347
▁viol	-10.1352
▁haute	-10.1358
arr	-10.1362
▁playing	-10.1366
▁fight	-10.1372
Et	-10.1373
▁treatment	-10.1375
▁Certains	-10.1377
▁response	-10.1377
▁massive	-10.138
▁poser	-10.1401
▁région	-10.1403
top	-10.1408
▁sociaux	-10.1411
▁algorithm	-10.1424
rk	-10.1424
▁incredibly	-10.1428
▁répond	-10.1445
▁révolution	-10.1446
▁ouvert	-10.145
ui	-10.1458
▁aide	-10.1458
▁First	-10.1462
cation	-10.1462
▁regardé	-10.1465
▁modèles	-10.1466
mat	-10.1473
▁truc	-10.1479
▁génial	-10.1479
▁forte	-10.1484
▁interest	-10.1485
▁Com	-10.1492
▁sang	-10.1507
▁espèces	-10.1507
▁condition	-10.1508
lay	-10.1511
▁attack	-10.1513
▁conception	-10.1514
▁tâche	-10.1514
▁gene	-10.1521
▁réaliser	-10.1525
▁deliver	-10.1531
▁Nord	-10.1534
▁invent	-10.1535
▁infrastructure	-10.1538
▁sortes	-10.154
▁sit	-10.154
èrent	-10.1541
▁hundred	-10.1543
▁region	-10.1548
▁bigger	-10.1551
▁argument	-10.1552
▁lived	-10.1552
▁increase	-10.1558
▁ton	-10.1559
▁ét	-10.1565
▁search	-10.1565
▁sounds	-10.1572
ists	-10.1572
▁Man	-10.1596
▁theory	-10.1598
▁vert	-10.16
▁Chaque	-10.1601
▁É	-10.1607
avant	-10.1608
▁rêve	-10.161
spect	-10.1612
▁médicaments	-10.1623
▁gars	-10.1625
▁track	-10.1627
low	-10.1633
▁practice	-10.1634
▁pourtant	-10.1634
▁bâtiment	-10.1636
▁Fa	-10.1643
uis	-10.1646
▁object	-10.1647
▁English	-10.1651
▁rempli	-10.1651
▁drug	-10.1652
put	-10.1652
▁potential	-10.1657
nelle	-10.1659
▁developing	-10.1659
▁Maybe	-10.1665
▁Every	-10.1667
nom	-10.1667
▁laboratoire	-10.1668
ki	-10.1674
▁check	-10.1686
▁pensais	-10.1686
▁grandi	-10.169
▁conduit	-10.1703
▁yes	-10.1706
▁découverte	-10.1709
▁objectif	-10.1713
▁plu	-10.1717
▁consider	-10.1718
économie	-10.1722
▁event	-10.1729
▁objets	-10.1734
▁Beaucoup	-10.1738
▁bureau	-10.1753
▁sept	-10.1758
▁ayant	-10.176
▁meilleurs	-10.1761
▁predict	-10.1765
▁économie	-10.1771
▁adapt	-10.1774
ime	-10.1775
▁recherches	-10.178
ify	-10.178
▁Am	-10.1784
▁solar	-10.1785
bit	-10.1792
▁perfect	-10.1794
atrice	-10.1801
▁appelée	-10.1805
▁term	-10.1806
▁chef	-10.1808
▁tradition	-10.1811
▁surprise	-10.1825
▁lose	-10.1826
▁several	-10.1826
▁mauvaise	-10.1832
▁courant	-10.1834
▁putting	-10.1837
▁bonnes	-10.184
▁wait	-10.1843
▁cor	-10.1851
▁fail	-10.1856
▁Of	-10.1857
▁cherche	-10.1861
▁démocratie	-10.1861
▁pull	-10.1862
istes	-10.1863
ries	-10.1864
▁block	-10.1877
▁espèce	-10.188
▁Don	-10.1883
▁quartier	-10.1897
▁représente	-10.1897
▁savais	-10.1904
▁jobs	-10.1909
▁store	-10.1922
▁suivante	-10.1925
▁inform	-10.1931
▁groups	-10.1944
Le	-10.1946
▁exp	-10.1956
▁Du	-10.1956
▁danger	-10.1963
▁notion	-10.1972
▁month	-10.1975
isant	-10.1976
vent	-10.1977
▁approche	-10.198
▁achieve	-10.1986
▁pot	-10.1988
adore	-10.1997
▁station	-10.1999
▁available	-10.2004
▁suivre	-10.2004
▁North	-10.2004
▁libér	-10.2024
▁rat	-10.2024
▁liste	-10.2025
▁expériences	-10.2026
▁ordinateurs	-10.2039
▁appear	-10.204
ama	-10.2044
▁discussion	-10.2051
▁combat	-10.2058
▁account	-10.2058
▁threat	-10.2058
▁employ	-10.2066
▁dog	-10.207
ls	-10.2072
ned	-10.2072
lant	-10.2074
▁gaz	-10.2076
▁college	-10.2077
▁vit	-10.2077
▁transformation	-10.2077
kin	-10.2083
inte	-10.2087
▁perform	-10.2095
édit	-10.2104
▁Su	-10.2104
▁ran	-10.2108
vol	-10.2112
▁families	-10.2112
▁perception	-10.2112
▁carbone	-10.2113
fer	-10.2116
ssons	-10.2122
▁successful	-10.2125
▁died	-10.2129
▁numérique	-10.2132
ches	-10.2133
▁forest	-10.2134
▁slow	-10.214
han	-10.2144
▁appel	-10.2149
avère	-10.2152
▁involved	-10.2158
No	-10.2163
▁magnifique	-10.2167
▁loi	-10.2167
▁Etats	-10.2173
▁Lorsque	-10.2178
igne	-10.2186
▁pair	-10.219
▁Ta	-10.2194
▁Who	-10.2194
▁reasons	-10.2198
▁moments	-10.22
",	-10.2202
ong	-10.2215
su	-10.2215
▁parties	-10.2216
▁bizarre	-10.2222
▁feed	-10.2235
▁imaginer	-10.2235
▁comprend	-10.2241
▁architecture	-10.2243
▁soins	-10.2245
▁mari	-10.225
▁haven	-10.2252
▁champ	-10.2256
▁choose	-10.2259
▁National	-10.2259
▁fo	-10.226
▁cro	-10.2262
▁original	-10.2262
▁boy	-10.2272
apprentissage	-10.2277
▁perd	-10.2284
▁accès	-10.2293
▁Har	-10.2295
▁Pendant	-10.2296
▁After	-10.2296
▁wish	-10.2303
tter	-10.231
▁emp	-10.2315
humanité	-10.2316
▁fort	-10.2323
let	-10.2325
▁jeux	-10.2331
▁breath	-10.2333
ft	-10.2335
▁card	-10.2336
ude	-10.2341
▁correspond	-10.2351
▁récemment	-10.2351
▁sociétés	-10.2352
▁meaning	-10.2353
▁feu	-10.2354
over	-10.2361
▁interview	-10.237
▁blog	-10.2373
▁rules	-10.2376
▁investi	-10.2385
▁Cha	-10.2385
▁aren	-10.2393
cré	-10.2397
▁bank	-10.24
▁radical	-10.2405
▁potentiel	-10.2407
▁–	-10.2407
▁débat	-10.2407
▁alternative	-10.2426
▁scientific	-10.2426
▁magic	-10.243
▁création	-10.2432
▁cour	-10.2433
▁nine	-10.2437
étique	-10.2441
▁speed	-10.2445
▁further	-10.2445
▁complexe	-10.2451
▁ph	-10.2454
▁wind	-10.2456
▁liberté	-10.2464
▁muscle	-10.2464
▁David	-10.2464
j	-10.2468
▁bons	-10.2482
▁Washington	-10.2482
▁vécu	-10.2483
▁films	-10.2485
▁contribu	-10.2488
▁decision	-10.249
▁finding	-10.2495
▁Lo	-10.2496
▁conflit	-10.2501
▁phrase	-10.2501
▁refus	-10.2502
▁communautés	-10.2511
▁function	-10.2518
ndre	-10.2519
▁uniquement	-10.2522
▁puissant	-10.2525
▁transformer	-10.2525
▁civil	-10.253
▁writing	-10.2539
▁suggest	-10.254
▁école	-10.2542
▁enter	-10.2543
▁West	-10.2548
nais	-10.2551
▁fan	-10.2554
▁réfléchi	-10.2556
▁doctor	-10.257
▁consomm	-10.2571
ging	-10.2573
▁grew	-10.2577
▁tas	-10.2581
▁Th	-10.2586
▁tent	-10.2588
▁near	-10.2591
▁medicine	-10.2596
▁flow	-10.2596
▁email	-10.2596
▁list	-10.2604
▁manger	-10.2604
▁device	-10.2608
▁chant	-10.2613
ssant	-10.2615
▁méthode	-10.2615
▁remain	-10.2615
▁sexe	-10.2618
▁telle	-10.2631
avenir	-10.2633
Music	-10.2637
▁extrêmement	-10.2639
où	-10.264
▁projets	-10.2641
û	-10.2641
nement	-10.2642
▁échelle	-10.2643
▁interact	-10.2647
ov	-10.2648
issant	-10.2648
▁personnel	-10.2651
▁réaction	-10.2656
▁amp	-10.2659
▁couche	-10.2662
▁conflict	-10.2673
▁return	-10.2673
▁moved	-10.2674
▁masse	-10.2674
▁rich	-10.2676
▁capables	-10.2683
▁changements	-10.2693
▁pauvreté	-10.2693
▁études	-10.2698
▁computers	-10.27
▁walking	-10.2702
▁expliquer	-10.2703
▁mise	-10.2706
éni	-10.2709
▁poverty	-10.2711
▁drugs	-10.2712
▁Sh	-10.2713
▁répondu	-10.2719
▁médias	-10.2728
▁throw	-10.2731
▁tôt	-10.2731
▁talent	-10.2731
▁Chinese	-10.2733
▁discover	-10.2736
Amérique	-10.2736
▁becomes	-10.2738
▁élevé	-10.2739
▁cover	-10.2741
▁utilisent	-10.2746
▁aime	-10.2747
▁"(	-10.275
▁creative	-10.275
▁particularly	-10.2751
▁soir	-10.2753
▁skin	-10.276
▁moderne	-10.2765
▁protection	-10.2766
▁technique	-10.2767
▁cross	-10.2767
▁responsable	-10.2769
▁supposed	-10.2773
▁partage	-10.2774
heure	-10.2776
▁structures	-10.2783
▁biggest	-10.2789
▁disant	-10.279
▁central	-10.2796
▁sentir	-10.2799
▁répondre	-10.2799
▁gives	-10.28
▁student	-10.2807
▁connais	-10.281
ène	-10.281
▁beau	-10.2811
▁higher	-10.2814
▁text	-10.2814
état	-10.2824
▁trucs	-10.2834
▁pictures	-10.2844
▁étrange	-10.2857
work	-10.2859
▁Ici	-10.2861
▁hot	-10.2865
▁origin	-10.2865
▁cri	-10.2866
▁join	-10.2866
▁étape	-10.2875
umb	-10.2876
▁vieux	-10.2882
▁context	-10.2883
▁compagnie	-10.2886
▁draw	-10.2887
▁parent	-10.2887
▁count	-10.2892
▁droits	-10.29
▁showing	-10.2902
▁daughter	-10.2906
▁software	-10.2906
▁exciting	-10.2906
naire	-10.2908
▁mange	-10.2912
▁chiffres	-10.2912
▁Paul	-10.2913
We	-10.2914
▁fine	-10.2916
▁meeting	-10.2918
▁bat	-10.2918
▁ferme	-10.2921
▁arriv	-10.2921
▁désir	-10.2924
▁anybody	-10.2926
▁crazy	-10.2926
▁match	-10.2929
ordinateur	-10.2932
▁Even	-10.2933
iti	-10.2938
antes	-10.2942
▁similaire	-10.2945
cou	-10.2947
▁security	-10.2948
ADN	-10.2952
▁totalement	-10.2952
▁price	-10.2957
▁certainly	-10.296
▁urban	-10.2972
▁protéger	-10.2973
▁génér	-10.2975
▁entend	-10.2977
▁watching	-10.2978
ped	-10.2981
▁enfin	-10.2982
▁organization	-10.299
▁fuel	-10.299
▁depend	-10.2991
▁general	-10.2994
▁Quelle	-10.2994
isée	-10.2999
▁noire	-10.3002
▁hole	-10.3003
▁Pe	-10.3006
▁frère	-10.3007
ache	-10.3009
▁quality	-10.301
▁réuni	-10.3013
▁US	-10.3016
▁invisible	-10.3025
▁Pr	-10.3042
▁médecine	-10.3049
▁sein	-10.3059
bri	-10.3062
▁correct	-10.3063
▁Twitter	-10.3065
▁stick	-10.3065
ans	-10.3067
▁absolument	-10.3068
bb	-10.3076
ically	-10.3079
▁including	-10.3085
▁électrique	-10.3085
érer	-10.3087
espoir	-10.3092
▁choisir	-10.3093
mate	-10.3093
▁ready	-10.3098
action	-10.3104
oubli	-10.3105
▁notice	-10.3116
▁farm	-10.3116
après	-10.3119
▁totally	-10.312
▁shift	-10.3125
▁results	-10.3135
▁require	-10.3142
▁pétrole	-10.3145
▁em	-10.3153
▁hour	-10.3154
dom	-10.3158
▁gagner	-10.3164
▁naturel	-10.3167
▁task	-10.3171
▁City	-10.3185
▁female	-10.3185
▁restaurant	-10.3185
Je	-10.3186
ev	-10.319
▁organism	-10.3195
lit	-10.3196
▁atteindre	-10.3197
▁lancé	-10.3203
▁techniques	-10.3208
▁éléments	-10.3212
▁spécial	-10.3221
▁formes	-10.3224
▁nobody	-10.3226
▁permettre	-10.3227
omb	-10.3232
▁internet	-10.3237
yez	-10.3242
▁Ri	-10.3244
▁magazine	-10.3246
▁taught	-10.3246
▁glace	-10.3246
▁soutien	-10.3267
▁connected	-10.3269
▁named	-10.3274
▁CO	-10.3278
iel	-10.3282
▁eventually	-10.3287
▁among	-10.3287
▁devait	-10.3288
▁Ki	-10.3289
▁largest	-10.3293
▁Where	-10.3293
étude	-10.3294
▁mêmes	-10.3295
▁personnelle	-10.3307
▁lesquelles	-10.3307
▁rock	-10.3308
▁detail	-10.3316
▁Quel	-10.3319
▁Kenya	-10.3328
▁everywhere	-10.3328
▁worse	-10.3328
▁permis	-10.3328
▁foot	-10.334
université	-10.334
▁col	-10.3342
▁utile	-10.3348
▁marque	-10.3348
▁départ	-10.335
▁erreur	-10.3357
▁allowed	-10.336
▁envoyé	-10.3369
▁democracy	-10.3369
▁stock	-10.3369
▁prevent	-10.337
▁Ok	-10.3371
▁onto	-10.3375
▁pou	-10.3379
▁soul	-10.338
▁exc	-10.3385
delà	-10.3387
▁deviennent	-10.339
▁formation	-10.3391
▁improve	-10.3394
▁evolution	-10.3409
▁chemical	-10.341
wi	-10.3421
▁vend	-10.3423
▁journal	-10.3425
▁poll	-10.3427
dge	-10.3427
▁suivant	-10.344
▁Most	-10.3441
▁écrire	-10.3444
▁clair	-10.3447
▁moyens	-10.345
▁durable	-10.345
▁familles	-10.3451
▁address	-10.3452
▁Ru	-10.3455
▁drop	-10.3459
attend	-10.346
▁ball	-10.3462
▁revenir	-10.3477
▁waste	-10.3478
▁capture	-10.3481
mu	-10.3493
▁véritable	-10.3493
▁leadership	-10.3494
laire	-10.3495
▁career	-10.3495
rd	-10.3495
▁late	-10.3502
▁loved	-10.3505
▁traiter	-10.3505
▁2000	-10.3517
▁Afghanistan	-10.3523
▁memory	-10.3535
▁fundamental	-10.3545
▁trip	-10.3547
▁huit	-10.3553
▁shown	-10.3554
▁standing	-10.3556
▁compliqué	-10.3556
▁discours	-10.3556
▁mom	-10.3556
▁former	-10.3559
▁carrière	-10.3568
▁letter	-10.357
▁caméra	-10.3577
▁montagne	-10.3577
▁crisis	-10.3577
▁infect	-10.358
▁individuals	-10.3589
▁detect	-10.3591
▁finir	-10.3594
my	-10.3597
▁architect	-10.3597
▁bodies	-10.3598
▁secteur	-10.3598
▁survive	-10.36
▁dance	-10.3608
▁song	-10.3609
▁bed	-10.3619
▁tool	-10.3628
▁peace	-10.364
▁cellule	-10.3646
▁devenue	-10.3651
▁engage	-10.3651
▁budget	-10.3661
▁peuple	-10.3662
▁poli	-10.3665
▁décision	-10.3667
▁américaine	-10.3675
▁moteur	-10.3676
▁disc	-10.3679
▁mountain	-10.3683
▁contexte	-10.3686
▁fat	-10.3691
aurais	-10.3691
▁vivons	-10.3692
▁sites	-10.3693
pped	-10.3697
▁Pri	-10.3697
▁peau	-10.3698
▁plants	-10.3699
▁expression	-10.3701
cide	-10.3703
▁forêt	-10.3711
▁limit	-10.3716
ète	-10.3717
▁Bill	-10.3718
▁gènes	-10.372
▁Dé	-10.3724
électricité	-10.3725
▁extraordinary	-10.3725
▁principle	-10.3725
▁fondamentale	-10.3728
▁400	-10.373
▁cars	-10.3732
▁pattern	-10.3733
rions	-10.3737
▁rencontre	-10.3741
▁auparavant	-10.3747
▁excited	-10.3747
▁Today	-10.3748
▁voisin	-10.375
table	-10.3752
▁respond	-10.3768
▁Regardez	-10.3768
▁réduire	-10.3768
▁kilo	-10.3768
▁TV	-10.3773
▁march	-10.3783
▁sauver	-10.3784
▁clé	-10.3787
tiques	-10.3788
▁actions	-10.3789
▁évident	-10.3789
▁dehors	-10.379
▁sexual	-10.3791
lent	-10.3809
égalité	-10.3812
▁distribution	-10.3812
▁extremely	-10.3818
▁dimensions	-10.3827
▁travaillent	-10.383
▁grave	-10.3832
▁logiciel	-10.3833
▁Bu	-10.3833
▁sky	-10.3843
▁thousand	-10.3844
▁traditional	-10.385
▁plantes	-10.3852
▁reduce	-10.3857
▁shot	-10.3857
ker	-10.3858
▁critique	-10.3858
▁lower	-10.3859
▁imagination	-10.3866
▁payer	-10.3874
▁acheter	-10.3874
▁Those	-10.3876
▁faite	-10.3882
iment	-10.3883
▁obviously	-10.3884
▁bébé	-10.3888
▁mix	-10.3888
▁collabor	-10.3889
▁décisions	-10.3892
▁opportunité	-10.3895
▁littéralement	-10.3897
▁factor	-10.3905
▁serious	-10.3909
ology	-10.391
▁dites	-10.3911
▁mondial	-10.3914
▁violent	-10.3916
▁Wi	-10.3918
▁teachers	-10.3919
▁nucléaire	-10.3919
▁adopt	-10.3919
▁hum	-10.3925
▁date	-10.3927
▁neuro	-10.3928
nons	-10.3931
avaient	-10.3933
ria	-10.3934
▁schools	-10.3935
unk	-10.3937
▁campagne	-10.3941
▁silence	-10.3941
▁directement	-10.3944
▁fallait	-10.3953
▁bord	-10.3954
▁Second	-10.3963
▁plastic	-10.3963
rin	-10.3967
▁tissu	-10.397
▁meant	-10.3981
▁sat	-10.3982
ney	-10.3984
▁passage	-10.3985
▁suivi	-10.3985
▁essentially	-10.399
▁univers	-10.3997
▁tree	-10.4003
▁laugh	-10.4007
▁biologique	-10.4007
▁majorité	-10.4011
▁réseaux	-10.4012
isons	-10.4015
▁prove	-10.4033
▁grosse	-10.4034
▁press	-10.4041
▁experts	-10.4044
▁somewhere	-10.4051
▁truly	-10.4051
▁chaud	-10.4051
▁grain	-10.4052
▁Bi	-10.4056
▁essai	-10.4063
▁older	-10.4068
▁possibilité	-10.4069
alité	-10.407
▁kilomètres	-10.4073
▁link	-10.4078
▁arrière	-10.4089
▁naturelle	-10.4093
▁bonheur	-10.4095
▁healthy	-10.4096
▁membres	-10.4097
▁incroyablement	-10.4101
▁opinion	-10.4101
Inde	-10.4108
gal	-10.4111
enfants	-10.4113
▁wave	-10.4114
▁collègues	-10.4115
▁famous	-10.4117
▁remind	-10.4117
ix	-10.4118
▁concentr	-10.4133
▁blind	-10.4139
▁examin	-10.414
▁wife	-10.414
habitude	-10.4143
▁killed	-10.4145
équipe	-10.4151
▁pal	-10.4153
▁range	-10.4155
▁conseil	-10.4161
verse	-10.4173
invent	-10.4183
▁nuclear	-10.4184
▁mourir	-10.4184
▁respir	-10.4184
ates	-10.4187
▁element	-10.4189
▁trees	-10.419
▁decisions	-10.4197
ified	-10.4197
aille	-10.42
▁mini	-10.4201
▁George	-10.4206
▁bacteria	-10.4206
▁cultures	-10.4209
▁products	-10.421
▁critical	-10.4213
▁boîte	-10.4229
▁lois	-10.4232
▁trade	-10.4233
ley	-10.4234
ncer	-10.4235
▁reading	-10.4239
▁dix	-10.4245
▁Ph	-10.4251
▁cloud	-10.4251
aine	-10.4252
▁conversations	-10.4255
▁revenu	-10.4256
▁rise	-10.4262
▁posé	-10.4263
ory	-10.4266
▁faster	-10.4271
▁révél	-10.4274
▁150	-10.4276
▁utilisons	-10.4278
▁examples	-10.4281
▁training	-10.4287
sum	-10.4291
▁partner	-10.4293
▁floor	-10.4296
▁bunch	-10.4296
ograph	-10.431
écri	-10.4311
▁financial	-10.4319
▁président	-10.4319
▁institution	-10.4326
endroit	-10.4331
▁teacher	-10.4334
▁kept	-10.4341
▁cuisine	-10.4341
▁policy	-10.4342
gh	-10.4343
▁East	-10.435
▁pages	-10.4358
▁el	-10.436
So	-10.4364
allais	-10.4368
pre	-10.437
ati	-10.4376
▁cases	-10.4377
▁écoles	-10.4379
▁chien	-10.4387
▁puissance	-10.4387
▁materials	-10.4389
▁objet	-10.4391
▁suddenly	-10.4393
▁lutte	-10.4393
radi	-10.4395
ram	-10.4399
▁proche	-10.4403
▁intérêt	-10.4405
▁Tous	-10.4407
▁purpose	-10.441
▁usually	-10.441
▁above	-10.441
▁objects	-10.4411
▁Fi	-10.4412
▁frontière	-10.4412
▁board	-10.4422
▁guide	-10.4433
asse	-10.4438
▁parcour	-10.4442
▁Amérique	-10.4449
▁male	-10.4449
▁progrès	-10.4456
▁artist	-10.4462
▁visite	-10.4464
échelle	-10.4469
▁mémoire	-10.4479
▁doigt	-10.4479
▁étudier	-10.4489
▁hair	-10.4489
innovation	-10.4492
▁prennent	-10.4502
▁statistic	-10.4502
▁personnage	-10.4502
▁tap	-10.4503
▁prenez	-10.4503
ably	-10.4504
lier	-10.4506
za	-10.4519
▁dollar	-10.452
▁complicated	-10.4525
▁menace	-10.4527
▁médecin	-10.453
▁zero	-10.4548
▁brother	-10.4548
▁bleu	-10.4551
▁causes	-10.4552
mère	-10.4563
so	-10.4563
▁humanity	-10.4569
▁freedom	-10.4572
▁pack	-10.4576
ko	-10.4576
▁afford	-10.4594
▁bal	-10.4595
▁importantes	-10.4596
▁Laissez	-10.4597
▁cold	-10.4616
▁âge	-10.4617
▁jump	-10.4618
▁burn	-10.462
ough	-10.4622
ouvri	-10.4625
▁genes	-10.4626
vin	-10.463
▁brains	-10.4639
▁tax	-10.4642
▁ciel	-10.4648
▁Bar	-10.4648
▁compar	-10.4649
▁nord	-10.4658
ani	-10.4662
▁workers	-10.4664
wn	-10.4664
▁disponible	-10.4664
▁slide	-10.4665
▁sorti	-10.4666
▁Arab	-10.4667
▁larger	-10.4674
▁merci	-10.4674
ît	-10.4681
▁concerne	-10.4687
▁multiple	-10.4688
▁Like	-10.469
origine	-10.469
▁devoir	-10.4691
rice	-10.4692
▁activité	-10.4693
▁style	-10.4695
▁tests	-10.4703
▁skills	-10.4705
particulièrement	-10.4713
▁effort	-10.4716
▁fla	-10.472
▁ship	-10.4726
▁allows	-10.4726
▁models	-10.473
▁observ	-10.4734
▁wide	-10.4749
▁ended	-10.4751
▁gras	-10.4756
▁gain	-10.4759
▁circuit	-10.4759
▁froid	-10.4759
▁wealth	-10.4759
jou	-10.4765
▁specific	-10.4765
▁œuvre	-10.477
▁fur	-10.4777
▁finance	-10.4779
▁chinois	-10.4782
▁please	-10.4782
▁responsabilité	-10.4782
▁anymore	-10.4782
▁designers	-10.4783
Musique	-10.4783
▁collection	-10.4792
▁doctors	-10.4793
▁suit	-10.4804
▁chat	-10.4804
▁ressent	-10.4805
auto	-10.4805
▁symbol	-10.4806
▁norm	-10.4806
▁wild	-10.4807
▁indeed	-10.4807
▁El	-10.4814
▁aid	-10.4827
amélior	-10.4829
▁emotional	-10.4831
▁visible	-10.4831
▁matériaux	-10.4831
▁garder	-10.4842
▁Ed	-10.4854
▁worry	-10.4854
▁somehow	-10.4854
▁quant	-10.4854
▁private	-10.4855
▁projects	-10.4859
▁income	-10.4863
▁valeurs	-10.4869
▁45	-10.4877
▁stratégie	-10.4878
▁température	-10.4878
Video	-10.4878
▁devais	-10.4878
▁window	-10.4879
▁dangerous	-10.4879
hu	-10.4881
▁sell	-10.4888
▁oh	-10.4889
ira	-10.4895
cule	-10.49
▁target	-10.4902
▁neighborhood	-10.4902
▁exception	-10.4903
▁numéro	-10.4904
▁alive	-10.4907
▁contraire	-10.4909
▁gay	-10.491
▁pin	-10.4912
▁tomber	-10.4918
▁Là	-10.492
berg	-10.4922
▁simples	-10.4925
▁manipul	-10.4926
▁significant	-10.4926
▁website	-10.4926
▁plastique	-10.4926
▁finger	-10.4931
▁pourrais	-10.4932
log	-10.4932
▁victim	-10.4932
▁messages	-10.4942
0,000	-10.495
▁okay	-10.495
!"	-10.4951
éclair	-10.4957
▁concevoir	-10.4974
▁commencent	-10.4975
▁waiting	-10.4982
▁starts	-10.4986
▁trial	-10.4994
▁University	-10.4998
▁square	-10.4998
▁reflect	-10.4999
▁actual	-10.5
▁bulle	-10.5001
▁decide	-10.5003
▁perte	-10.5007
▁Dan	-10.501
entreprise	-10.5014
▁Jo	-10.5016
▁disons	-10.5019
▁souvenir	-10.5022
▁politics	-10.5023
▁fruit	-10.5023
▁beauté	-10.5025
▁signe	-10.5027
▁Comp	-10.5029
sser	-10.5029
▁Are	-10.5031
▁améliorer	-10.5038
net	-10.5042
▁concern	-10.5044
▁express	-10.5045
▁gouvernements	-10.5046
▁Personne	-10.5047
▁conclusion	-10.5047
▁laissé	-10.5048
▁stars	-10.5051
bilité	-10.5062
▁print	-10.507
▁military	-10.5071
▁propriété	-10.5071
▁accord	-10.5072
▁complete	-10.5077
med	-10.5082
▁effective	-10.5085
▁riches	-10.5085
▁patterns	-10.5087
▁préféré	-10.5087
▁spot	-10.5089
▁os	-10.5089
board	-10.5094
▁weren	-10.5095
▁publié	-10.5096
▁biology	-10.5097
▁cook	-10.51
▁Vo	-10.5102
▁km	-10.5108
▁current	-10.5109
▁surviv	-10.511
étend	-10.5116
▁decades	-10.5117
▁morceau	-10.5117
▁shared	-10.5118
▁microbes	-10.512
▁arrêté	-10.5122
▁déplace	-10.5125
In	-10.5131
▁vide	-10.5137
▁Los	-10.5139
▁chaîne	-10.5145
▁happiness	-10.5145
▁Canada	-10.5145
ologique	-10.5145
Uni	-10.5145
▁activity	-10.5145
▁nano	-10.5152
▁75	-10.5162
▁profond	-10.5163
▁clients	-10.5167
dire	-10.5168
▁célèbre	-10.5169
▁horrible	-10.5169
▁chanson	-10.5169
▁leçon	-10.5171
▁mut	-10.5175
▁galaxies	-10.5191
▁citoyens	-10.5193
▁HIV	-10.5194
▁becoming	-10.5194
▁earlier	-10.5194
▁biologie	-10.5195
▁saut	-10.5196
▁entendre	-10.52
▁listening	-10.5208
tiennent	-10.5209
pan	-10.5212
voir	-10.5214
▁studies	-10.5219
▁lié	-10.5223
▁agent	-10.5234
▁exact	-10.5236
▁roll	-10.5238
▁35	-10.5241
▁written	-10.5244
▁enjoy	-10.5244
▁risques	-10.5247
▁town	-10.5248
▁aspects	-10.525
▁augmente	-10.5264
▁voulaient	-10.5269
▁envers	-10.5271
▁explore	-10.5277
▁games	-10.5282
pping	-10.5284
place	-10.529
vert	-10.5291
▁constitu	-10.5292
▁instance	-10.5294
▁clinique	-10.5294
▁juge	-10.5305
▁Look	-10.5305
▁paint	-10.5309
▁utilisée	-10.5317
▁spécifique	-10.5318
ks	-10.532
▁pressure	-10.5322
▁volume	-10.5328
illa	-10.5331
▁faux	-10.5332
▁upon	-10.5334
ombien	-10.5336
importance	-10.5336
▁familiar	-10.5344
▁viens	-10.5346
▁challenges	-10.5347
assi	-10.5347
▁Mc	-10.5351
▁trouvent	-10.5355
▁expensive	-10.5369
▁glass	-10.5369
▁tirer	-10.537
▁electricity	-10.537
▁bateau	-10.5384
▁temp	-10.5385
▁Imagine	-10.5388
▁heure	-10.539
▁suppose	-10.539
▁physics	-10.5394
▁devraient	-10.5394
▁compare	-10.5398
aujourd	-10.5411
▁façons	-10.5418
ager	-10.5418
▁souviens	-10.5419
▁include	-10.5419
▁africain	-10.5419
▁contenu	-10.542
▁cultural	-10.5424
▁fund	-10.5427
▁collaboration	-10.5428
▁intention	-10.543
wing	-10.5434
▁lever	-10.5439
▁facilit	-10.5446
term	-10.5446
▁profonde	-10.5448
exp	-10.5457
▁buildings	-10.5457
▁entière	-10.546
▁helped	-10.5465
▁pleine	-10.5469
▁remarquable	-10.547
▁paix	-10.547
▁rule	-10.5471
▁balance	-10.5472
▁raise	-10.5475
▁actuellement	-10.5479
ju	-10.548
▁river	-10.5482
utilise	-10.5489
▁series	-10.5494
▁honest	-10.5496
▁joy	-10.5496
▁painting	-10.5496
win	-10.5498
▁values	-10.5511
▁greatest	-10.5512
▁exemples	-10.5514
▁américain	-10.5514
ency	-10.5515
▁intéressé	-10.5521
▁prototype	-10.5521
▁contain	-10.5521
▁douleur	-10.5521
▁rain	-10.5526
Q	-10.553
▁cry	-10.554
▁ignor	-10.5544
▁premières	-10.5545
▁conséquences	-10.5545
▁certainement	-10.5546
▁formidable	-10.5546
vienne	-10.5549
▁vendre	-10.5554
▁milliard	-10.5567
isés	-10.5568
▁scan	-10.5572
▁neuf	-10.5572
▁pieces	-10.5574
▁iron	-10.5577
▁harm	-10.558
▁lines	-10.5581
gy	-10.559
gén	-10.5592
aise	-10.5594
▁pouvions	-10.5598
▁voulu	-10.5598
▁Nigeria	-10.5598
▁transition	-10.5599
▁prof	-10.56
▁morts	-10.5604
▁pousser	-10.5607
dent	-10.5611
▁citizens	-10.5617
mètre	-10.5622
▁puissent	-10.5623
▁birth	-10.5623
▁construis	-10.5623
▁temperature	-10.5623
▁poids	-10.5624
éti	-10.5624
utilisation	-10.5627
▁cheap	-10.5649
▁beauty	-10.5649
▁ancien	-10.5652
▁médecins	-10.5663
▁sud	-10.5663
▁clearly	-10.567
▁babies	-10.5675
▁flu	-10.5676
▁vaccin	-10.5682
▁apply	-10.5685
▁hors	-10.5686
▁Times	-10.5689
lip	-10.5694
▁enormous	-10.5701
▁forget	-10.5703
▁inventé	-10.5707
part	-10.571
▁étudié	-10.5711
▁émotions	-10.5728
▁al	-10.573
▁secondes	-10.573
▁argent	-10.5731
▁environmental	-10.5737
▁fabriquer	-10.5742
▁tourner	-10.5742
éta	-10.5744
entend	-10.5748
▁phénomène	-10.5753
▁virtual	-10.5753
▁titre	-10.5753
▁importance	-10.5762
évit	-10.5768
ensemble	-10.5773
▁driving	-10.5779
▁matériel	-10.5779
▁mistake	-10.5779
▁rural	-10.578
ivité	-10.5794
▁contrôler	-10.5801
ué	-10.5804
▁trick	-10.581
gar	-10.5824
▁orbit	-10.5826
▁lancer	-10.5827
▁spirit	-10.5831
▁neighbor	-10.5832
▁naissance	-10.5832
▁separate	-10.5833
▁vieille	-10.5833
▁decade	-10.5836
▁entièrement	-10.5843
▁rappelle	-10.5844
existe	-10.585
▁smaller	-10.5852
▁Quelque	-10.5858
▁impression	-10.5858
▁hate	-10.5858
▁merveilleux	-10.5859
▁biological	-10.5859
lus	-10.5861
abilité	-10.5876
▁étudiant	-10.5878
▁exploit	-10.5879
lot	-10.5879
▁sister	-10.588
▁colleagues	-10.588
▁alimentaire	-10.5885
▁anywhere	-10.5885
▁remarqué	-10.5885
▁walked	-10.589
iller	-10.5892
▁neurones	-10.5898
▁crucial	-10.5911
▁partenaire	-10.5912
▁tombe	-10.5919
▁spin	-10.5923
▁professional	-10.5924
▁présenter	-10.5926
▁regardant	-10.593
ncé	-10.5935
ature	-10.5936
▁math	-10.5936
▁MIT	-10.5938
▁struggle	-10.5938
▁café	-10.5938
▁phase	-10.5939
▁Col	-10.5939
▁labor	-10.594
▁Many	-10.5944
ndi	-10.5947
▁Big	-10.5948
▁faisaient	-10.5949
▁migr	-10.5955
▁Americans	-10.5956
▁sad	-10.5958
▁pollution	-10.5965
▁possède	-10.5965
▁drink	-10.5965
▁facilement	-10.5967
vant	-10.5968
enc	-10.5969
▁Sha	-10.5979
▁anglais	-10.5979
▁occup	-10.5983
▁existence	-10.5987
quant	-10.5989
▁Mes	-10.5991
▁rid	-10.5998
▁Hi	-10.5998
▁note	-10.6016
▁himself	-10.6018
▁motivation	-10.6018
craft	-10.602
▁tenir	-10.6027
▁lesson	-10.603
▁throughout	-10.6031
rires	-10.6038
▁Deux	-10.6044
▁Harvard	-10.6045
▁connexion	-10.6045
▁method	-10.6045
▁communicate	-10.6045
▁immediately	-10.6048
hand	-10.6049
▁Gu	-10.6054
venir	-10.6058
▁willing	-10.606
▁popular	-10.6072
▁parlons	-10.6073
▁earth	-10.6075
▁except	-10.6076
bal	-10.6078
▁bag	-10.6082
▁corner	-10.6089
▁NASA	-10.6099
▁fantastique	-10.6099
▁véhicule	-10.6099
▁chambre	-10.6099
atmosphère	-10.6099
▁addition	-10.61
▁caractéristique	-10.61
▁bomb	-10.6107
▁perdre	-10.611
▁laws	-10.6115
▁tombé	-10.6122
▁corruption	-10.6127
▁coral	-10.6129
▁malade	-10.6131
▁recon	-10.6131
▁failure	-10.6134
ek	-10.6135
right	-10.6142
▁colon	-10.6145
▁riche	-10.6146
▁levels	-10.615
▁distribu	-10.6151
▁Tom	-10.6152
▁refugee	-10.6153
▁retire	-10.6154
▁malgré	-10.6156
▁garçon	-10.6167
▁graph	-10.6169
train	-10.6169
late	-10.617
▁Tra	-10.6173
▁player	-10.6178
ieuse	-10.6179
▁Instead	-10.6181
▁Two	-10.6181
▁côte	-10.6181
▁présentation	-10.6189
▁Lu	-10.6192
▁pied	-10.6193
été	-10.6195
▁poisson	-10.6195
▁da	-10.6196
▁souris	-10.6204
▁revenus	-10.6205
▁speech	-10.6208
▁interface	-10.6209
▁bruit	-10.621
▁gérer	-10.6213
▁Sun	-10.6213
▁graphique	-10.6216
▁weight	-10.6222
▁bois	-10.6229
▁imaginez	-10.6232
▁pile	-10.6234
▁London	-10.6235
▁cadre	-10.6236
ième	-10.6237
▁copie	-10.6239
▁hero	-10.6241
▁fasse	-10.6249
▁arrêter	-10.6252
▁greater	-10.6256
▁réponses	-10.626
▁désormais	-10.6263
ssez	-10.6265
jo	-10.6268
▁compétences	-10.6272
▁leader	-10.6274
▁contr	-10.6274
▁tuer	-10.6282
▁option	-10.6283
arrive	-10.6285
llo	-10.6286
▁parlent	-10.6288
▁identity	-10.629
▁relationships	-10.6293
ote	-10.6294
▁arbres	-10.6296
▁tort	-10.6298
▁chair	-10.63
▁sources	-10.6315
▁criminal	-10.6318
▁rayon	-10.6319
hop	-10.6322
rés	-10.6331
bon	-10.6333
▁legal	-10.6335
of	-10.6337
▁organizations	-10.634
▁diseases	-10.6345
▁pêche	-10.6346
▁lesquels	-10.6346
▁election	-10.6346
▁France	-10.6347
▁explor	-10.635
▁parfait	-10.6351
▁fonctionner	-10.6351
▁effectivement	-10.6357
▁Islam	-10.636
▁occasion	-10.6363
▁preuve	-10.6366
▁heat	-10.6376
▁score	-10.6376
▁cave	-10.6377
▁triste	-10.638
▁governments	-10.6381
▁catch	-10.6383
▁voler	-10.6385
▁whose	-10.6394
▁park	-10.6394
▁engineering	-10.6394
nés	-10.6398
cut	-10.64
▁compréhension	-10.6401
▁landscape	-10.6401
▁plaisir	-10.6401
▁afraid	-10.6401
▁permettent	-10.6401
▁Francisco	-10.6402
▁climat	-10.6402
▁summer	-10.6402
▁initial	-10.6404
▁broken	-10.6407
▁essayons	-10.6408
▁pur	-10.6408
▁replace	-10.6409
▁vague	-10.6412
▁obvious	-10.6418
▁meilleures	-10.642
▁Another	-10.6429
▁Richard	-10.6429
▁generate	-10.6431
▁roul	-10.6433
▁banque	-10.6433
▁rap	-10.6434
▁clairement	-10.6437
appel	-10.6437
▁réagi	-10.6443
▁pure	-10.6451
activité	-10.6453
▁Cependant	-10.6457
▁cognitive	-10.6457
▁rivière	-10.6457
▁rythme	-10.6457
ites	-10.6458
▁heureuse	-10.6459
▁coûte	-10.646
vision	-10.6463
bar	-10.6467
▁présente	-10.6469
Qu	-10.647
▁teaching	-10.6472
▁forth	-10.6475
▁sensation	-10.6479
▁ahead	-10.648
▁entrer	-10.6481
▁outil	-10.6482
lac	-10.6483
▁effets	-10.6485
▁fantastic	-10.6485
▁diversité	-10.6487
▁Per	-10.6496
▁pièces	-10.6498
▁feuille	-10.6514
▁degré	-10.6515
aider	-10.6516
▁contract	-10.6523
▁loss	-10.6524
▁bébés	-10.6525
▁pression	-10.6542
▁feature	-10.6542
▁immense	-10.6547
▁laissez	-10.655
▁sommet	-10.6555
▁recent	-10.6555
▁useful	-10.6558
▁organisation	-10.6564
▁aspect	-10.6567
▁costs	-10.6569
▁Which	-10.657
▁worst	-10.657
▁atmosphere	-10.6583
▁cartes	-10.6585
▁touche	-10.6591
intéresse	-10.6594
night	-10.6595
▁era	-10.6596
▁dépense	-10.6596
▁therefore	-10.6599
▁Angeles	-10.6602
▁mariage	-10.6608
▁combine	-10.6615
▁sac	-10.6616
ographie	-10.662
▁Gra	-10.6621
▁paysage	-10.6622
engage	-10.6624
▁créativité	-10.6627
▁vehicle	-10.6627
▁straight	-10.6627
▁principe	-10.6628
▁océans	-10.6629
▁définition	-10.6629
ik	-10.664
bling	-10.6645
▁venue	-10.6645
arian	-10.6648
environ	-10.6651
▁Chicago	-10.6656
ordinaire	-10.6656
▁stopped	-10.6657
▁chercheurs	-10.6658
▁His	-10.6668
▁fair	-10.6669
▁invention	-10.6669
▁apport	-10.6674
It	-10.6677
▁honnête	-10.6679
isent	-10.668
▁emerge	-10.6684
▁yeah	-10.6684
▁99	-10.6687
▁logique	-10.6687
euses	-10.6687
▁paid	-10.6688
▁bear	-10.6688
▁22	-10.6691
▁fri	-10.6693
▁plate	-10.6697
▁Think	-10.6713
▁chain	-10.6713
▁réelle	-10.6715
▁instrument	-10.6722
▁conserv	-10.6722
rous	-10.6723
▁disaient	-10.6723
▁seuls	-10.6725
▁constant	-10.6731
▁Cet	-10.6732
▁wi	-10.6737
▁protéine	-10.6742
▁understood	-10.6742
▁profondément	-10.6742
▁Où	-10.6742
▁Western	-10.6742
▁servi	-10.6744
▁connecté	-10.6749
▁difficulté	-10.6751
▁unit	-10.6756
▁trace	-10.6759
ifié	-10.6765
▁spatial	-10.6771
▁protein	-10.6771
▁complexes	-10.6771
▁boys	-10.6772
▁constat	-10.6777
▁following	-10.6784
▁lieux	-10.6787
▁essay	-10.6787
▁insect	-10.679
▁observer	-10.6792
▁circle	-10.68
▁réduit	-10.68
▁random	-10.68
▁spoke	-10.68
▁expand	-10.6801
▁sculpture	-10.6803
▁weapon	-10.6803
▁tells	-10.6805
▁réunion	-10.681
▁poissons	-10.6814
▁cop	-10.6817
nent	-10.6823
▁speaking	-10.6827
▁hé	-10.6828
▁drogue	-10.6829
▁élèves	-10.6829
▁colère	-10.6831
▁gun	-10.6835
▁scientist	-10.6836
▁consommation	-10.6837
▁informatique	-10.6841
▁Web	-10.6842
▁sick	-10.6846
▁ski	-10.6851
▁Darwin	-10.6858
▁microscope	-10.6858
▁Indian	-10.6863
▁describe	-10.6864
ailleurs	-10.6869
▁eau	-10.687
▁forms	-10.6871
▁précis	-10.6883
▁conscient	-10.6887
▁president	-10.6887
▁connaissez	-10.6887
▁industrial	-10.6892
▁Toutes	-10.6897
▁passent	-10.6903
▁attaque	-10.6909
▁nuage	-10.6911
▁Depuis	-10.6916
▁campaign	-10.6916
▁Très	-10.6916
▁honor	-10.6917
▁destroy	-10.6917
▁tourne	-10.6921
▁choices	-10.6921
▁Va	-10.6924
▁souhait	-10.6927
hou	-10.6929
▁Her	-10.693
atique	-10.6933
▁obtenu	-10.6946
▁belief	-10.6946
▁sauf	-10.6946
▁combin	-10.6947
▁accessible	-10.6948
▁ailleurs	-10.695
▁brand	-10.6954
▁efforts	-10.6955
▁neurons	-10.6955
▁mostly	-10.6958
▁amour	-10.6963
▁déf	-10.6968
point	-10.6968
▁Nos	-10.6969
▁vast	-10.6971
▁layer	-10.6975
▁limites	-10.6975
▁cardiaque	-10.6975
▁Street	-10.6975
▁sœur	-10.6975
▁immédiatement	-10.6976
▁fiction	-10.6978
▁carré	-10.6999
tting	-10.7001
▁montrent	-10.7003
▁lycée	-10.7005
▁television	-10.7005
▁gender	-10.7005
▁servir	-10.7007
▁minds	-10.7007
▁streets	-10.7014
Al	-10.702
▁chances	-10.7022
▁experiences	-10.7022
imi	-10.7032
▁actuelle	-10.7039
▁fier	-10.7048
▁saving	-10.705
▁tissue	-10.7055
▁master	-10.7062
▁author	-10.7062
▁laisse	-10.7063
▁societies	-10.7064
▁genome	-10.7064
▁docteur	-10.7064
▁notes	-10.7069
hal	-10.7069
▁verrez	-10.7072
▁mark	-10.7076
ivity	-10.7077
▁garçons	-10.7079
▁gagné	-10.7082
cat	-10.7086
▁savait	-10.7087
▁various	-10.7094
▁divide	-10.7094
▁sentence	-10.7094
▁Frank	-10.7094
ina	-10.7095
▁étoiles	-10.7095
▁lack	-10.7096
▁protest	-10.7096
How	-10.7097
▁2008	-10.7098
▁Fe	-10.7102
▁cré	-10.7105
▁faisais	-10.7106
aging	-10.7111
▁bone	-10.7111
▁aimer	-10.7112
▁prochain	-10.7114
▁principal	-10.7118
apprendre	-10.7121
▁2010	-10.7124
▁particules	-10.7124
▁concentrer	-10.7125
try	-10.7126
▁sérieux	-10.7127
▁quick	-10.7128
▁essentiellement	-10.7129
▁avantage	-10.7133
▁gang	-10.7136
▁courbe	-10.7137
▁highly	-10.7139
▁classique	-10.7145
▁difficiles	-10.7148
essayer	-10.7149
▁garde	-10.7149
intelligence	-10.7151
attention	-10.7151
▁puissante	-10.7153
▁génome	-10.7154
▁guéri	-10.7154
▁Pensez	-10.7154
▁merveilleuse	-10.7154
▁convert	-10.7157
▁inspire	-10.7161
▁appréci	-10.7166
▁médicament	-10.7173
▁joueur	-10.7174
▁affaires	-10.7175
▁directly	-10.7177
▁emotions	-10.7178
▁principale	-10.7179
ular	-10.7182
▁California	-10.7184
▁husband	-10.7184
▁traffic	-10.7184
▁James	-10.7185
▁diversity	-10.7186
▁commerce	-10.7186
▁noticed	-10.719
▁dress	-10.7194
ith	-10.7194
▁tué	-10.7198
▁Fo	-10.72
▁mid	-10.7207
écran	-10.7214
▁dynamique	-10.7215
▁fenêtre	-10.7215
▁avoid	-10.7215
▁construct	-10.7215
▁shock	-10.7216
▁seraient	-10.7226
▁tir	-10.7231
êtes	-10.7234
▁élément	-10.7235
▁dad	-10.7235
▁connaître	-10.7239
▁prêts	-10.7242
▁évidemment	-10.7245
▁damage	-10.7245
▁investment	-10.7245
▁From	-10.7246
▁argue	-10.7246
▁démo	-10.7263
▁gar	-10.7263
▁legs	-10.7265
▁particulière	-10.7273
▁although	-10.7275
▁destruction	-10.7275
enseignement	-10.7287
▁observe	-10.7291
trait	-10.7291
▁tire	-10.7292
▁dév	-10.7299
▁i	-10.7302
▁Muslim	-10.7306
▁cercle	-10.7306
▁0	-10.7308
▁anyway	-10.7314
▁balle	-10.7317
▁écouter	-10.7319
▁closer	-10.7324
▁mesurer	-10.7324
▁programmes	-10.7326
▁règle	-10.7329
▁responsibility	-10.7336
▁supply	-10.7336
▁switch	-10.7336
▁Ben	-10.734
press	-10.7341
tour	-10.7342
position	-10.7351
▁pousse	-10.7359
▁Fr	-10.736
extérieur	-10.7365
▁remarkable	-10.7367
▁technologique	-10.7367
▁permanent	-10.7367
▁determine	-10.7367
▁application	-10.7372
50	-10.7375
▁surprising	-10.7383
▁sombre	-10.7386
▁gap	-10.7389
▁lecture	-10.7397
▁Parfois	-10.7398
▁profound	-10.7398
▁impos	-10.74
ordre	-10.7406
nier	-10.7413
eign	-10.7413
▁effects	-10.7414
▁envoyer	-10.7414
▁nearly	-10.7416
erie	-10.7421
▁avis	-10.7425
▁dizaines	-10.7429
▁easily	-10.7429
▁gather	-10.7429
élé	-10.7432
▁z	-10.7433
▁Son	-10.7435
▁Avant	-10.7436
▁inconnu	-10.7437
urg	-10.7442
▁designer	-10.7443
▁bactéries	-10.7443
▁situations	-10.7444
▁brillant	-10.7446
▁YouTube	-10.746
▁easier	-10.746
▁possibly	-10.746
▁shoot	-10.746
▁défis	-10.7471
▁differently	-10.7473
stro	-10.7479
▁populaire	-10.7491
▁Paris	-10.7491
▁below	-10.7492
▁privée	-10.7492
▁thé	-10.7492
fra	-10.7493
▁23	-10.7493
▁entrepreneurs	-10.75
▁dying	-10.75
▁PM	-10.7511
▁sample	-10.7522
▁Grand	-10.7527
▁party	-10.7527
▁événement	-10.7529
gène	-10.7529
▁différences	-10.7536
▁members	-10.7536
▁apprend	-10.754
▁voient	-10.7543
▁tube	-10.7549
▁Einstein	-10.7553
▁disappear	-10.7553
▁mélange	-10.7553
▁associé	-10.7554
▁rencontrer	-10.7555
▁partagé	-10.7557
▁adolescent	-10.7558
▁driver	-10.7558
▁appareil	-10.7569
hood	-10.7571
▁invite	-10.7574
▁inspired	-10.7577
▁puzzle	-10.7584
▁jardin	-10.7585
▁cultiv	-10.7585
▁attach	-10.7585
▁interagi	-10.759
▁invented	-10.759
▁BG	-10.7597
▁sum	-10.7604
▁seemed	-10.7605
▁découvr	-10.7608
▁Iran	-10.7614
▁mathématiques	-10.7615
▁dynamic	-10.7616
▁Londres	-10.7616
▁edge	-10.7619
▁censé	-10.7623
▁flying	-10.7628
ombre	-10.7635
▁bro	-10.7635
bou	-10.7636
onde	-10.7637
▁Pi	-10.764
▁attract	-10.7647
▁bridge	-10.7647
▁climb	-10.7647
▁séquence	-10.7647
▁cortex	-10.7647
▁despite	-10.7648
▁nommé	-10.765
▁écran	-10.765
▁pop	-10.7657
▁amené	-10.7659
▁Over	-10.7659
▁via	-10.7664
▁equal	-10.7666
▁bouger	-10.7673
▁beat	-10.7675
▁creativity	-10.7679
▁militaire	-10.7679
▁réfugiés	-10.7679
▁graduate	-10.7679
▁sector	-10.7679
▁trillion	-10.7679
▁gotten	-10.768
▁tough	-10.7683
▁missing	-10.7684
▁mention	-10.7686
▁verre	-10.7688
▁nations	-10.7693
▁apart	-10.7693
▁individus	-10.7697
▁singe	-10.7701
▁étonnant	-10.7711
équilibre	-10.7711
▁conference	-10.7711
▁strength	-10.7711
▁Anderson	-10.7711
▁sand	-10.7711
▁held	-10.7712
imagina	-10.7716
▁engineer	-10.7722
▁published	-10.7723
▁fossil	-10.7725
▁tableau	-10.7725
▁border	-10.7731
▁mentale	-10.7735
▁solid	-10.774
Europe	-10.7742
▁remove	-10.7743
▁Boston	-10.7743
▁internationale	-10.7744
▁boat	-10.7745
▁sorts	-10.7746
▁hasard	-10.7753
▁mène	-10.7757
grad	-10.7769
▁intégr	-10.777
▁arrêt	-10.7773
▁capacity	-10.7775
▁différemment	-10.7775
▁éviter	-10.7775
▁variation	-10.7775
▁fusion	-10.7775
▁sustainable	-10.778
▁reconnaître	-10.7784
oh	-10.7785
▁Steve	-10.7788
▁programs	-10.7793
▁helping	-10.7795
▁sain	-10.7802
▁Brazil	-10.7807
▁Great	-10.7807
▁surgery	-10.7807
▁giant	-10.7807
▁tumor	-10.7807
▁répét	-10.781
▁seat	-10.781
▁ancient	-10.7813
▁liée	-10.7817
▁gold	-10.7822
▁passant	-10.7823
▁motor	-10.7826
shed	-10.7828
▁hang	-10.7828
▁cerveaux	-10.783
lum	-10.7834
▁sympa	-10.7839
▁slightly	-10.7839
▁platform	-10.7839
▁pensait	-10.7839
▁background	-10.784
▁efficient	-10.7849
▁Asia	-10.7851
▁opération	-10.7857
▁noise	-10.7862
▁toi	-10.7864
▁played	-10.7864
architecture	-10.787
▁inspiré	-10.7871
▁claim	-10.7871
▁desire	-10.7873
▁preuves	-10.7879
ifier	-10.7884
▁Ber	-10.7885
▁traité	-10.7885
▁King	-10.7886
▁détails	-10.7887
Y	-10.7888
▁hearing	-10.7894
La	-10.7896
▁passait	-10.7899
▁fascinant	-10.7903
▁classroom	-10.7904
▁reaction	-10.7906
▁armes	-10.7909
▁arrivent	-10.7924
He	-10.7924
▁arrivée	-10.7927
▁plane	-10.7932
long	-10.7935
▁Pakistan	-10.7936
▁magasin	-10.7936
▁vélo	-10.7936
▁smell	-10.7936
▁connaissons	-10.7936
▁prenons	-10.7938
ajout	-10.7939
▁Fin	-10.794
▁mené	-10.7948
▁journaliste	-10.7952
bert	-10.7958
▁limité	-10.7958
arc	-10.796
head	-10.7961
▁préserv	-10.7969
▁biologist	-10.797
▁outcome	-10.797
impact	-10.797
▁établi	-10.797
▁organisations	-10.7971
▁Your	-10.7972
▁sexuelle	-10.7973
▁complexité	-10.7976
▁appelons	-10.798
▁musical	-10.7989
▁mouvements	-10.8
▁Californie	-10.8001
▁religious	-10.8001
▁section	-10.8002
▁interaction	-10.8003
▁intervention	-10.801
▁dinosaur	-10.8016
▁fully	-10.8017
▁studying	-10.8027
issons	-10.803
cop	-10.8031
X	-10.8034
▁attitude	-10.8034
▁déchets	-10.8034
▁Charles	-10.8034
▁sequence	-10.8034
▁Américains	-10.8035
▁géant	-10.8036
▁couleurs	-10.8036
▁weird	-10.8038
type	-10.804
▁affirm	-10.8042
▁Sam	-10.8044
▁fill	-10.8045
▁avais	-10.8046
▁ressembler	-10.8046
▁rues	-10.8047
▁commença	-10.8048
▁identité	-10.8055
▁utilis	-10.8057
lou	-10.8061
▁produced	-10.8063
▁aware	-10.8066
▁studio	-10.8067
▁crowd	-10.8067
▁pieds	-10.8084
▁Gal	-10.8088
▁promise	-10.8096
▁react	-10.8097
nique	-10.8099
▁existent	-10.8099
▁Michael	-10.81
▁précédent	-10.81
▁intense	-10.81
▁zéro	-10.81
▁dépression	-10.8101
▁chasse	-10.8104
▁senti	-10.8108
▁tribu	-10.8108
▁acte	-10.811
▁inject	-10.8118
nna	-10.8119
▁monter	-10.8119
▁porter	-10.8121
▁extreme	-10.8122
▁fonctionnent	-10.8129
▁myth	-10.8131
▁oxygen	-10.8133
▁sharing	-10.8133
▁pierre	-10.8133
▁Green	-10.8133
▁opposite	-10.8134
▁puni	-10.8134
Why	-10.8136
▁However	-10.8136
▁parking	-10.814
▁tiers	-10.8141
▁boule	-10.8143
▁Leur	-10.8152
▁benefit	-10.8152
▁focused	-10.8153
▁souhaite	-10.8154
▁vidéos	-10.8156
▁entrepreneur	-10.8164
▁positif	-10.8166
▁surveillance	-10.8166
▁bought	-10.8166
▁recover	-10.8166
▁negative	-10.8166
▁suffer	-10.8176
▁core	-10.8184
▁rappeler	-10.8184
▁European	-10.8184
▁décider	-10.8196
▁décennies	-10.8199
▁amusant	-10.82
▁consult	-10.82
▁ralenti	-10.82
▁entirely	-10.8203
▁fleur	-10.8203
▁accompli	-10.8205
▁applications	-10.8206
▁noirs	-10.8217
▁dense	-10.8218
▁regardons	-10.8218
mettre	-10.8222
enfant	-10.8223
▁Pol	-10.8225
aboli	-10.8229
▁adultes	-10.8236
▁rights	-10.8237
▁infection	-10.8237
▁planets	-10.8237
▁caché	-10.8241
▁donnent	-10.8248
▁basis	-10.8249
ank	-10.8253
▁considér	-10.8263
▁mécanisme	-10.8266
▁opportunities	-10.8266
▁definition	-10.8266
oxygène	-10.8267
▁Life	-10.8269
▁Ab	-10.8272
▁engine	-10.8275
▁refer	-10.828
▁600	-10.8295
▁experiments	-10.8299
▁impliqué	-10.83
Vidéo	-10.83
meter	-10.83
▁évolué	-10.83
▁régime	-10.8301
▁Martin	-10.8301
▁mail	-10.8301
▁drone	-10.8302
écoute	-10.8302
▁richesse	-10.8308
▁options	-10.8312
orn	-10.8322
▁poly	-10.8329
▁VIH	-10.8334
▁communiquer	-10.8334
▁échange	-10.8335
Université	-10.8335
▁motif	-10.8343
▁knowing	-10.8346
▁toucher	-10.8354
▁nourri	-10.8354
▁consumer	-10.8357
▁Ah	-10.8366
▁Ver	-10.8368
▁App	-10.8369
▁assume	-10.8378
▁concernant	-10.8379
▁ouverte	-10.838
▁dict	-10.8386
▁island	-10.8387
▁représent	-10.8388
▁humaines	-10.8389
▁install	-10.8391
▁considéré	-10.8391
▁analyse	-10.8393
▁coeur	-10.8401
▁coffee	-10.8402
▁narrative	-10.8402
▁twice	-10.8402
▁davantage	-10.8402
▁passed	-10.8402
▁Iraq	-10.8403
▁blow	-10.8405
▁limite	-10.8405
▁habitat	-10.8407
issement	-10.8409
▁labo	-10.842
▁presse	-10.8429
▁Mont	-10.8434
▁absorb	-10.8436
▁tremendous	-10.8436
▁regret	-10.8436
▁Sometimes	-10.8436
▁transformé	-10.8436
ison	-10.8443
▁file	-10.8446
▁pont	-10.8446
▁carry	-10.8451
matic	-10.8453
▁avion	-10.8457
▁baisse	-10.8457
▁suffering	-10.846
Votre	-10.8463
▁occur	-10.8468
▁parc	-10.8469
▁competition	-10.847
▁fournir	-10.8471
▁télévision	-10.8471
▁ressemblent	-10.8471
▁funny	-10.8472
▁pig	-10.8473
ulation	-10.8473
▁lucky	-10.848
Ma	-10.8482
▁zoom	-10.8483
▁statistiques	-10.8483
▁evolved	-10.8484
ode	-10.849
▁moon	-10.8492
▁bouge	-10.8493
▁wood	-10.8499
▁membre	-10.8501
▁préoccup	-10.8501
▁intelligente	-10.8503
▁angle	-10.8504
▁terrorist	-10.8506
associ	-10.8507
▁dangereux	-10.8507
▁observation	-10.8514
▁mouth	-10.8514
▁sommeil	-10.852
fait	-10.8521
imaginer	-10.8525
uch	-10.8526
▁morale	-10.8533
▁bouche	-10.8538
▁molécules	-10.8538
▁activist	-10.8539
▁requin	-10.8539
▁scar	-10.8547
▁implique	-10.8549
▁garden	-10.855
watt	-10.855
▁rêves	-10.8551
▁texte	-10.8553
▁stade	-10.8555
▁10,000	-10.8556
▁belong	-10.8558
▁manage	-10.856
▁raised	-10.8571
étoile	-10.8573
▁component	-10.8574
▁travaillons	-10.8574
▁Mal	-10.8577
30	-10.8577
▁farmers	-10.8579
▁intérieur	-10.8583
▁Take	-10.8584
cap	-10.8585
▁confront	-10.8587
habitants	-10.8595
▁Min	-10.8596
well	-10.8598
▁necessarily	-10.8608
▁implant	-10.861
▁iPhone	-10.8613
▁auraient	-10.8618
ération	-10.8621
▁depression	-10.8621
rum	-10.8627
▁British	-10.8643
▁strategy	-10.8643
▁shark	-10.8643
▁empower	-10.8643
▁battre	-10.8643
▁croyez	-10.8644
▁désert	-10.8645
▁bâtiments	-10.8646
▁historique	-10.8649
bel	-10.8651
▁fallu	-10.8655
▁importantly	-10.8656
▁ride	-10.866
▁See	-10.8662
▁Pat	-10.8666
▁capitalism	-10.8667
based	-10.8667
▁birds	-10.8676
▁commençons	-10.8678
▁oiseaux	-10.8678
▁radiation	-10.8678
▁souci	-10.8678
▁scene	-10.8679
▁auquel	-10.8679
▁operation	-10.8679
▁tels	-10.8697
▁considérer	-10.8703
▁coal	-10.8708
▁sortie	-10.8709
▁Australia	-10.8713
▁surprenant	-10.8713
▁Ko	-10.8713
▁malaria	-10.8713
▁proud	-10.8723
▁professionnel	-10.8728
▁command	-10.873
enseigne	-10.8731
▁actuel	-10.8732
▁tourné	-10.8734
▁networks	-10.8736
▁compt	-10.8737
ouille	-10.8744
▁miracle	-10.8748
▁stuck	-10.8748
▁vaut	-10.8749
▁survie	-10.8749
This	-10.8751
▁root	-10.8754
▁possibilités	-10.8754
▁aidé	-10.8771
▁barre	-10.8775
▁diverse	-10.8779
view	-10.8779
▁wire	-10.878
▁diagnostic	-10.8784
▁proportion	-10.8784
▁regular	-10.8784
▁exposé	-10.8784
▁venait	-10.8785
hôpital	-10.8786
objet	-10.8786
▁blanche	-10.8788
▁apparaît	-10.8789
▁Tim	-10.879
▁drawing	-10.879
▁estimate	-10.8792
olo	-10.8793
▁spending	-10.8793
élev	-10.8795
▁quote	-10.8796
zi	-10.8799
▁mille	-10.8807
▁soin	-10.8808
▁journalist	-10.8816
▁considère	-10.8819
▁schéma	-10.8819
▁musée	-10.8819
▁hurt	-10.882
▁2009	-10.8822
▁attendre	-10.8822
▁demandez	-10.8823
adapt	-10.8823
▁batterie	-10.8824
▁bright	-10.8824
▁Bur	-10.8826
▁1,000	-10.8826
▁évolue	-10.8829
émission	-10.883
▁normale	-10.8834
▁ignore	-10.8834
pot	-10.8848
▁marketing	-10.8851
▁déplacer	-10.8853
▁gagne	-10.8855
▁suffisamment	-10.8855
▁devenus	-10.8862
▁whi	-10.8863
▁warm	-10.8863
▁Island	-10.8865
▁vital	-10.8873
▁connaissent	-10.8891
▁créatif	-10.8891
▁degrees	-10.8898
▁devices	-10.8905
▁May	-10.8905
▁explorer	-10.8908
▁acheté	-10.8908
▁basé	-10.8909
▁branch	-10.891
▁chimiques	-10.8912
▁maths	-10.8922
▁molecules	-10.8926
▁discipline	-10.8926
▁identify	-10.8926
acteur	-10.8927
▁crash	-10.8927
▁boulot	-10.8927
▁clinic	-10.8928
Internet	-10.8929
▁prior	-10.8936
▁relative	-10.8941
▁bias	-10.8946
▁université	-10.8953
▁Park	-10.8953
active	-10.8954
▁faith	-10.8957
▁nationale	-10.8962
équivalent	-10.8962
́	-10.8962
▁mechanism	-10.8962
▁philosophe	-10.8962
▁tumeur	-10.8963
▁invité	-10.8963
▁consciousness	-10.8964
ological	-10.8974
▁amener	-10.8976
▁tech	-10.8977
▁retourner	-10.8979
tech	-10.8988
▁expert	-10.8989
▁deeply	-10.8993
▁dreams	-10.8995
▁conduire	-10.8998
▁log	-10.8999
▁dirais	-10.9003
▁ultimately	-10.9004
▁sensible	-10.9005
▁envie	-10.9008
▁pauvre	-10.9009
▁debate	-10.9013
▁Han	-10.9018
▁250	-10.9027
▁principes	-10.9034
▁chacune	-10.9035
▁dialogue	-10.9035
▁Again	-10.9035
▁disparu	-10.9035
▁location	-10.9035
▁civilization	-10.9036
opportunité	-10.9038
▁bande	-10.9047
atom	-10.9047
▁somme	-10.9052
▁usine	-10.9065
▁Middle	-10.9071
▁musulman	-10.9071
▁bottle	-10.9071
▁Japon	-10.9071
▁majority	-10.9076
▁band	-10.9077
▁bill	-10.9078
▁Amazon	-10.9079
face	-10.9081
▁benefits	-10.9087
▁favor	-10.909
▁host	-10.9094
▁proches	-10.9101
▁ressentir	-10.9105
▁vaste	-10.9107
▁paraît	-10.9108
▁crack	-10.9108
room	-10.9108
▁ear	-10.9113
▁complexity	-10.9114
▁emploi	-10.9118
▁régions	-10.9125
▁More	-10.9127
▁reward	-10.9129
ville	-10.9133
ography	-10.9136
▁récompense	-10.9144
▁chaleur	-10.9144
▁eating	-10.9147
▁décrit	-10.9148
effet	-10.9148
père	-10.9152
▁27	-10.9153
orient	-10.9156
▁niveaux	-10.9159
▁plain	-10.9162
▁médicale	-10.9162
▁pli	-10.9165
étudie	-10.9167
▁directeur	-10.9168
▁forever	-10.9175
▁instruments	-10.9176
▁Obama	-10.9181
▁responsible	-10.9181
▁survivre	-10.9182
▁transfer	-10.9182
▁scanner	-10.9183
▁none	-10.9184
▁2007	-10.9185
list	-10.9189
▁recul	-10.9191
▁parfaitement	-10.9192
▁détail	-10.9202
▁vertical	-10.9209
dding	-10.9209
▁meters	-10.9213
▁étais	-10.9214
▁Actually	-10.9218
▁Valley	-10.9218
▁figured	-10.9218
lage	-10.922
▁colonie	-10.9226
▁éco	-10.9227
▁illusion	-10.923
▁fighting	-10.9232
▁optim	-10.9239
▁wear	-10.9244
▁Rob	-10.9246
▁holding	-10.9247
▁agir	-10.9255
▁simulation	-10.9255
▁réserve	-10.9255
▁trend	-10.9259
▁Good	-10.926
▁dedans	-10.9275
▁believed	-10.9276
▁puisque	-10.9277
▁tape	-10.9282
▁universal	-10.9285
▁mauvaises	-10.9289
▁advantage	-10.9292
▁artificial	-10.9292
▁attempt	-10.9292
▁vouloir	-10.9292
▁combinaison	-10.9292
▁composé	-10.9292
▁venant	-10.9294
▁flight	-10.9296
▁semblent	-10.9296
▁apporter	-10.9297
▁bla	-10.9298
▁Ti	-10.93
▁poste	-10.9306
▁laser	-10.931
▁motion	-10.9312
▁pill	-10.9316
▁finish	-10.9319
▁turning	-10.9326
▁possibility	-10.9329
▁tunnel	-10.9329
▁remote	-10.933
anthrop	-10.933
▁hyper	-10.9332
▁plat	-10.9332
▁peinture	-10.9333
▁tie	-10.9338
▁augmenter	-10.9339
▁clip	-10.9341
▁cure	-10.9341
▁écoute	-10.9351
în	-10.9355
▁lettre	-10.9355
▁mérite	-10.9355
▁particles	-10.9357
▁organismes	-10.9361
▁hall	-10.9367
▁attribu	-10.9367
▁marriage	-10.9367
▁substance	-10.9367
▁devriez	-10.9367
▁Encore	-10.9367
▁gift	-10.9367
▁régul	-10.9369
▁rassembl	-10.9371
▁produisent	-10.9374
▁repeat	-10.9375
▁moindre	-10.9375
gged	-10.9376
▁enable	-10.9376
▁tonnes	-10.938
▁traditionnelle	-10.9381
▁chiffre	-10.9392
▁participer	-10.9404
▁morceaux	-10.9409
▁jambes	-10.9415
▁éducation	-10.9426
▁emplois	-10.9426
ied	-10.9429
▁forêts	-10.943
▁victimes	-10.9432
▁vin	-10.9436
▁essaie	-10.944
▁studied	-10.9442
▁roof	-10.9443
▁plante	-10.9444
▁meurt	-10.9445
▁portrait	-10.9446
▁university	-10.9446
accept	-10.9447
▁rire	-10.9453
▁raconte	-10.9453
▁sélection	-10.9454
toi	-10.9461
▁neuron	-10.9469
▁earn	-10.9469
▁artists	-10.9472
▁instinct	-10.948
▁Certaine	-10.948
▁drôle	-10.948
▁exercise	-10.948
▁fausse	-10.948
▁joie	-10.948
▁douce	-10.9481
emploi	-10.9485
▁coast	-10.949
▁retrouver	-10.9494
plan	-10.9499
▁adult	-10.9508
▁cible	-10.9509
▁leading	-10.9512
▁poche	-10.9515
▁décrire	-10.9516
▁fashion	-10.9518
▁GPS	-10.9518
▁apparu	-10.9518
▁dinner	-10.9518
▁rejet	-10.9522
accès	-10.9523
▁Nations	-10.953
▁honte	-10.9533
mination	-10.9543
▁consequences	-10.9545
▁degree	-10.9556
▁bientôt	-10.9556
▁financière	-10.9556
▁technical	-10.9556
▁civilisation	-10.9558
▁dirait	-10.9563
▁grade	-10.9565
arrêter	-10.9565
▁américains	-10.9567
▁pub	-10.957
▁complet	-10.9572
▁opened	-10.9578
▁conduct	-10.9583
▁stream	-10.9585
▁foreign	-10.9586
▁compared	-10.9587
▁engineers	-10.9592
60	-10.9593
▁catastrophe	-10.9595
▁breast	-10.9595
▁retrouve	-10.9616
▁artistes	-10.9618
loc	-10.9618
▁allée	-10.9626
élève	-10.9632
▁resté	-10.9633
▁previous	-10.9633
▁extend	-10.9633
▁dépasse	-10.9633
▁reveal	-10.9633
▁joué	-10.9637
▁privé	-10.9638
▁planning	-10.9639
aving	-10.9639
▁quasi	-10.9639
▁employés	-10.9639
▁ancienne	-10.9653
ilicon	-10.966
▁telles	-10.966
▁parlant	-10.9662
▁professor	-10.9672
▁yellow	-10.9672
▁suicide	-10.9672
▁analog	-10.9672
▁terminé	-10.9672
▁enseignants	-10.9672
▁stem	-10.9673
▁polar	-10.9673
▁récit	-10.9674
▁étiez	-10.9674
▁quitté	-10.9674
Ar	-10.9691
▁truck	-10.9698
▁réussite	-10.9698
▁conte	-10.9705
▁Japan	-10.971
▁œil	-10.971
▁football	-10.9711
▁childhood	-10.9711
▁extérieur	-10.9713
That	-10.9716
▁adults	-10.9719
20	-10.9719
▁fera	-10.9724
▁consiste	-10.9738
mine	-10.9738
▁rentrer	-10.974
can	-10.9745
rise	-10.9747
▁School	-10.9749
▁disorder	-10.9749
▁placé	-10.975
▁transparent	-10.9751
▁organisé	-10.9751
▁indique	-10.9751
▁Center	-10.9753
▁cousin	-10.9754
▁Pourtant	-10.9756
▁salaire	-10.9759
▁disais	-10.976
grade	-10.9761
▁déterminer	-10.9761
▁Sal	-10.9762
▁foi	-10.9768
▁tester	-10.9769
▁interactions	-10.9777
just	-10.9784
▁ecosystem	-10.9788
▁married	-10.9788
▁metaphor	-10.9788
▁électronique	-10.9788
▁globe	-10.9788
▁club	-10.9789
▁dozen	-10.9789
▁dirigeants	-10.9789
▁1980	-10.979
▁quitter	-10.9793
wan	-10.9794
▁échantillon	-10.9794
▁aient	-10.98
▁received	-10.981
▁brilliant	-10.9828
▁convaincu	-10.9828
▁paradigm	-10.9828
▁voulions	-10.9828
▁Brésil	-10.9828
▁museum	-10.9828
▁odd	-10.9828
▁broad	-10.9832
▁failed	-10.9833
▁65	-10.9842
▁Did	-10.9851
▁engagement	-10.9853
▁managed	-10.9854
▁typical	-10.9856
▁vaccine	-10.9856
▁représentent	-10.9857
▁shop	-10.9863
▁tail	-10.9867
▁Thomas	-10.9867
▁convaincre	-10.9867
▁financier	-10.9867
▁mécanique	-10.9867
▁précisément	-10.9867
▁appareils	-10.9867
▁meurent	-10.9868
▁bird	-10.9871
▁multipli	-10.9871
▁everyday	-10.9875
▁chip	-10.9875
rich	-10.9877
▁appeler	-10.9878
arme	-10.9882
▁fluid	-10.9889
cular	-10.9891
▁Bra	-10.9891
▁limited	-10.9892
andis	-10.9902
▁click	-10.9903
▁Ya	-10.9906
▁Rwanda	-10.9906
▁constamment	-10.9906
▁succeed	-10.9906
▁supplémentaire	-10.9906
▁French	-10.9906
▁handicap	-10.9907
exprimer	-10.9907
▁1990	-10.9907
▁verte	-10.9909
▁flower	-10.991
▁client	-10.9911
▁Korea	-10.9912
▁abuse	-10.9912
▁lettres	-10.9921
▁watched	-10.9923
▁Will	-10.9926
▁wearing	-10.9934
aurait	-10.9934
▁Gro	-10.9935
▁sudden	-10.9935
▁agriculture	-10.9937
▁sable	-10.994
▁monitor	-10.9946
▁mettent	-10.9947
▁émissions	-10.9947
▁grown	-10.9948
▁confirm	-10.9948
wood	-10.9953
town	-10.9956
▁Mr	-10.9957
▁fairly	-10.9961
▁nourrir	-10.9964
▁média	-10.9967
▁weak	-10.9971
▁leaving	-10.9971
▁dessous	-10.9972
▁hui	-10.9972
pris	-10.9981
▁célébr	-10.9986
▁necessary	-10.9986
▁semblait	-10.9986
▁excellent	-10.9986
▁devrais	-10.9986
▁fabriqué	-10.999
▁flux	-10.999
▁principalement	-11.0002
▁Super	-11.0003
▁espoir	-11.0012
avions	-11.0016
▁durée	-11.0019
▁touché	-11.002
▁appren	-11.0021
œ	-11.0026
▁cheveux	-11.0026
▁référence	-11.0026
▁airplane	-11.0026
▁novel	-11.0028
▁survey	-11.0028
▁travaillant	-11.0031
gging	-11.0037
40	-11.0039
▁Pal	-11.0043
oï	-11.0047
▁frais	-11.0049
▁artificielle	-11.0053
▁photographie	-11.0054
▁bond	-11.0056
hel	-11.0057
gle	-11.0059
▁harder	-11.0059
▁trained	-11.0061
▁arch	-11.0063
▁Science	-11.0066
▁brevet	-11.0066
▁excitant	-11.0066
▁contient	-11.0066
▁battle	-11.0066
▁pensaient	-11.0067
▁jaune	-11.0068
▁daily	-11.0072
▁flag	-11.0074
▁créatures	-11.0074
▁constantly	-11.0081
▁wa	-11.0081
▁researchers	-11.0083
▁businesses	-11.009
▁Once	-11.0091
▁retrouvé	-11.0103
électro	-11.0106
▁Royaume	-11.0106
▁minuscule	-11.0106
▁parlait	-11.0107
▁offrir	-11.0108
Homme	-11.0109
▁pause	-11.011
▁amène	-11.011
▁évolution	-11.0111
▁productive	-11.0115
▁réussir	-11.0123
▁dimension	-11.0126
▁concentration	-11.013
charge	-11.0131
path	-11.0136
▁divers	-11.0139
▁ferait	-11.0142
dimensional	-11.0144
maker	-11.0145
▁symptom	-11.0147
▁engagé	-11.0147
▁concert	-11.0147
▁revient	-11.0147
▁ingénieurs	-11.0148
▁unfortunately	-11.0149
▁changent	-11.0153
▁accro	-11.0154
▁folks	-11.0154
organisation	-11.0155
▁creatures	-11.0155
▁tro	-11.0159
▁counter	-11.0159
▁fell	-11.0169
▁offre	-11.0172
▁augmenté	-11.0187
ingénierie	-11.0188
absence	-11.0188
▁curious	-11.0188
▁Israel	-11.0188
▁extrême	-11.0189
▁intéresse	-11.0194
▁marine	-11.0202
▁whale	-11.0229
▁Adam	-11.0229
▁sorry	-11.0229
▁translate	-11.023
▁parole	-11.0231
▁Peu	-11.0232
cour	-11.0234
▁considered	-11.0235
▁présenté	-11.0243
▁aiment	-11.0244
▁operate	-11.0245
▁allaient	-11.0248
▁spec	-11.0254
▁suffit	-11.0254
▁sûrement	-11.0255
▁amie	-11.0264
▁remonte	-11.0268
▁politician	-11.0269
▁bubble	-11.0269
▁comprennent	-11.0269
▁worried	-11.0269
▁élimin	-11.0269
▁défense	-11.0269
▁héros	-11.027
nation	-11.0273
▁Apple	-11.0279
avec	-11.0285
▁release	-11.0287
▁basée	-11.0289
▁insist	-11.029
▁participants	-11.0297
▁fold	-11.0304
▁discovery	-11.0307
▁écriv	-11.0307
▁gratuit	-11.0308
▁Malheureusement	-11.0311
▁siège	-11.0311
▁piano	-11.0311
▁smile	-11.0312
▁Robert	-11.0312
▁creation	-11.0314
▁foundation	-11.0318
▁rendent	-11.0319
▁patent	-11.0319
▁grab	-11.0321
▁décide	-11.0326
▁conscious	-11.0328
▁drag	-11.033
▁commande	-11.0332
ties	-11.0334
▁pat	-11.0339
▁distinct	-11.034
▁versus	-11.035
armée	-11.0352
▁compromis	-11.0352
▁caught	-11.0352
▁hidden	-11.0352
▁fresh	-11.0352
▁foyer	-11.0352
▁safety	-11.0352
▁Congo	-11.0352
▁tension	-11.0355
life	-11.0366
▁currently	-11.037
inclu	-11.037
▁Ré	-11.0371
▁member	-11.0374
▁contribute	-11.0378
▁Red	-11.0382
▁surprised	-11.0384
Hey	-11.039
▁trouvez	-11.0391
▁chromosome	-11.0393
▁mathematics	-11.0393
▁goût	-11.0394
▁experienced	-11.0394
▁passée	-11.0394
▁frame	-11.0395
pré	-11.0397
▁conservation	-11.0401
▁Aucun	-11.0401
▁excuse	-11.0405
▁Have	-11.0409
çant	-11.0409
▁gamin	-11.041
▁facteurs	-11.0412
▁Jim	-11.0414
▁étranger	-11.0414
▁copy	-11.0419
▁mentioned	-11.042
But	-11.0423
▁Sel	-11.0424
▁formé	-11.0428
▁launch	-11.0429
ingénieur	-11.0434
▁volunteer	-11.0435
▁fascinating	-11.0435
Australie	-11.0435
▁pounds	-11.0435
▁recevoir	-11.0435
▁mutation	-11.0437
▁comfortable	-11.0438
▁expose	-11.0438
▁stable	-11.0438
▁desert	-11.0439
oiseau	-11.0441
▁electronic	-11.0448
▁jail	-11.045
▁affaire	-11.0455
.000	-11.0456
fil	-11.0467
marin	-11.047
▁essaye	-11.0472
efficacité	-11.0477
▁AIDS	-11.0477
▁newspaper	-11.0477
▁croyance	-11.0477
▁egg	-11.0477
▁feedback	-11.0477
▁poussé	-11.0478
▁toilettes	-11.0478
▁recev	-11.0478
▁défend	-11.0479
▁Grande	-11.0479
vons	-11.0481
▁signaux	-11.0484
▁writer	-11.0487
▁tomb	-11.0487
▁inspiration	-11.0495
▁entraîne	-11.0506
scale	-11.0516
▁Art	-11.0518
▁résolu	-11.0518
▁fragment	-11.0519
▁locaux	-11.0519
▁otherwise	-11.0519
▁volonté	-11.0519
▁chaos	-11.0519
▁minor	-11.0519
▁oublié	-11.052
▁Em	-11.0521
▁insight	-11.0524
▁travailleurs	-11.0524
▁observé	-11.0528
▁mener	-11.0528
shirt	-11.0528
intérêt	-11.0528
▁fabriqu	-11.0534
▁généralement	-11.0535
▁mentor	-11.0535
▁receive	-11.0538
aries	-11.0543
▁slowly	-11.0544
ancien	-11.0552
▁ring	-11.0552
▁traverser	-11.0555
▁related	-11.0555
▁infini	-11.0556
▁compétition	-11.0561
▁intellectual	-11.0561
▁soutenir	-11.0561
▁chocolat	-11.0561
▁disaster	-11.0561
▁curve	-11.0562
▁golf	-11.0562
▁croient	-11.0562
▁rub	-11.0565
▁payé	-11.0566
▁nurse	-11.0569
▁lunch	-11.0569
autorité	-11.0572
80	-11.0573
▁solide	-11.0575
▁Joe	-11.0578
▁cow	-11.0581
▁tiré	-11.0585
▁retourné	-11.0593
▁forced	-11.0597
▁analys	-11.0597
▁grandmother	-11.0603
▁mâle	-11.0604
▁cyber	-11.0604
▁devaient	-11.0605
▁morte	-11.0606
▁orange	-11.0606
▁Quelqu	-11.0612
▁bloc	-11.0614
▁franc	-11.0615
▁détect	-11.0616
▁hack	-11.0617
▁flat	-11.063
▁Rien	-11.063
▁highest	-11.0631
▁Star	-11.0634
▁bombe	-11.0635
▁Mark	-11.0637
▁described	-11.0638
▁créent	-11.0641
▁aveugle	-11.0646
▁phenomenon	-11.0646
▁pyramid	-11.0646
▁Black	-11.0646
▁illness	-11.0646
▁implications	-11.0646
▁2005	-11.0651
▁van	-11.0651
▁réside	-11.0658
▁Jack	-11.0671
▁rang	-11.0678
▁concerned	-11.0681
▁bouteille	-11.0689
▁caractère	-11.0689
▁mirror	-11.0689
▁Prenez	-11.0689
▁admit	-11.0689
▁camion	-11.0691
▁north	-11.0694
▁poème	-11.0694
▁monkey	-11.0695
▁objective	-11.0695
assurer	-11.0699
▁queue	-11.0708
▁tient	-11.0708
▁reform	-11.0711
▁finished	-11.0713
▁âgé	-11.0714
▁rappel	-11.0718
▁comporte	-11.0719
▁independent	-11.072
▁metal	-11.0722
▁obtenez	-11.0732
▁baleine	-11.0732
▁judge	-11.0732
▁Moyen	-11.0732
fully	-11.0732
▁algorithmes	-11.0733
▁losing	-11.0733
▁contribution	-11.0735
▁faim	-11.0738
▁expected	-11.0742
▁ideal	-11.0743
▁pareil	-11.0745
▁lifetime	-11.0746
▁tenu	-11.0753
▁bleue	-11.077
▁custom	-11.0772
▁ajouter	-11.0774
▁Manhattan	-11.0775
▁bénéfici	-11.0775
▁kilometers	-11.0775
▁convention	-11.0778
▁wake	-11.0779
▁Mary	-11.0785
power	-11.0785
▁chute	-11.0785
▁quotidienne	-11.0787
âche	-11.0787
▁remarque	-11.0793
▁agit	-11.0799
▁EM	-11.0808
▁closed	-11.0812
▁fabric	-11.0813
▁topic	-11.0816
▁confi	-11.0817
▁clinical	-11.0817
▁2011	-11.0818
▁channel	-11.0818
▁dispositif	-11.0818
▁présence	-11.0818
▁apprennent	-11.0818
▁magie	-11.0818
▁Nobel	-11.082
▁monte	-11.0822
agriculture	-11.0829
▁Gi	-11.0831
Do	-11.0842
▁centrale	-11.0847
Est	-11.0847
▁invited	-11.0851
ouvre	-11.0851
empêch	-11.0855
immeuble	-11.0862
▁chimpanzé	-11.0862
▁fragile	-11.0862
▁idéal	-11.0862
▁exchange	-11.0863
▁contrast	-11.0863
Irak	-11.0867
▁trauma	-11.087
Orient	-11.087
change	-11.0871
▁avenir	-11.0875
▁Germany	-11.0875
▁repas	-11.0882
▁arbre	-11.0883
arrête	-11.0884
▁grad	-11.0889
▁define	-11.0889
▁connue	-11.089
▁ADN	-11.0891
▁vendu	-11.0895
▁parfaite	-11.09
▁oppos	-11.09
▁deeper	-11.0902
▁métaphore	-11.0905
▁plaît	-11.0906
▁frappe	-11.0906
▁debout	-11.0907
▁attire	-11.0909
exemple	-11.0916
▁survival	-11.0922
▁Bob	-11.0925
▁insectes	-11.0932
▁32	-11.0935
▁stone	-11.0937
▁95	-11.0938
▁installation	-11.0945
exercice	-11.0949
▁Microsoft	-11.0949
▁President	-11.0949
▁posséd	-11.0949
▁cartoon	-11.0949
▁profondeur	-11.0955
▁surpris	-11.0957
▁nerve	-11.0958
▁filled	-11.0959
▁followed	-11.0961
▁lift	-11.0969
▁serre	-11.097
▁accumul	-11.0985
▁créée	-11.0985
▁produis	-11.0985
▁avancer	-11.0991
▁caused	-11.0991
▁malheureusement	-11.0993
▁pouviez	-11.0993
▁séparé	-11.0993
▁stood	-11.0993
▁fellow	-11.0994
▁rational	-11.0995
▁1950	-11.0996
▁fabrication	-11.0999
▁dépl	-11.1001
▁alter	-11.1001
stream	-11.1005
▁management	-11.1006
▁roman	-11.1007
▁île	-11.1011
mission	-11.1018
Il	-11.1021
▁pluie	-11.1028
▁quiet	-11.1029
▁visuel	-11.103
▁stupid	-11.1036
▁Texas	-11.1037
▁neuroscience	-11.1037
▁ultra	-11.1038
▁official	-11.1038
▁charbon	-11.1038
▁round	-11.1042
▁ballon	-11.1043
▁continué	-11.1044
▁envoie	-11.1052
prime	-11.1053
▁liquide	-11.1054
▁isolé	-11.1056
▁remarquer	-11.1063
▁confronté	-11.1065
▁aviez	-11.1065
▁sert	-11.1071
▁horse	-11.1076
▁matériau	-11.1079
▁symbole	-11.1082
▁occidental	-11.1082
▁provoque	-11.1082
▁lawyer	-11.1082
▁operating	-11.1083
▁toxic	-11.1083
▁subi	-11.1083
▁Mac	-11.1085
▁Human	-11.1087
▁connaît	-11.1091
▁dealing	-11.1092
▁treated	-11.1093
attaque	-11.1093
expression	-11.1094
▁Enfin	-11.1096
▁26	-11.1099
▁advance	-11.1103
atoire	-11.1105
▁commune	-11.1108
If	-11.1112
▁soyez	-11.1113
▁destin	-11.1116
Occident	-11.1126
▁personnalité	-11.1126
▁septembre	-11.1126
▁symptôme	-11.1126
▁associated	-11.1126
▁scolaire	-11.1126
▁volontaire	-11.1126
▁brief	-11.1126
▁nervous	-11.1128
▁Nature	-11.1129
source	-11.1133
obtenir	-11.1138
affaire	-11.1138
▁levé	-11.114
▁roche	-11.1148
▁seriously	-11.1149
▁pilot	-11.1156
▁poster	-11.1157
arrière	-11.1159
▁culturelle	-11.1159
▁encounter	-11.1171
▁sauvage	-11.1171
▁wheel	-11.1171
▁protégé	-11.1171
▁anticip	-11.1172
▁magique	-11.1172
▁status	-11.1172
▁mettez	-11.1172
▁Jusqu	-11.1172
▁hauteur	-11.1174
▁logic	-11.1174
flex	-11.1175
Go	-11.1177
▁champion	-11.1179
▁fake	-11.1182
▁calling	-11.1183
espèce	-11.1183
▁sacré	-11.1185
▁Port	-11.1186
▁générale	-11.1189
▁représentation	-11.119
▁civile	-11.119
▁unless	-11.1195
▁apporté	-11.1196
▁picked	-11.1201
équation	-11.1207
▁corde	-11.121
Américain	-11.1215
émotion	-11.1216
▁International	-11.1216
▁participation	-11.1216
▁telescope	-11.1216
▁télescope	-11.1216
▁énormément	-11.1216
▁Celui	-11.1216
▁retard	-11.1217
▁plonge	-11.1218
▁trompe	-11.1218
▁abandonn	-11.1222
▁mouse	-11.1228
water	-11.1244
▁Lab	-11.1246
▁publicité	-11.1255
▁majeure	-11.1258
Angleterre	-11.1262
▁1970	-11.1262
▁Mexico	-11.1262
▁bibliothèque	-11.1262
▁ordinary	-11.1262
▁paradox	-11.1262
▁masculin	-11.1262
▁Institute	-11.1262
▁bread	-11.1262
▁accus	-11.1262
▁obstacles	-11.1262
▁1960	-11.1264
▁rose	-11.1268
près	-11.1268
▁accepté	-11.127
▁shut	-11.1271
individu	-11.1274
▁autism	-11.1286
▁perfectly	-11.1289
▁abstract	-11.1307
▁bénéfice	-11.1307
▁collapse	-11.1307
▁probabilité	-11.1307
▁accurate	-11.1307
▁maintenir	-11.1307
▁remercie	-11.1307
▁spectacle	-11.1307
▁vêtements	-11.1307
▁apparent	-11.1307
▁theater	-11.1328
▁médical	-11.133
▁Very	-11.1331
▁taste	-11.1331
▁setting	-11.134
issait	-11.1344
▁courte	-11.1348
adresse	-11.1351
▁indépendant	-11.1353
▁souffrance	-11.1353
▁prévu	-11.1353
▁description	-11.1353
échappe	-11.1353
▁abeilles	-11.1353
▁shoes	-11.1355
▁Other	-11.1358
auteur	-11.1359
▁poem	-11.1363
▁launched	-11.1375
▁grim	-11.1375
urgence	-11.1383
▁economist	-11.1399
▁epidemic	-11.1399
▁réflexion	-11.1399
▁vulnerable	-11.1399
▁embrace	-11.1399
▁initiative	-11.1399
▁gestion	-11.1399
▁Talk	-11.1399
▁lentement	-11.14
▁visuelle	-11.1407
▁select	-11.1408
▁compose	-11.1409
▁row	-11.1418
gin	-11.1425
▁electric	-11.1425
▁avancée	-11.1431
▁pet	-11.1435
▁secondaire	-11.1443
Allemagne	-11.1445
▁William	-11.1445
▁automobile	-11.1445
▁transplant	-11.1445
▁credit	-11.1445
▁emotion	-11.1453
▁flip	-11.1455
friend	-11.1458
▁profession	-11.1469
▁émotionnelle	-11.1479
aventure	-11.148
▁enregistré	-11.1481
▁artiste	-11.1484
crit	-11.1486
▁illustr	-11.1486
▁catégorie	-11.1491
▁Ghana	-11.1491
▁demain	-11.1493
▁stupide	-11.1493
▁hide	-11.1495
▁involve	-11.1514
▁skill	-11.1514
▁Ceux	-11.1527
▁paying	-11.1531
▁demandent	-11.1532
▁Gar	-11.1536
▁2012	-11.1537
▁Stanford	-11.1537
▁collision	-11.1537
empathie	-11.1537
▁display	-11.1537
ibility	-11.1537
▁génie	-11.1538
▁firm	-11.1539
▁mortalité	-11.154
extinction	-11.1541
▁Sch	-11.1543
▁processes	-11.1545
▁analysis	-11.1545
▁chart	-11.1547
American	-11.1551
▁lung	-11.1552
▁gène	-11.1561
▁Matt	-11.1566
isez	-11.1572
opéra	-11.1579
▁2015	-11.1584
▁négoci	-11.1584
▁mystère	-11.1584
▁error	-11.1584
▁church	-11.1584
▁Three	-11.1584
▁trouvons	-11.1585
▁indicate	-11.1585
▁citation	-11.1585
▁fermé	-11.1587
▁commentaire	-11.1592
éral	-11.1606
▁Would	-11.1631
▁equivalent	-11.1631
église	-11.1631
▁pocket	-11.1631
▁inclus	-11.1632
▁résolution	-11.1633
▁permission	-11.1633
▁season	-11.1637
script	-11.1643
Yes	-11.1644
▁hire	-11.1647
▁intégré	-11.1648
▁wondering	-11.1651
avion	-11.1657
▁speaker	-11.1668
▁Far	-11.1671
altitude	-11.1678
▁réchauffement	-11.1678
▁typique	-11.1678
▁disrupt	-11.1678
▁maintain	-11.1678
▁préfère	-11.1679
▁psycho	-11.168
bla	-11.168
▁hip	-11.1681
▁lourd	-11.1683
▁increasingly	-11.1689
▁adulte	-11.169
échec	-11.1693
▁facing	-11.1701
▁augmentation	-11.1704
▁investissement	-11.1705
aucun	-11.1705
agir	-11.1713
▁portée	-11.1717
▁label	-11.1718
▁diploma	-11.1726
▁manufacturing	-11.1726
▁énergétique	-11.1726
▁universitaire	-11.1726
▁wisdom	-11.1726
▁Christian	-11.1726
▁avocat	-11.1726
▁practical	-11.1726
▁reconnais	-11.1726
▁sanguin	-11.1726
▁interrog	-11.1726
▁fondation	-11.1737
approche	-11.1739
▁essayant	-11.1739
▁individuelle	-11.1745
▁tip	-11.1746
▁killing	-11.1746
▁Their	-11.1749
▁bless	-11.1752
▁maman	-11.1753
▁Air	-11.1755
▁échec	-11.1759
▁avance	-11.1764
q	-11.1767
▁establish	-11.1773
▁heavy	-11.1773
▁participate	-11.1773
▁Trois	-11.1773
▁organic	-11.1773
▁bataille	-11.1774
▁dominant	-11.1774
▁hopefully	-11.1775
▁hier	-11.1779
▁fourth	-11.1782
▁loud	-11.1783
▁flash	-11.1785
arbre	-11.179
▁36	-11.1795
▁capita	-11.1802
▁essential	-11.181
agé	-11.1817
▁doubt	-11.1821
▁equation	-11.1821
▁ouvrir	-11.1822
▁devions	-11.1823
▁kick	-11.1824
▁correctement	-11.1826
▁bouton	-11.1834
▁fête	-11.1837
▁regardent	-11.1844
▁Does	-11.1847
▁resource	-11.1852
▁interven	-11.1859
▁plateforme	-11.1869
▁discrimination	-11.1872
▁nulle	-11.1872
▁garanti	-11.1876
▁actif	-11.1879
▁persist	-11.188
▁ethic	-11.1881
▁session	-11.1884
▁fac	-11.1884
américain	-11.1885
Vous	-11.1889
▁released	-11.1897
avor	-11.1898
▁Pan	-11.1898
▁keeping	-11.1899
▁warming	-11.1901
▁Six	-11.1913
▁Congrès	-11.1918
▁Health	-11.1918
▁transmission	-11.1918
▁fonctionnement	-11.192
▁folle	-11.192
▁Bank	-11.1921
▁exige	-11.1921
▁plaque	-11.1926
▁enregistr	-11.1927
écriture	-11.1929
humain	-11.1933
▁combination	-11.1937
▁couverture	-11.1944
house	-11.1953
▁Egypt	-11.1965
▁Wikipedia	-11.1966
▁property	-11.1966
▁tweet	-11.1966
▁Central	-11.1966
▁sweet	-11.1966
▁normally	-11.1972
▁industrielle	-11.1977
atory	-11.1977
exploitation	-11.199
▁créateur	-11.199
entrée	-11.199
▁pollen	-11.199
▁détecter	-11.1993
▁jouent	-11.1994
▁Latin	-11.1995
▁rassembler	-11.1997
imagine	-11.2004
▁auxquel	-11.2013
▁broke	-11.2014
▁kitchen	-11.2015
▁mathematical	-11.2015
▁intuition	-11.2015
▁Chacun	-11.2017
▁venez	-11.2017
▁opening	-11.2019
▁limb	-11.202
▁Wall	-11.2022
▁excité	-11.2022
appelait	-11.2027
▁hypothèse	-11.2027
▁manifestation	-11.2035
▁load	-11.2044
▁liquid	-11.2045
▁exploration	-11.2053
▁complète	-11.2054
▁candidat	-11.2056
▁abandonné	-11.2059
iness	-11.2061
▁Tri	-11.2064
▁Higgs	-11.2064
▁SIDA	-11.2064
▁détruit	-11.2064
▁tomorrow	-11.2064
▁terminer	-11.2064
▁pomme	-11.2064
▁empty	-11.2064
▁smartphone	-11.2064
▁manager	-11.2065
▁division	-11.2066
▁suspect	-11.2066
▁interne	-11.2066
▁prefer	-11.2067
▁explique	-11.2069
▁2006	-11.2069
▁rentre	-11.2071
▁assign	-11.2071
▁ordre	-11.2073
▁ayons	-11.2074
▁usage	-11.2079
▁discuss	-11.2083
▁actor	-11.2086
▁tear	-11.2088
▁saved	-11.209
▁divin	-11.2091
uthern	-11.2097
▁auront	-11.2105
▁Congress	-11.2113
▁diagnose	-11.2113
▁diplôme	-11.2113
▁conséquent	-11.2113
▁equipment	-11.2113
▁médicaux	-11.2113
▁technological	-11.2113
▁perceive	-11.2113
▁réparer	-11.2113
▁reject	-11.2116
▁Peter	-11.2121
▁2,000	-11.2122
▁dents	-11.2126
▁kit	-11.2135
▁toilet	-11.2137
▁aimé	-11.2141
▁nouvel	-11.215
▁racont	-11.2153
▁factory	-11.2159
▁souvenez	-11.2163
▁quatrième	-11.2163
▁Women	-11.2163
▁bloqu	-11.2163
▁preserv	-11.2163
▁quarter	-11.2164
▁chaise	-11.2166
▁enfance	-11.2179
▁electrical	-11.2181
essaie	-11.2183
▁Last	-11.2185
Don	-11.2188
▁robotic	-11.219
▁acid	-11.2198
stitution	-11.2204
▁south	-11.2205
▁ressenti	-11.2207
▁celebrate	-11.2212
▁galaxy	-11.2212
▁ressort	-11.2212
▁journaux	-11.2212
▁variety	-11.2213
▁escape	-11.2213
éloigne	-11.2213
▁promote	-11.2213
▁ressemblait	-11.2216
écu	-11.2218
▁panel	-11.2221
▁trac	-11.2226
▁filter	-11.2226
▁creus	-11.2233
▁State	-11.2234
▁comparé	-11.2243
▁volant	-11.2246
▁alien	-11.2248
▁autrement	-11.2251
▁hydro	-11.2251
▁increasing	-11.2252
▁essentiel	-11.2253
▁revenue	-11.2255
▁according	-11.226
▁Everybody	-11.2262
▁hôpitaux	-11.2262
▁pleasure	-11.2262
▁ridicule	-11.2262
▁éloigné	-11.2262
▁autonome	-11.2262
▁title	-11.2263
▁précise	-11.2263
▁circulation	-11.2264
▁float	-11.2264
▁entouré	-11.2265
ball	-11.2266
▁raconté	-11.2267
down	-11.2269
analyse	-11.228
▁Ouais	-11.228
▁testing	-11.2281
▁organized	-11.2285
▁advanced	-11.2289
▁Since	-11.229
▁surround	-11.2292
▁internal	-11.2303
niste	-11.2303
▁extrait	-11.2306
▁elephant	-11.2313
▁emissions	-11.2313
▁association	-11.2313
▁arabe	-11.2313
▁élections	-11.2314
▁volcan	-11.2314
▁2004	-11.2318
▁proposition	-11.2321
▁Alzheimer	-11.2328
améliorer	-11.2328
▁artistique	-11.233
▁consume	-11.2331
▁étudi	-11.2335
▁sending	-11.2339
▁saison	-11.2343
▁Pen	-11.2348
▁grandir	-11.2349
▁quotidien	-11.2349
▁peer	-11.2355
applique	-11.2359
▁appreciate	-11.2363
▁effrayant	-11.2363
▁privilege	-11.2363
▁miroir	-11.2363
▁nettoy	-11.2363
▁valuable	-11.2363
▁obtient	-11.2363
▁Everything	-11.2363
▁interpret	-11.2363
▁grippe	-11.2363
▁brutal	-11.2364
▁fraction	-11.2364
▁specifically	-11.2366
▁director	-11.2366
▁teenager	-11.2374
▁biais	-11.2383
▁rentré	-11.2383
▁connecter	-11.2385
▁prediction	-11.2387
▁cadeau	-11.2391
▁28	-11.2393
lick	-11.2407
▁fondamental	-11.2407
▁voter	-11.2409
▁inequality	-11.2414
▁variable	-11.2414
▁educate	-11.2414
▁femelle	-11.2414
▁weather	-11.2414
▁sight	-11.2422
▁indien	-11.2422
▁pray	-11.2423
▁polio	-11.2428
identité	-11.2432
▁assemble	-11.2436
attrape	-11.2454
▁largement	-11.2457
▁ouvre	-11.2461
éléphant	-11.2465
▁fréquence	-11.2465
▁nôtre	-11.2465
▁vulnérable	-11.2465
▁suggér	-11.2465
▁frappé	-11.2465
injustice	-11.2466
▁conservative	-11.2467
▁covered	-11.2468
▁résume	-11.2469
▁cutting	-11.2471
▁récente	-11.2472
▁icon	-11.2473
▁Public	-11.2474
▁arrived	-11.2476
neur	-11.2484
▁alarm	-11.2486
▁script	-11.2501
▁Juste	-11.2503
print	-11.2509
effondre	-11.2516
▁cependant	-11.2516
▁definitely	-11.2516
▁récolte	-11.2516
▁GDP	-11.2516
▁PIB	-11.2516
▁glacier	-11.2516
▁England	-11.2516
▁croyons	-11.2516
▁animation	-11.2517
▁selling	-11.2517
▁reconnu	-11.2518
▁transaction	-11.2518
▁quantum	-11.252
▁majeur	-11.252
▁légèrement	-11.2522
▁120	-11.2532
employ	-11.2535
avance	-11.2535
▁pilote	-11.2535
▁vente	-11.2537
▁remplacer	-11.2542
▁publish	-11.2548
▁puce	-11.2548
▁coté	-11.2549
Asie	-11.2557
▁soudain	-11.2566
▁assumption	-11.2568
▁parasite	-11.2568
▁prétend	-11.2569
▁suffisant	-11.2569
▁barrière	-11.257
▁roughly	-11.2574
▁button	-11.2575
▁meaningful	-11.2586
▁increased	-11.2586
▁boite	-11.2587
▁height	-11.2595
▁facteur	-11.2596
▁prime	-11.2606
plica	-11.2618
▁lendemain	-11.262
▁underneath	-11.262
▁incentive	-11.262
▁Bush	-11.2623
▁habituel	-11.2627
▁settle	-11.263
▁deserve	-11.263
▁tar	-11.2632
▁explosion	-11.2632
▁grid	-11.2633
▁relatively	-11.2635
ménage	-11.2637
▁100,000	-11.2637
lope	-11.2638
▁vache	-11.2647
▁mouche	-11.2648
▁scared	-11.265
olar	-11.2655
state	-11.2662
occuper	-11.2662
▁academic	-11.2672
▁flexible	-11.2672
▁gravité	-11.2672
▁prédiction	-11.2672
▁théâtre	-11.2672
▁molecule	-11.2672
▁décennie	-11.2672
▁identifier	-11.2672
▁joke	-11.2677
ains	-11.268
▁précision	-11.268
▁800	-11.2681
▁rapidly	-11.2682
▁essayez	-11.2687
phone	-11.2693
▁SW	-11.2694
▁assurer	-11.2695
▁fundamentally	-11.2699
▁Rome	-11.2702
▁handle	-11.2704
▁Kar	-11.2706
scope	-11.271
▁casse	-11.2711
▁bike	-11.2712
▁relate	-11.2714
▁consist	-11.2722
▁possibilities	-11.2724
▁prouver	-11.2724
▁mensonge	-11.2724
▁AI	-11.2724
▁économis	-11.2725
▁spiritual	-11.2725
▁molécule	-11.2726
▁conséquence	-11.2726
agissait	-11.2732
▁Alex	-11.2733
key	-11.2733
▁remettre	-11.2735
▁citizen	-11.2737
ouverture	-11.2737
▁manuel	-11.2738
▁Bang	-11.2743
▁convinced	-11.2745
▁assise	-11.2746
▁85	-11.2748
arriver	-11.2754
▁however	-11.2755
▁pic	-11.2759
▁totale	-11.2763
écrire	-11.2775
▁travaux	-11.2777
▁vessel	-11.2777
▁Could	-11.2777
▁laptop	-11.2777
▁evil	-11.2777
▁étendu	-11.2778
▁pitch	-11.278
▁compete	-11.2781
▁pulled	-11.2785
▁procédé	-11.2789
▁serez	-11.2802
▁vérifi	-11.2807
▁dépens	-11.2808
▁rig	-11.282
▁savaient	-11.2823
accueil	-11.283
▁Finalement	-11.283
▁empathy	-11.283
▁explanation	-11.283
▁sandwich	-11.283
▁producing	-11.283
▁souches	-11.283
▁string	-11.283
abri	-11.283
▁1000	-11.2834
▁formula	-11.2834
▁engaged	-11.2835
▁severe	-11.2843
▁cérébrale	-11.2848
▁brill	-11.2851
▁effectively	-11.2853
▁introduce	-11.2859
▁eaux	-11.286
fold	-11.2863
▁historical	-11.2864
▁concentré	-11.287
poli	-11.2873
▁parlez	-11.2876
▁empêcher	-11.2882
▁Global	-11.2883
▁advice	-11.2883
▁announce	-11.2883
▁aperçu	-11.2883
▁ancêtres	-11.2883
▁composants	-11.2883
▁healthcare	-11.2883
▁métier	-11.2883
▁chemistry	-11.2883
▁instructions	-11.2883
▁brave	-11.2885
▁awful	-11.2885
▁galaxie	-11.289
▁passionate	-11.2892
▁carefully	-11.2892
▁review	-11.2893
▁métal	-11.2894
▁classic	-11.2894
▁croit	-11.2897
▁préfér	-11.2901
occasion	-11.2903
▁fossiles	-11.2912
▁élevée	-11.2913
posant	-11.292
▁Gene	-11.2924
▁chirurgie	-11.2924
▁priv	-11.2931
▁soft	-11.2931
établir	-11.2932
▁Britain	-11.2936
▁physicien	-11.2936
▁privacy	-11.2936
▁susceptible	-11.2936
▁computation	-11.2936
▁venaient	-11.2936
▁sagesse	-11.2936
▁ramener	-11.2937
▁baseball	-11.2937
▁tall	-11.2938
▁sugar	-11.2938
▁aimons	-11.2938
▁peak	-11.2939
▁implement	-11.294
▁priorité	-11.2941
▁entré	-11.2941
metric	-11.2942
▁chirurgien	-11.2948
▁rocket	-11.2949
▁apartment	-11.2963
▁tea	-11.2966
▁tenter	-11.2966
▁700	-11.2977
▁sexuel	-11.2985
▁Hol	-11.2985
▁recycle	-11.299
▁Mexique	-11.299
▁chicken	-11.299
▁comprenons	-11.299
▁dirigé	-11.299
▁thème	-11.299
▁répand	-11.2991
▁composition	-11.2991
▁plot	-11.2994
▁donnez	-11.3001
▁added	-11.3002
▁Yet	-11.3002
▁achet	-11.3002
▁métro	-11.3006
ologues	-11.3015
▁entoure	-11.3016
last	-11.302
aviez	-11.304
▁funding	-11.3042
▁circumstance	-11.3044
▁scénario	-11.3044
▁racine	-11.3044
▁worldwide	-11.3044
▁swim	-11.3044
▁avéré	-11.3044
▁conduis	-11.3044
assurance	-11.3045
chargé	-11.3045
▁shame	-11.3046
cellulaire	-11.3047
▁foie	-11.3048
▁forcément	-11.3053
▁aurons	-11.3055
envers	-11.3063
▁bâti	-11.3088
▁permettra	-11.3098
▁Deuxièmement	-11.3098
▁nécessite	-11.3098
▁illegal	-11.3098
▁sauvé	-11.3098
▁surgeon	-11.31
▁cherché	-11.3101
▁accomplish	-11.3102
▁extract	-11.3106
▁align	-11.3109
▁écosystème	-11.311
important	-11.312
axe	-11.3129
box	-11.3135
▁probable	-11.3143
institut	-11.3145
▁batte	-11.3146
▁acquis	-11.3152
▁consumption	-11.3153
▁demonstrate	-11.3153
▁mammal	-11.3153
▁properties	-11.3153
▁Number	-11.3153
▁primary	-11.3153
▁ticket	-11.3153
▁écologique	-11.3153
▁witness	-11.3153
▁retraite	-11.3153
▁drapeau	-11.3153
▁reef	-11.3155
▁sync	-11.3155
▁rapproche	-11.3155
▁poumon	-11.3156
assistance	-11.3163
▁dose	-11.3165
▁supérieur	-11.3169
▁Rio	-11.3177
existence	-11.318
▁restent	-11.318
▁calme	-11.3185
▁pipe	-11.3196
▁sheet	-11.3207
▁condamn	-11.3208
▁racial	-11.3208
▁supprim	-11.3208
▁sucre	-11.3208
▁enseigner	-11.3209
▁mettons	-11.3209
▁export	-11.3214
▁conven	-11.3221
▁tiens	-11.323
break	-11.323
▁German	-11.3246
back	-11.3254
▁thin	-11.3256
▁affected	-11.3261
star	-11.3261
▁britannique	-11.3263
▁identique	-11.3263
▁semblable	-11.3263
▁suggère	-11.3263
▁négatif	-11.3263
▁employees	-11.3264
hold	-11.3264
▁contraint	-11.3264
▁statue	-11.3264
▁faudrait	-11.3266
▁permettant	-11.3267
▁spring	-11.3268
▁tribe	-11.3269
▁format	-11.3286
▁conservateur	-11.3289
▁doubl	-11.3289
▁reached	-11.3294
itch	-11.3295
▁bug	-11.3295
▁mile	-11.331
abandon	-11.3317
▁représenter	-11.3318
▁Hollywood	-11.3319
▁awesome	-11.3319
▁clothes	-11.3319
▁mammifère	-11.3319
▁physicist	-11.3319
▁propriétaire	-11.3319
▁résistance	-11.3319
▁snow	-11.3319
▁Corée	-11.3319
▁filtre	-11.332
▁prédire	-11.3322
▁repose	-11.3324
▁Ku	-11.3325
▁battu	-11.3325
▁appropriate	-11.3326
▁déjeuner	-11.3327
▁organes	-11.3334
▁Bible	-11.3334
▁wrap	-11.3335
▁spécialiste	-11.334
▁chimique	-11.3341
▁melt	-11.3356
▁traditionnel	-11.3356
▁statement	-11.3369
▁comfort	-11.3371
▁activities	-11.3375
▁français	-11.3375
▁spectrum	-11.3375
▁témoin	-11.3375
▁viande	-11.3375
▁Smith	-11.3375
▁Japanese	-11.3375
▁fermier	-11.3375
alimentation	-11.3375
▁High	-11.3375
enseignant	-11.3376
▁ajouté	-11.3376
▁varie	-11.3376
▁exposition	-11.3377
▁déteste	-11.3378
▁House	-11.338
▁développe	-11.3384
▁expansion	-11.3388
▁représenté	-11.3389
▁péri	-11.3396
parents	-11.3397
▁vérifier	-11.3399
▁dinosaures	-11.3405
▁potentially	-11.341
administration	-11.3413
▁terrorisme	-11.3416
▁physically	-11.3418
▁ravi	-11.3429
▁Trump	-11.3431
▁gravity	-11.3431
▁modifier	-11.3431
▁relevant	-11.3431
▁robust	-11.3431
▁facial	-11.3432
▁decline	-11.3432
▁gut	-11.3438
▁staff	-11.3438
▁USA	-11.3441
▁courir	-11.3441
▁claire	-11.3442
▁prepared	-11.3444
▁individu	-11.3445
objectif	-11.3454
▁urbain	-11.3463
▁assure	-11.3465
▁psych	-11.3481
▁driven	-11.3484
▁carburant	-11.3487
▁challenging	-11.3487
▁minimum	-11.3487
▁chimie	-11.3487
▁reconnaissance	-11.3487
▁cheval	-11.3487
▁Brown	-11.3487
▁psychologique	-11.3488
▁storm	-11.3488
▁puissions	-11.3489
▁2050	-11.3492
▁2003	-11.3493
▁repair	-11.3494
▁required	-11.3497
burg	-11.3497
▁relativement	-11.3503
▁paie	-11.3506
code	-11.3507
▁épidémie	-11.3507
load	-11.3515
▁projection	-11.3521
▁captur	-11.3521
pouvant	-11.3521
▁dessiner	-11.3525
angle	-11.353
▁critic	-11.3532
▁officer	-11.3536
▁démocratique	-11.3544
▁emerging	-11.3544
▁européen	-11.3544
▁intuitive	-11.3544
▁Pouvez	-11.3544
▁routine	-11.3544
▁défaut	-11.3544
▁length	-11.3544
▁angry	-11.3544
▁signature	-11.3545
▁utilisateurs	-11.3546
▁panneaux	-11.3547
astronome	-11.3548
▁2001	-11.3551
▁Gates	-11.3552
▁plage	-11.3554
▁quantique	-11.3555
artiste	-11.3558
▁campus	-11.3563
▁Four	-11.3566
▁naturellement	-11.3572
▁bactérie	-11.3574
▁generally	-11.3575
▁defined	-11.3576
▁passionné	-11.3581
midi	-11.3583
▁Day	-11.3585
▁temple	-11.3594
▁disque	-11.3597
▁innocent	-11.3601
▁uniform	-11.3601
▁pourcentage	-11.3601
▁psychological	-11.3602
▁incident	-11.3602
▁dîner	-11.3602
▁sauce	-11.3602
▁milk	-11.3602
▁naturally	-11.3602
▁restrict	-11.3603
▁réforme	-11.3603
▁archive	-11.3605
▁ras	-11.3608
▁affi	-11.3611
▁créons	-11.3614
▁rapid	-11.3614
tress	-11.3616
▁distant	-11.3619
▁logo	-11.3621
illumin	-11.3634
▁rou	-11.3644
▁marin	-11.3651
▁Act	-11.3655
▁Scott	-11.3659
▁déroule	-11.3659
▁quiconque	-11.3659
▁enceinte	-11.3659
▁balloon	-11.3659
▁confident	-11.3659
▁mythe	-11.3659
▁rescue	-11.3659
▁repris	-11.3662
▁equality	-11.3664
▁assist	-11.3666
▁presentation	-11.3669
▁blessure	-11.3671
▁typically	-11.3675
▁âgées	-11.3682
atteindre	-11.3684
expliquer	-11.3684
▁écart	-11.3684
uk	-11.3689
▁donnant	-11.3692
▁installé	-11.3697
▁armée	-11.3699
▁Allez	-11.3701
infirmière	-11.3717
▁interrupt	-11.3717
▁integrate	-11.3717
▁liberal	-11.3717
▁mosquito	-11.3717
▁perturb	-11.3717
▁Ebola	-11.3717
▁transcend	-11.3717
▁medium	-11.3717
▁État	-11.3717
Sahara	-11.372
▁valid	-11.3724
▁connait	-11.3725
▁cube	-11.3728
instant	-11.3748
▁opposé	-11.3748
▁essence	-11.3749
▁publication	-11.3771
▁Premièrement	-11.3775
▁agréable	-11.3775
▁antibiotic	-11.3775
▁democratic	-11.3775
▁idiot	-11.3775
▁molecular	-11.3775
▁recrut	-11.3775
▁racism	-11.3775
identifie	-11.3775
▁strip	-11.3775
inquiète	-11.3776
▁auxquelles	-11.3777
▁murder	-11.378
▁optimiste	-11.3781
▁boom	-11.3784
▁basse	-11.379
▁forcé	-11.379
héritage	-11.3793
▁conducteur	-11.3794
▁geo	-11.3794
▁compress	-11.3798
▁transportation	-11.3804
▁convince	-11.381
▁sache	-11.3812
▁supérieure	-11.3816
▁Moi	-11.3823
▁absolute	-11.3826
▁hôpital	-11.3829
▁couvert	-11.3831
▁Bel	-11.3833
▁Vietnam	-11.3833
▁confidence	-11.3833
▁entertain	-11.3833
▁nutrition	-11.3833
▁sophistiqué	-11.3833
▁While	-11.3833
▁motivate	-11.3834
▁costume	-11.3834
▁ruin	-11.3837
▁vagin	-11.384
▁prenant	-11.384
▁candidate	-11.3842
▁Eric	-11.3847
▁pump	-11.3853
essence	-11.3859
▁normalement	-11.3863
making	-11.3872
▁33	-11.3876
▁provenan	-11.3881
entendre	-11.3883
▁arc	-11.3883
▁appellent	-11.3884
▁bicycle	-11.3892
▁calories	-11.3892
▁gentlemen	-11.3892
▁syndrome	-11.3892
▁yesterday	-11.3892
▁centuries	-11.3892
▁poésie	-11.3892
▁policies	-11.3892
▁inévitable	-11.3892
▁teeth	-11.3892
▁steel	-11.3892
▁criminel	-11.3893
▁secure	-11.3893
▁moustique	-11.3893
▁loan	-11.3895
▁thérapie	-11.3901
▁dangereuse	-11.3903
stone	-11.3908
▁Union	-11.391
▁sourire	-11.3914
▁peint	-11.3916
▁introduced	-11.3918
essaye	-11.3923
▁jambe	-11.3935
▁luck	-11.3942
▁sustain	-11.3947
▁cinéma	-11.3951
▁dauphin	-11.3951
▁Mondiale	-11.3951
▁district	-11.3951
▁innovative	-11.3951
▁résistant	-11.3951
▁White	-11.3951
▁applied	-11.3951
▁Titan	-11.3951
▁Syria	-11.3951
▁procure	-11.3951
▁knee	-11.3952
▁souffle	-11.3952
▁nerveux	-11.3953
▁roue	-11.3953
▁gentil	-11.3953
▁pirate	-11.3955
▁consent	-11.3957
▁garage	-11.3962
lash	-11.3964
▁Also	-11.3966
▁récupérer	-11.3971
anglais	-11.3978
opération	-11.3981
▁culturel	-11.3981
▁dorm	-11.3985
▁evolve	-11.3987
stimul	-11.3992
▁détruire	-11.4011
▁grandfather	-11.4011
▁pregnant	-11.4011
▁scenario	-11.4011
▁échoue	-11.4011
▁Space	-11.4011
▁behave	-11.4011
▁Aussi	-11.4012
▁29	-11.4014
▁virtuelle	-11.4017
▁unknown	-11.4035
investissement	-11.4038
▁utilisez	-11.4041
▁rendez	-11.4048
arrêt	-11.405
▁contest	-11.4068
▁conviction	-11.4071
▁curiosité	-11.4071
▁maîtrise	-11.4071
▁sophisticated	-11.4071
▁SMS	-11.4071
apparence	-11.4071
▁préparé	-11.4071
▁clever	-11.4071
▁blague	-11.4072
▁Soleil	-11.4073
▁joined	-11.4073
▁amoureux	-11.4074
▁officiel	-11.4075
ifiant	-11.4075
▁intellectuelle	-11.4076
▁electro	-11.4085
▁winter	-11.4091
▁ajoute	-11.4096
influence	-11.4098
▁blessé	-11.4103
▁Duran	-11.4111
digit	-11.4116
▁gris	-11.412
▁apple	-11.4122
▁manufacture	-11.4131
▁obligé	-11.4131
▁physician	-11.4131
▁providing	-11.4131
▁câble	-11.4131
▁housing	-11.4131
▁fibre	-11.4131
▁désolé	-11.4131
▁evolutionary	-11.4134
▁hotel	-11.4137
▁personally	-11.4142
▁humor	-11.4146
▁gel	-11.4147
▁essentielle	-11.415
▁55	-11.4163
half	-11.417
▁entrée	-11.4172
▁destiné	-11.4184
▁Bangladesh	-11.4191
▁Noël	-11.4191
▁astronaut	-11.4191
▁struck	-11.4191
▁sérieusement	-11.4191
▁plongé	-11.4192
▁barrier	-11.4192
▁department	-11.4192
honneur	-11.4192
▁grandissant	-11.4201
▁sentais	-11.4209
▁préparer	-11.4213
▁savions	-11.4222
hôtel	-11.4223
▁longueur	-11.423
OK	-11.4231
▁évalu	-11.4251
▁stretch	-11.4252
▁analyze	-11.4252
▁préjugé	-11.4252
▁spectaculaire	-11.4252
▁discuter	-11.4253
▁éclat	-11.4253
▁spectre	-11.4253
▁therapy	-11.4254
oxy	-11.4258
▁equally	-11.4273
Univers	-11.4277
ji	-11.4303
▁printing	-11.4311
▁Museum	-11.4314
▁chimpanzee	-11.4314
▁dolphin	-11.4314
▁flood	-11.4314
▁moléculaire	-11.4314
▁mystery	-11.4314
▁statut	-11.4314
▁fraud	-11.4315
▁primate	-11.4315
▁painful	-11.4316
▁malheur	-11.4318
▁lève	-11.4318
▁atoms	-11.432
▁considérable	-11.4326
▁opera	-11.4326
▁bound	-11.4328
▁poet	-11.4336
▁urbaine	-11.434
imagination	-11.4345
▁financement	-11.4349
▁commencez	-11.4355
élection	-11.4357
▁improvement	-11.4362
▁rail	-11.437
obstacle	-11.4374
▁répandu	-11.4375
▁Project	-11.4376
▁curieux	-11.4376
▁diplômé	-11.4376
▁féminin	-11.4376
▁harvest	-11.4376
▁domestic	-11.4376
▁framework	-11.4376
▁defend	-11.4376
▁battery	-11.4378
▁créative	-11.4378
▁cacher	-11.4379
▁attaché	-11.438
▁toile	-11.4385
▁débarrasser	-11.4386
ndra	-11.439
▁reverse	-11.4398
▁Long	-11.4409
autisme	-11.441
foot	-11.4411
ède	-11.442
▁sentent	-11.442
class	-11.4422
born	-11.4437
▁Virgin	-11.4438
▁réduction	-11.4438
▁trigger	-11.4438
▁deploy	-11.4438
▁illégal	-11.4438
▁NSA	-11.4438
▁promesse	-11.4438
▁narrow	-11.4438
▁reference	-11.4438
▁aident	-11.4438
▁transmit	-11.4438
▁dossier	-11.4439
▁vieilli	-11.4439
▁transmettre	-11.4439
▁psychologue	-11.444
▁physiquement	-11.4441
▁sacrifice	-11.4442
▁hoping	-11.4443
énormes	-11.4451
▁marié	-11.4451
▁Audience	-11.4455
▁faisions	-11.4457
▁administr	-11.4457
▁passive	-11.4463
▁prévoi	-11.4464
▁roi	-11.4467
envoyer	-11.4477
▁organize	-11.4481
▁aurions	-11.4482
▁Perhaps	-11.45
▁economies	-11.45
▁paludisme	-11.45
▁reproduire	-11.45
▁reçoit	-11.45
▁suppli	-11.45
▁false	-11.45
▁montrant	-11.45
▁démontre	-11.45
araignée	-11.45
▁hydrogen	-11.4501
▁variété	-11.4502
▁causé	-11.4502
▁poetry	-11.4502
▁cartographi	-11.4504
▁logement	-11.4504
▁distract	-11.4505
▁tank	-11.4505
▁homo	-11.4508
▁promis	-11.4508
▁émergent	-11.4508
▁destination	-11.4512
▁terrorism	-11.4518
▁noyau	-11.4518
▁sphère	-11.4525
group	-11.453
▁retourne	-11.4534
▁manifest	-11.4537
▁coach	-11.4542
▁dramatic	-11.4562
accéder	-11.4563
▁2014	-11.4563
▁Permettez	-11.4563
▁mechanical	-11.4563
▁religieuse	-11.4563
▁reçoivent	-11.4563
▁memories	-11.4563
▁Prenons	-11.4563
▁méchant	-11.4563
▁unusual	-11.4563
▁immune	-11.4563
autoroute	-11.4563
▁steal	-11.4564
▁réveille	-11.4564
▁dropped	-11.4564
▁mathématique	-11.4565
▁citoyen	-11.4565
▁créant	-11.458
▁neige	-11.4587
utilisateur	-11.4595
▁terroristes	-11.4595
▁équipement	-11.4603
▁tag	-11.4607
▁commit	-11.4612
▁wound	-11.4626
▁modifié	-11.4626
▁sphere	-11.4626
▁afternoon	-11.4626
▁boring	-11.4634
oeil	-11.4657
▁Russia	-11.467
cture	-11.4674
▁piste	-11.468
écoule	-11.468
▁Mill	-11.4687
▁reproduction	-11.469
▁shadow	-11.469
▁swimming	-11.469
▁agenda	-11.469
destruct	-11.469
▁awareness	-11.4693
▁rising	-11.4694
illion	-11.4695
▁collègue	-11.4697
▁augment	-11.4699
▁Design	-11.47
▁formule	-11.4702
▁explication	-11.4703
▁perfection	-11.4703
pression	-11.4703
▁empêche	-11.4704
▁disparaître	-11.4705
▁horizon	-11.4706
▁texture	-11.4708
▁avancé	-11.4709
▁Hill	-11.471
▁geste	-11.4731
▁diminuer	-11.4731
▁carrying	-11.4734
nalis	-11.4743
▁palm	-11.4746
▁barbe	-11.4746
▁Saturn	-11.4754
▁désespéré	-11.4754
▁familial	-11.4754
▁navigate	-11.4754
▁complain	-11.4754
▁welcome	-11.4754
▁enquête	-11.4754
▁ennemi	-11.4754
▁split	-11.4757
▁pardon	-11.4761
▁poison	-11.4764
▁Gold	-11.4775
▁surrounded	-11.478
elect	-11.4781
▁branches	-11.4785
appareil	-11.4786
▁panneau	-11.4816
▁suggestion	-11.4817
▁Cambridge	-11.4819
▁contrôlé	-11.4819
▁ingredient	-11.4819
▁literature	-11.4819
▁maximum	-11.4819
▁guard	-11.4819
▁thick	-11.4819
▁Quoi	-11.4823
organisme	-11.4825
▁solving	-11.4831
▁graphic	-11.4832
▁concrete	-11.484
▁fortune	-11.4853
▁Jane	-11.4869
▁govern	-11.4872
▁virtuel	-11.4883
▁foule	-11.4883
▁cigarette	-11.4884
▁Bonjour	-11.4884
▁imaginé	-11.4884
▁fortunate	-11.4884
▁CEO	-11.4884
▁primaire	-11.4884
▁attiré	-11.4884
▁architectural	-11.4884
▁authority	-11.4888
▁colleague	-11.4897
▁exclu	-11.4897
hydrogène	-11.4898
iph	-11.4902
▁chère	-11.4902
▁donnait	-11.4915
▁expliqué	-11.4924
▁prize	-11.4933
On	-11.4935
▁ultimate	-11.4938
▁sculpt	-11.4942
▁primitive	-11.4949
▁recommend	-11.4949
▁renouvelable	-11.4949
▁évènement	-11.4949
▁Russie	-11.4949
▁emprunt	-11.4949
▁stigma	-11.4949
▁champignon	-11.4949
▁inutile	-11.4949
▁viral	-11.4949
▁combattre	-11.4949
▁transmis	-11.495
▁silk	-11.495
▁envisage	-11.495
▁impressionnant	-11.4951
▁weigh	-11.4955
▁remont	-11.4956
▁giga	-11.4982
▁scary	-11.4983
▁motive	-11.4984
▁individuel	-11.5014
▁antibiotique	-11.5015
▁démonstration	-11.5015
▁intitulé	-11.5015
▁ministre	-11.5015
▁trajet	-11.5015
▁chauffe	-11.5015
▁brûle	-11.5015
▁incapable	-11.5015
▁récif	-11.5015
▁spider	-11.5015
▁constrain	-11.5015
▁Louis	-11.5016
enregistrement	-11.5016
▁shall	-11.5029
▁centaine	-11.5035
petit	-11.5042
animal	-11.5048
dedans	-11.5048
▁haine	-11.5053
▁Zi	-11.507
▁adapté	-11.5071
▁basket	-11.5081
▁agricole	-11.5081
▁Anyway	-11.5081
▁négative	-11.5081
▁Disney	-11.5081
▁computing	-11.5081
▁goutte	-11.5081
▁productivité	-11.5082
▁underwater	-11.5083
▁comic	-11.5086
▁gliss	-11.5087
▁infinite	-11.5088
,500	-11.5091
▁superbe	-11.5101
▁dame	-11.5118
▁porc	-11.5126
érant	-11.513
▁absolu	-11.5133
évolu	-11.5143
▁obsession	-11.5148
▁recommand	-11.5148
▁religieux	-11.5148
▁scream	-11.5148
▁somewhat	-11.5148
▁transparence	-11.5148
▁provient	-11.5148
▁maître	-11.5148
▁ritual	-11.5148
▁gaspill	-11.5148
▁éthique	-11.5148
▁psychology	-11.5148
▁crédit	-11.5148
▁rush	-11.5149
▁focal	-11.5149
▁inattendu	-11.5149
▁pensant	-11.515
attente	-11.5151
▁Tony	-11.5155
▁River	-11.5156
▁corn	-11.5158
emporte	-11.5161
▁commitment	-11.5163
fish	-11.5163
▁oeuvre	-11.5163
▁3,000	-11.5163
▁billet	-11.5165
▁Dès	-11.5165
▁Mike	-11.5167
▁ignorance	-11.5171
effort	-11.5182
▁refl	-11.5182
sky	-11.5187
▁silent	-11.5188
▁debt	-11.5189
▁42	-11.5198
▁passons	-11.5214
▁familier	-11.5215
▁Detroit	-11.5215
▁appartement	-11.5215
▁philosophie	-11.5215
▁poursuivre	-11.5215
▁LED	-11.5215
▁mortality	-11.5215
▁Before	-11.5215
▁geek	-11.5215
▁travaillais	-11.5215
▁greenhouse	-11.5215
▁committed	-11.5216
▁appliqué	-11.5216
▁poulet	-11.5216
▁overcome	-11.5216
▁occurred	-11.5216
▁ratio	-11.5217
▁torture	-11.5223
oreille	-11.5224
▁Oxford	-11.5225
▁suck	-11.5226
▁Nick	-11.5231
▁consistent	-11.5241
▁fiber	-11.5241
▁pace	-11.5245
▁promet	-11.525
▁conclure	-11.5254
▁colle	-11.5272
▁approprié	-11.5282
▁Heureusement	-11.5282
▁Nobody	-11.5282
▁Regardons	-11.5282
▁Research	-11.5282
▁Unfortunately	-11.5282
▁fauteuil	-11.5282
▁medication	-11.5282
▁emmené	-11.5282
▁suspend	-11.5282
▁senior	-11.5283
▁smoke	-11.5283
▁flies	-11.5283
▁psychologist	-11.5283
▁psychologie	-11.5283
▁lointain	-11.5283
▁resistance	-11.5284
▁venons	-11.5284
▁collaborative	-11.5285
▁anniversaire	-11.529
▁contradiction	-11.5293
▁interactive	-11.5293
▁pool	-11.5299
▁sauve	-11.5307
▁supposé	-11.5323
person	-11.5328
▁choc	-11.5331
▁organique	-11.5344
▁Christmas	-11.535
▁efficiency	-11.535
▁frankly	-11.535
▁genius	-11.535
▁immigrant	-11.535
▁unexpected	-11.535
▁trouvait	-11.535
▁aléatoire	-11.535
▁grotte	-11.535
▁adopté	-11.535
▁capteurs	-11.535
▁extent	-11.5351
▁predator	-11.5351
▁dramatically	-11.5351
▁Johnson	-11.5353
▁écrivain	-11.5358
▁distinction	-11.537
▁déclaré	-11.5385
▁déclin	-11.5386
▁coupable	-11.5388
▁brisé	-11.5403
▁occupé	-11.5404
envoi	-11.5414
Israël	-11.5419
▁September	-11.5419
▁apparemment	-11.5419
▁combustible	-11.5419
▁dépassé	-11.5419
▁extension	-11.5419
▁library	-11.5419
▁membrane	-11.5419
▁presence	-11.5419
▁rejoindre	-11.5419
▁causing	-11.5419
▁Guerre	-11.5419
▁âme	-11.5419
▁Avez	-11.5419
▁famine	-11.542
▁hill	-11.542
▁rigid	-11.5422
ampoule	-11.5425
▁Hong	-11.5427
▁Woo	-11.5429
▁apprenons	-11.543
▁functional	-11.5431
▁régler	-11.5439
▁diminue	-11.5444
▁calculate	-11.545
▁partagent	-11.5451
étudiant	-11.5455
▁MT	-11.5457
▁gagn	-11.5481
▁extinct	-11.5482
accélér	-11.5487
▁2013	-11.5488
▁Environ	-11.5488
▁Foundation	-11.5488
▁Square	-11.5488
▁curiosity	-11.5488
▁inférieur	-11.5488
▁parallèle	-11.5488
▁FBI	-11.5488
▁examen	-11.5488
▁faveur	-11.5488
▁engaging	-11.5488
▁recette	-11.5488
▁brown	-11.5488
▁ought	-11.5488
▁portion	-11.549
▁réparti	-11.5491
▁Everyone	-11.5491
▁tentative	-11.5492
▁toxique	-11.5492
▁vocal	-11.5492
▁généré	-11.5498
▁sperm	-11.5505
▁viendra	-11.5508
▁sensors	-11.5508
▁37	-11.5509
É	-11.5524
Nous	-11.5549
▁privilège	-11.5557
▁procedure	-11.5557
▁strict	-11.5557
▁license	-11.5557
▁penguin	-11.5557
▁sensitive	-11.5557
▁innovant	-11.5557
▁épaule	-11.5557
▁productivity	-11.5558
▁sunlight	-11.5559
▁émerge	-11.556
▁seuil	-11.556
▁amélioré	-11.5561
▁empire	-11.5562
▁Haiti	-11.5563
▁remis	-11.5565
▁repli	-11.5574
▁31	-11.558
▁professionnelle	-11.5599
level	-11.5599
▁récupér	-11.5604
acheter	-11.5606
▁émet	-11.5627
introduction	-11.5627
▁Pacific	-11.5627
▁Remember	-11.5627
▁déclenche	-11.5627
▁magnétique	-11.5627
▁significative	-11.5627
▁comprenez	-11.5627
▁knock	-11.5627
▁regulation	-11.5627
▁Voyons	-11.5627
▁cascade	-11.5627
▁paquet	-11.5627
▁Something	-11.5627
▁pretend	-11.5627
▁marqué	-11.5627
▁nowhere	-11.5627
▁external	-11.5628
▁menacé	-11.5628
▁birthday	-11.5628
▁économistes	-11.5629
▁Lagos	-11.563
▁procédure	-11.5631
▁customers	-11.5632
▁radicalement	-11.5635
asseoir	-11.5638
▁souri	-11.5646
90	-11.5653
▁mentionné	-11.5659
worth	-11.5665
▁rassemblé	-11.5672
▁corporation	-11.5698
▁emmener	-11.5698
▁Bronx	-11.5698
▁ambition	-11.5698
▁cluster	-11.5698
▁laboratory	-11.5698
▁horizontal	-11.5699
▁sondage	-11.5699
▁drill	-11.5699
▁rationnel	-11.57
▁reconnaissant	-11.5701
issez	-11.5702
called	-11.5703
▁germ	-11.5703
▁regime	-11.5705
phal	-11.5732
grand	-11.5737
▁tapis	-11.5749
▁industriel	-11.5753
▁hackers	-11.5762
Bretagne	-11.5768
immigration	-11.5768
▁Brooklyn	-11.5768
▁asteroid	-11.5768
▁espérons	-11.5768
▁frustration	-11.5768
▁intersection	-11.5768
▁pertinent	-11.5768
▁chapter	-11.5768
▁scholar	-11.5768
▁rabbi	-11.5769
▁carried	-11.5769
▁Moore	-11.5769
▁dispose	-11.5769
▁commission	-11.577
article	-11.577
▁météo	-11.5771
▁boucle	-11.5772
▁Trans	-11.5773
▁continuous	-11.5774
▁Ann	-11.5774
▁neural	-11.5775
▁Brian	-11.5775
▁automatiquement	-11.5778
▁elite	-11.5779
▁récent	-11.5782
stein	-11.579
oïde	-11.579
▁sentez	-11.5795
œuvre	-11.5807
▁géo	-11.581
▁assistant	-11.5816
▁Nouvelle	-11.584
▁dioxide	-11.584
▁emergency	-11.584
▁password	-11.584
▁trafic	-11.584
▁écouté	-11.584
▁diapo	-11.584
▁triangle	-11.584
▁Voyez	-11.5841
▁élu	-11.5849
▁vivaient	-11.5856
Z	-11.5879
infrastructure	-11.5879
▁cassé	-11.5882
▁Saint	-11.5887
affiche	-11.589
▁blame	-11.5892
▁Abou	-11.5902
▁authentic	-11.5905
raph	-11.5908
▁soirée	-11.5909
lving	-11.591
▁abstrait	-11.5912
▁circonstances	-11.5912
▁juridique	-11.5912
▁désastre	-11.5912
▁diffuse	-11.5912
▁Next	-11.5912
▁Blue	-11.5912
▁atterri	-11.5912
▁manifeste	-11.5912
▁Michel	-11.5915
▁coraux	-11.592
▁singing	-11.5923
▁2002	-11.5923
▁patron	-11.5925
▁propage	-11.5926
▁donnons	-11.5935
▁colonne	-11.5936
version	-11.5938
▁migration	-11.5945
exploration	-11.5951
▁Steven	-11.5954
book	-11.5958
▁recherch	-11.5958
culture	-11.596
laudi	-11.596
▁import	-11.5972
▁2016	-11.5984
▁japonais	-11.5984
▁mathématicien	-11.5984
▁protège	-11.5984
▁quelconque	-11.5984
▁neutral	-11.5984
▁survécu	-11.5984
▁terrestre	-11.5984
aéroport	-11.5984
▁voyant	-11.5985
▁lecteur	-11.5985
▁Finally	-11.5987
▁obscur	-11.5988
▁download	-11.5988
▁5,000	-11.5996
▁editor	-11.5999
conscious	-11.6024
product	-11.6025
▁calm	-11.6045
▁conventional	-11.6053
▁fréquent	-11.6057
astéroïde	-11.6057
▁Jupiter	-11.6057
▁Vraiment	-11.6057
▁chapitre	-11.6057
▁corporate	-11.6057
▁judgment	-11.6057
▁littérature	-11.6057
▁obsessed	-11.6057
▁philosophy	-11.6057
▁reconstruction	-11.6057
▁rejoint	-11.6057
▁parallel	-11.6057
▁résumé	-11.6057
▁dignité	-11.6057
▁travaillait	-11.6057
▁navire	-11.6058
▁suppos	-11.6058
▁bref	-11.6058
▁household	-11.6058
▁romantic	-11.6061
▁2030	-11.6063
▁conclude	-11.6065
human	-11.6067
▁tight	-11.6069
▁acteurs	-11.6071
▁développent	-11.6077
▁Russian	-11.608
▁dépensé	-11.6093
▁automatique	-11.6121
▁divorce	-11.6131
▁stupéfiant	-11.6131
▁telephone	-11.6131
▁échoué	-11.6131
▁allemand	-11.6131
▁Henry	-11.6131
▁humanitaire	-11.6131
▁bourse	-11.6131
▁prédateur	-11.6131
▁coincé	-11.6132
▁oreilles	-11.6132
▁soyons	-11.6133
▁partisan	-11.6134
▁constitution	-11.6137
▁papa	-11.6138
▁exhibition	-11.6142
élite	-11.6144
▁détecteur	-11.6153
▁Howard	-11.6156
▁Emma	-11.6159
Look	-11.6172
internet	-11.6174
▁robotique	-11.6181
▁spécialisé	-11.6193
▁déterminé	-11.6205
▁franchement	-11.6205
▁guarantee	-11.6205
▁immunitaire	-11.6205
▁poussière	-11.6205
▁recognition	-11.6205
▁trajectoire	-11.6205
▁tsunami	-11.6205
▁vibration	-11.6205
▁étrangère	-11.6205
▁dancing	-11.6205
▁Greek	-11.6205
▁grateful	-11.6205
▁flew	-11.6205
▁achète	-11.6205
▁densité	-11.6206
▁sweat	-11.6207
▁depth	-11.621
▁contrat	-11.6213
▁situé	-11.6215
▁conclu	-11.6227
intention	-11.6247
▁stereo	-11.6248
▁mandat	-11.6248
lose	-11.6254
▁ressembl	-11.6255
▁creature	-11.6266
▁créature	-11.6266
▁Grâce	-11.628
▁Revolution	-11.628
▁automatically	-11.628
▁communautaire	-11.628
▁satisfaction	-11.628
▁Nelson	-11.628
▁maternelle	-11.628
▁dignity	-11.628
▁neither	-11.628
▁raw	-11.628
▁careful	-11.6281
▁rêv	-11.6281
▁transmet	-11.6281
▁potentiellement	-11.6282
▁distributed	-11.6283
▁souffrent	-11.6287
▁190	-11.6297
▁favoris	-11.6315
▁magnetic	-11.632
inspiration	-11.6322
osphere	-11.6355
▁fasciné	-11.6355
▁struggling	-11.6355
▁vôtre	-11.6355
▁compound	-11.6355
▁couloir	-11.6355
▁vaisseaux	-11.6355
▁insurance	-11.6355
▁hardware	-11.6355
▁reserve	-11.6355
▁appuy	-11.6356
▁monument	-11.6356
▁pattes	-11.6357
▁cherchai	-11.6357
▁drove	-11.6357
▁lifestyle	-11.6358
▁intact	-11.6358
▁controlled	-11.6361
▁selection	-11.6362
▁ladies	-11.6362
▁diront	-11.6365
▁corail	-11.6365
▁émotionnel	-11.6374
▁lampe	-11.6383
écart	-11.6401
▁edit	-11.6404
▁cruel	-11.6414
▁diagram	-11.6424
_	-11.643
▁Mandela	-11.643
▁anxiety	-11.643
▁introduit	-11.643
▁mathematician	-11.643
▁protocol	-11.643
▁renforce	-11.643
▁élabor	-11.643
▁incorpor	-11.6431
▁Jordan	-11.6431
▁domestique	-11.6431
▁rituel	-11.6431
▁appeal	-11.6431
▁wireless	-11.6433
▁léger	-11.6434
▁precisely	-11.6438
▁boire	-11.6438
▁database	-11.6442
imagerie	-11.6444
▁déclaration	-11.6444
assemble	-11.6445
▁personality	-11.6445
▁pond	-11.6454
▁concepteur	-11.6475
entraînement	-11.6478
▁illustrate	-11.6488
▁taxi	-11.6494
▁banlieue	-11.6507
▁partenariat	-11.6507
▁territoire	-11.6507
▁procès	-11.6507
▁perçu	-11.6507
▁tropicale	-11.6507
▁appliquer	-11.6507
▁puissiez	-11.6508
▁Albert	-11.6509
▁indice	-11.6509
▁disposition	-11.6513
oxi	-11.6534
▁ensure	-11.6539
▁remet	-11.6546
▁cheat	-11.6558
▁zoo	-11.6576
aptitude	-11.6584
▁$1	-11.6584
▁Président	-11.6584
▁absurd	-11.6584
▁douzaine	-11.6584
▁identical	-11.6584
▁promotion	-11.6584
▁rhythm	-11.6584
▁tragédie	-11.6584
▁annoncé	-11.6584
▁Clinton	-11.6584
▁chauve	-11.6584
▁deviendra	-11.6584
▁envahi	-11.6584
▁General	-11.6584
▁autorisé	-11.6584
orchestre	-11.6585
▁audio	-11.6586
▁bureaux	-11.6597
▁March	-11.6601
▁Lorsqu	-11.6616
▁porn	-11.6622
informatique	-11.6628
animaux	-11.6628
▁herself	-11.6661
▁introvert	-11.6661
▁pingouin	-11.6661
▁prothèse	-11.6661
▁ridiculous	-11.6661
▁symétrie	-11.6661
▁synapse	-11.6661
▁column	-11.6661
▁enseigné	-11.6661
▁exclusive	-11.6661
▁shelter	-11.6661
▁navigu	-11.6661
▁raising	-11.6662
▁Berlin	-11.6663
▁expertise	-11.6663
▁dispute	-11.6664
▁bombard	-11.6665
▁bump	-11.6673
▁jeunesse	-11.6688
▁Free	-11.6695
▁gagnant	-11.6708
field	-11.6726
▁Stephen	-11.6739
▁consensus	-11.6739
▁explicit	-11.6739
▁identifié	-11.6739
▁scratch	-11.6739
▁borrow	-11.6739
▁dirty	-11.6739
▁suivent	-11.6739
▁comparaison	-11.6739
▁déplacé	-11.674
▁commis	-11.674
▁psychopath	-11.674
▁effectué	-11.6742
▁subtil	-11.6743
▁poète	-11.6744
▁expectations	-11.6746
▁thon	-11.6756
▁marginal	-11.6773
▁exécut	-11.6785
Pourquoi	-11.6785
related	-11.6786
interaction	-11.6787
étape	-11.6789
▁hallucin	-11.6812
applaudissements	-11.6818
▁Parkinson	-11.6818
▁centimètre	-11.6818
▁phenomena	-11.6818
▁réputation	-11.6818
▁isolated	-11.6818
▁ugly	-11.6818
▁explose	-11.6819
▁réfléchissez	-11.6819
▁soigner	-11.6819
▁attentes	-11.6819
▁estimation	-11.682
▁enemy	-11.682
▁weekend	-11.6826
▁blah	-11.6827
Ouest	-11.6835
▁tower	-11.6841
▁electron	-11.6854
▁barel	-11.6855
espérance	-11.6861
État	-11.6864
▁développ	-11.6873
▁doctorat	-11.689
▁dopamine	-11.6897
▁marathon	-11.6897
▁recruit	-11.6897
▁strike	-11.6897
▁transparency	-11.6897
▁disagree	-11.6898
▁modification	-11.6898
▁ethnic	-11.6898
▁federal	-11.6898
▁surmonter	-11.6898
▁connaissais	-11.6898
▁sustainability	-11.6898
▁optimistic	-11.6899
▁minister	-11.6901
▁gratuitement	-11.6902
▁hook	-11.6904
humour	-11.691
▁stack	-11.6912
▁collectif	-11.6912
▁gray	-11.6925
▁illustration	-11.6926
▁mérit	-11.6927
Afghanistan	-11.6944
expert	-11.6945
île	-11.6954
esclavage	-11.6978
▁Olympic	-11.6978
▁Shanghai	-11.6978
▁dictionnaire	-11.6978
▁dioxyde	-11.6978
▁enthousiaste	-11.6978
▁obsédé	-11.6978
▁plafond	-11.6978
▁vacances	-11.6978
▁éducatif	-11.6978
▁Watson	-11.6978
▁pixel	-11.6978
▁plenty	-11.6978
▁properly	-11.6978
▁enlevé	-11.6978
▁divisé	-11.6979
▁régl	-11.698
▁atomes	-11.6982
▁dormir	-11.6982
▁2020	-11.6983
▁urgent	-11.6985
▁rappelez	-11.6986
acier	-11.7003
construct	-11.7025
century	-11.7025
obscurité	-11.7055
free	-11.7056
▁CRISPR	-11.7058
▁Chinois	-11.7058
▁adventure	-11.7058
▁diminué	-11.7058
▁persuade	-11.7058
▁reconstruire	-11.7058
▁renewable	-11.7058
▁strategies	-11.7058
▁uncomfortable	-11.7058
▁PDG	-11.7058
▁enzyme	-11.7058
▁parachute	-11.7058
▁mondiaux	-11.7058
inquiéter	-11.7058
▁thumb	-11.7058
▁naît	-11.7058
▁Derek	-11.7058
▁adjust	-11.7059
aiguille	-11.7059
▁génère	-11.7059
▁Prize	-11.7063
▁contour	-11.7064
▁sonore	-11.7068
▁salt	-11.7079
allume	-11.7093
erreur	-11.7102
augmentation	-11.7106
▁resist	-11.7116
Institut	-11.7135
ignore	-11.7135
▁concurrence	-11.7139
▁Gandhi	-11.7139
▁relax	-11.714
▁activate	-11.714
▁flotte	-11.714
▁reflète	-11.714
▁rétro	-11.714
▁subtle	-11.7141
▁breed	-11.7142
▁hunger	-11.7142
▁prostate	-11.7142
▁décès	-11.7143
touch	-11.7143
▁passionnant	-11.7143
▁fusée	-11.7145
▁décharge	-11.7146
▁cub	-11.7147
▁darkness	-11.7147
▁ressource	-11.7154
sphère	-11.7188
▁Plan	-11.7192
appliqu	-11.7205
▁Nairobi	-11.7221
▁Pacifique	-11.7221
▁Seattle	-11.7221
▁bâton	-11.7221
▁crâne	-11.7221
▁exponential	-11.7221
▁influencé	-11.7221
▁principaux	-11.7221
▁album	-11.7221
▁blank	-11.7221
▁accueilli	-11.7221
▁ultime	-11.7221
Histoire	-11.7222
▁spark	-11.7222
▁backwards	-11.7222
▁shopping	-11.7223
Audio	-11.7223
▁universities	-11.7224
▁pompe	-11.7226
▁mettant	-11.7232
▁Camp	-11.7246
▁350	-11.726
observe	-11.7272
▁decrease	-11.7304
▁elsewhere	-11.7304
▁festival	-11.7304
▁hungry	-11.7304
▁tragedy	-11.7304
▁stroke	-11.7304
▁Basically	-11.7304
▁légale	-11.7304
▁footprint	-11.7305
▁pigeon	-11.7305
▁slavery	-11.7306
▁Daniel	-11.7306
▁Turn	-11.7309
ternal	-11.731
▁mindset	-11.7315
▁Kong	-11.7315
▁stéréo	-11.7343
accompagn	-11.7386
▁recueil	-11.7387
▁1999	-11.7387
▁acknowledge	-11.7387
▁embedded	-11.7387
▁pizza	-11.7387
▁rebuild	-11.7387
▁régulièrement	-11.7387
▁vieillissement	-11.7387
▁defense	-11.7387
▁circule	-11.7387
▁legacy	-11.7387
▁lunettes	-11.7387
▁sponsor	-11.7387
▁raisonnable	-11.7387
▁contempl	-11.7388
▁Syrie	-11.7388
▁sachant	-11.7388
▁aliments	-11.7388
▁spiral	-11.7388
▁clique	-11.7388
▁vingt	-11.7389
▁Media	-11.7389
▁soudainement	-11.7391
▁diagramme	-11.7395
▁missed	-11.7399
▁particle	-11.7416
frontal	-11.7424
Islam	-11.7439
▁rond	-11.7459
▁1998	-11.7471
▁August	-11.7471
▁Commençons	-11.7471
▁January	-11.7471
▁Joseph	-11.7471
▁diapositive	-11.7471
▁dégâts	-11.7471
▁démontré	-11.7471
▁earthquake	-11.7471
▁fascinated	-11.7471
▁fédéral	-11.7471
▁retenir	-11.7471
▁révèle	-11.7471
ONU	-11.7471
▁retiré	-11.7471
▁granted	-11.7472
▁cochon	-11.7472
▁segment	-11.7473
▁shake	-11.7476
▁proof	-11.7477
▁confortable	-11.7478
▁passenger	-11.7481
▁Coca	-11.7481
▁consequence	-11.7496
▁tourist	-11.7511
ground	-11.7518
apprécie	-11.7523
changing	-11.7523
souris	-11.7534
algré	-11.7548
▁Ethiopia	-11.7556
▁ONG	-11.7556
▁Republican	-11.7556
▁Shakespeare	-11.7556
▁Zimbabwe	-11.7556
▁chronique	-11.7556
▁configuration	-11.7556
▁inhabituel	-11.7556
▁peindre	-11.7556
▁poitrine	-11.7556
▁squelette	-11.7556
▁victoire	-11.7556
interprétation	-11.7556
▁Atlanta	-11.7556
▁soutenu	-11.7556
▁gamme	-11.7556
▁revue	-11.7556
▁jungle	-11.7556
▁policier	-11.7556
▁Girl	-11.7556
▁Sierra	-11.7557
▁qualifié	-11.7557
▁textile	-11.7558
▁opposition	-11.7559
▁sacred	-11.7559
▁coopération	-11.7559
▁humble	-11.7559
▁mesuré	-11.7563
▁confin	-11.7597
▁suffi	-11.7612
▁fulfill	-11.7642
adolescence	-11.7642
▁NGO	-11.7642
▁bathroom	-11.7642
▁forgotten	-11.7642
▁hybrid	-11.7642
▁modélis	-11.7642
▁récepteur	-11.7642
▁signifiait	-11.7642
▁traduit	-11.7642
▁ramène	-11.7642
▁étroite	-11.7642
▁reduction	-11.7642
▁measuring	-11.7642
▁parlais	-11.7642
▁depressed	-11.7643
▁microphone	-11.7643
alcool	-11.7643
▁pèse	-11.7644
▁mondialisation	-11.7644
▁Andrew	-11.7645
▁ramp	-11.7645
▁patch	-11.7658
▁méga	-11.768
▁rough	-11.7724
▁cooperation	-11.7728
▁féministe	-11.7728
▁magnitude	-11.7728
▁skeptic	-11.7728
▁skull	-11.7728
▁imprimé	-11.7728
▁glamour	-11.7728
▁précoce	-11.7728
▁remède	-11.7728
▁programmation	-11.7728
▁permettez	-11.7728
▁Tesla	-11.7729
▁enhance	-11.7729
▁intestin	-11.7729
▁Walk	-11.773
▁viable	-11.773
▁colline	-11.7731
▁clue	-11.7738
▁upset	-11.7739
▁animé	-11.774
dependent	-11.7741
▁fuite	-11.7751
▁maintien	-11.7776
Yeah	-11.7782
dessous	-11.7782
▁Medica	-11.7788
▁Berkeley	-11.7815
▁Kennedy	-11.7815
▁Lincoln	-11.7815
▁commerciaux	-11.7815
▁dedicated	-11.7815
▁eliminate	-11.7815
▁frequent	-11.7815
▁patience	-11.7815
▁permanence	-11.7815
▁vegetable	-11.7815
▁vouliez	-11.7815
▁disturb	-11.7815
▁refroidi	-11.7815
▁disgust	-11.7815
▁Banque	-11.7815
▁Gulf	-11.7815
▁boundaries	-11.7815
obésité	-11.7815
▁agency	-11.7815
▁éteint	-11.7815
▁tragic	-11.7816
▁Faites	-11.7816
▁paradis	-11.7817
▁governance	-11.7817
▁conseiller	-11.7819
▁déclar	-11.7846
▁détermine	-11.7876
Oui	-11.7877
▁immediate	-11.7892
temps	-11.7898
▁municipal	-11.7903
enthousiasme	-11.7903
incertitude	-11.7903
▁autonomous	-11.7903
▁ennuyeux	-11.7903
▁experiencing	-11.7903
▁inevitable	-11.7903
▁lucratif	-11.7903
▁recommence	-11.7903
▁piéton	-11.7903
athlète	-11.7903
▁sharp	-11.7903
▁pursue	-11.7903
▁motivé	-11.7903
escalier	-11.7903
▁underground	-11.7904
interromp	-11.7904
▁partnership	-11.7905
▁suppress	-11.7908
▁limitations	-11.7908
▁amongst	-11.791
▁addiction	-11.7911
▁sink	-11.7923
essayais	-11.7975
▁domain	-11.7978
▁addict	-11.7984
▁Alexander	-11.7991
▁Geographic	-11.7991
▁agricultural	-11.7991
▁diagnostiqué	-11.7991
▁heaven	-11.7991
▁inspiring	-11.7991
▁jazz	-11.7991
▁synthetic	-11.7991
▁financé	-11.7991
▁Delhi	-11.7991
▁voyais	-11.7991
▁monnaie	-11.7991
▁Nothing	-11.7991
enlève	-11.7991
▁civique	-11.7992
▁request	-11.7992
▁secours	-11.7992
invasive	-11.7993
incendie	-11.7993
▁spell	-11.7998
▁apparten	-11.8007
▁terror	-11.8028
Comment	-11.8047
▁souffre	-11.8073
▁Philip	-11.808
▁tangible	-11.808
▁simulate	-11.808
▁Ocean	-11.808
▁elected	-11.808
▁module	-11.808
▁yield	-11.808
▁titan	-11.8081
▁Children	-11.8081
▁repousse	-11.8081
▁publier	-11.8081
▁attraper	-11.8081
▁gesture	-11.8082
▁tribal	-11.8082
▁révolutionnaire	-11.8082
▁imaging	-11.8083
▁mangé	-11.8083
▁pathway	-11.8084
▁extraire	-11.8084
▁optimism	-11.8122
application	-11.8137
When	-11.8137
▁égale	-11.8161
investir	-11.8163
abeille	-11.817
▁exhaust	-11.817
▁Atlantic	-11.817
▁fluorescent	-11.817
▁iPod	-11.817
▁resilience	-11.817
▁significatif	-11.817
▁sincère	-11.817
▁smooth	-11.817
▁prouvé	-11.817
▁orchestra	-11.817
▁voyait	-11.817
▁dérange	-11.8171
▁terminal	-11.8171
▁density	-11.8171
▁glad	-11.8173
▁infant	-11.8174
▁flee	-11.8175
▁rival	-11.8176
ï	-11.8179
installe	-11.8181
aimais	-11.8199
▁faudra	-11.8257
alphabet	-11.8261
▁dégoût	-11.8261
▁evaluat	-11.8261
▁frozen	-11.8261
▁secrète	-11.8261
▁spectacular	-11.8261
▁supermarché	-11.8261
▁Arctic	-11.8261
▁athlete	-11.8261
▁curieuse	-11.8261
▁reputation	-11.8261
▁slogan	-11.8261
▁Cuba	-11.8261
▁agriculteurs	-11.8262
▁textbook	-11.8262
▁vallée	-11.8262
▁hostile	-11.8262
▁slice	-11.8263
▁Voice	-11.8264
▁nerf	-11.827
▁Jones	-11.827
▁tempête	-11.8273
urban	-11.8286
▁rencontr	-11.8308
dollar	-11.832
▁légère	-11.8343
▁immédiat	-11.8351
▁Taliban	-11.8353
▁bénévole	-11.8353
▁traduire	-11.8353
▁cherchons	-11.8353
▁explode	-11.8353
▁obesity	-11.8353
▁fought	-11.8353
▁Bruno	-11.8353
▁programming	-11.8353
▁mignon	-11.8354
▁tremblement	-11.8355
▁crew	-11.8356
▁remplace	-11.8378
▁socio	-11.8382
î	-11.8397
▁statistique	-11.841
IRM	-11.8411
▁Cinq	-11.842
instruction	-11.8445
procrastin	-11.8446
▁Gabby	-11.8446
▁Sweden	-11.8446
▁Through	-11.8446
▁cabinet	-11.8446
▁démographique	-11.8446
▁gouvernance	-11.8446
▁overwhelming	-11.8446
▁évoque	-11.8446
▁subvention	-11.8446
▁croyais	-11.8446
▁converge	-11.8446
▁tackle	-11.8446
▁infantile	-11.8446
▁identified	-11.8446
apparition	-11.8446
▁recours	-11.8446
▁replicate	-11.8446
▁varié	-11.8454
▁systematic	-11.8459
évaluer	-11.846
embauche	-11.8472
épidémie	-11.8506
▁urge	-11.8506
second	-11.8512
Antarctique	-11.8539
anxiété	-11.8539
▁Uganda	-11.8539
▁demonstration	-11.8539
▁diabetes	-11.8539
▁diabète	-11.8539
▁diffusion	-11.8539
▁flèche	-11.8539
▁genoux	-11.8539
▁légumes	-11.8539
▁messieurs	-11.8539
▁garbage	-11.8539
▁prescription	-11.8539
▁rainforest	-11.8539
▁traumatisme	-11.8539
▁recipe	-11.8539
▁worm	-11.8539
▁underlying	-11.854
▁connaissait	-11.854
▁Voix	-11.854
▁Egyptian	-11.8541
▁slave	-11.8542
▁signification	-11.8543
▁till	-11.8543
▁larmes	-11.8546
“	-11.8633
▁virgin	-11.8633
▁1994	-11.8633
▁Haïti	-11.8633
▁clavier	-11.8633
▁diagnosis	-11.8633
▁entraîné	-11.8633
▁gigantesque	-11.8633
▁Charlie	-11.8633
▁Revenons	-11.8633
▁demographic	-11.8633
▁sketch	-11.8633
▁diverge	-11.8633
▁lobby	-11.8633
▁injury	-11.8633
▁croyait	-11.8633
▁ethnique	-11.8634
▁freak	-11.8634
▁innovate	-11.8634
▁élever	-11.8634
▁convey	-11.8634
▁marry	-11.8634
▁kidney	-11.8636
▁Luther	-11.8636
▁capability	-11.8637
▁mimic	-11.8639
▁affair	-11.8687
public	-11.8696
normal	-11.8697
▁immobil	-11.8699
accroche	-11.8713
▁wipe	-11.8719
implication	-11.8728
á	-11.8729
í	-11.8729
▁Benjamin	-11.8729
▁cricket	-11.8729
▁démarrer	-11.8729
▁fantôme	-11.8729
▁gâteau	-11.8729
▁intrinsèque	-11.8729
▁pharmaceutique	-11.8729
▁Évidemment	-11.8729
▁précieuse	-11.8729
▁comédie	-11.8729
▁uncertainty	-11.8729
▁afterwards	-11.8729
▁enlever	-11.8729
▁œufs	-11.873
sufficient	-11.873
▁trail	-11.8737
▁comparison	-11.8738
hrew	-11.8738
▁restore	-11.8742
▁annuel	-11.8764
space	-11.8765
pending	-11.8768
accident	-11.8792
violent	-11.8792
ontrairement	-11.8801
▁Feynman	-11.8825
▁accelerate	-11.8825
▁chrétien	-11.8825
▁competitive	-11.8825
▁happier	-11.8825
▁improbable	-11.8825
▁percevoir	-11.8825
▁simplicité	-11.8825
▁vulnérabilité	-11.8825
intermédiaire	-11.8825
▁Department	-11.8825
▁feminist	-11.8825
▁serpent	-11.8825
▁fifth	-11.8825
▁Jewish	-11.8825
▁cosmos	-11.8825
▁acquire	-11.8825
▁parlaient	-11.8825
▁ingrédients	-11.8825
▁burst	-11.8825
efface	-11.8826
▁aborder	-11.8826
▁biomass	-11.8826
▁scandal	-11.8826
▁crayon	-11.8826
▁interdit	-11.8826
amitié	-11.884
▁crab	-11.8841
▁soumis	-11.8843
▁adéquat	-11.8866
actualité	-11.8878
illusion	-11.8889
occupe	-11.8897
▁pratiqu	-11.8906
optimis	-11.8907
▁Mountain	-11.8922
▁advocate	-11.8922
▁anonyme	-11.8922
▁choosing	-11.8922
▁dommage	-11.8922
▁grenouille	-11.8922
▁impatient	-11.8922
▁marijuana	-11.8922
▁piège	-11.8922
▁primordial	-11.8922
▁printemps	-11.8922
▁tragique	-11.8922
▁tribunal	-11.8922
▁orphan	-11.8922
▁resolve	-11.8922
▁travaillaient	-11.8922
▁relever	-11.8922
▁jouant	-11.8922
▁punch	-11.8923
▁bouill	-11.8931
emplacement	-11.8944
▁toxin	-11.8957
▁oppress	-11.8971
évaluation	-11.9007
▁protocell	-11.902
▁1995	-11.902
▁Michigan	-11.902
▁agencies	-11.902
▁breakthrough	-11.902
▁disconnect	-11.902
▁délicat	-11.902
▁frustrated	-11.902
▁furniture	-11.902
▁obtenons	-11.902
▁promouvoir	-11.902
▁satisfait	-11.902
▁skeleton	-11.902
▁téléphonique	-11.902
▁DVD	-11.902
▁northern	-11.902
▁sneak	-11.902
▁risqué	-11.902
▁concours	-11.902
intimité	-11.902
▁Church	-11.902
▁abordable	-11.902
▁copyright	-11.9021
▁Suède	-11.9021
▁embrass	-11.9021
▁naked	-11.9021
▁participe	-11.9022
▁begun	-11.9022
▁annual	-11.9022
▁Things	-11.9024
▁afro	-11.9024
▁allumé	-11.9033
▁substitut	-11.9037
▁loup	-11.9048
▁confort	-11.9111
architecte	-11.9112
▁Florida	-11.9119
▁October	-11.9119
▁advertising	-11.9119
▁cancéreuse	-11.9119
▁glucose	-11.9119
▁patrimoine	-11.9119
▁pesticide	-11.9119
▁séparation	-11.9119
▁terrifiant	-11.9119
▁thrive	-11.9119
▁voudrait	-11.9119
▁Être	-11.9119
expérimente	-11.9119
▁College	-11.9119
▁Jersey	-11.9119
▁soulève	-11.9119
▁Kevin	-11.9119
▁chief	-11.9119
▁smoking	-11.9119
▁stimulation	-11.9119
▁twist	-11.9119
affronter	-11.9119
▁buried	-11.9119
▁invitation	-11.9119
inflation	-11.9119
▁linguist	-11.912
▁inquiet	-11.912
▁gear	-11.912
▁theories	-11.9122
▁magnet	-11.9165
incroyable	-11.9186
▁trembl	-11.9217
improvisation	-11.9219
▁Tokyo	-11.9219
▁anonymous	-11.9219
▁biodiversité	-11.9219
▁primarily	-11.9219
▁prospérité	-11.9219
▁structural	-11.9219
▁Child	-11.9219
▁mysterious	-11.9219
▁probability	-11.9219
▁précieux	-11.9219
▁pioneer	-11.9219
▁chronic	-11.9219
▁intimate	-11.9219
▁reducing	-11.9219
▁minimal	-11.9221
▁spill	-11.9221
▁prendrai	-11.9227
ampleur	-11.9227
▁damn	-11.9229
▁retrouv	-11.9235
▁lobe	-11.9236
▁cuir	-11.9253
appuie	-11.9281
Where	-11.9287
▁Democrat	-11.932
▁Floride	-11.932
▁alcohol	-11.932
▁attentivement	-11.932
▁bidonville	-11.932
▁confusion	-11.932
▁contemporain	-11.932
▁coordination	-11.932
▁exponentielle	-11.932
▁internationaux	-11.932
▁séduisant	-11.932
▁Business	-11.932
▁résister	-11.932
▁Third	-11.932
▁licence	-11.932
▁kiss	-11.9321
▁shore	-11.9323
▁macro	-11.9327
utilisa	-11.9386
control	-11.9389
ennui	-11.9415
▁tranquille	-11.9422
▁cinquième	-11.9422
▁humanitarian	-11.9422
▁indigenous	-11.9422
▁mechanics	-11.9422
▁redéfini	-11.9422
enveloppe	-11.9422
▁Apollo	-11.9422
▁multinational	-11.9422
▁Journal	-11.9422
▁pâte	-11.9422
▁Stasi	-11.9422
▁bureaucrat	-11.9422
▁strand	-11.9422
▁racist	-11.9422
▁Hawk	-11.9423
▁creator	-11.9423
▁woke	-11.9423
▁épouse	-11.9425
▁romantique	-11.9427
▁intensif	-11.9429
▁frein	-11.943
▁cérébral	-11.9489
▁suburb	-11.949
efficient	-11.9492
▁prepare	-11.9503
▁intellectuel	-11.9516
▁millier	-11.9523
▁Obviously	-11.9525
▁grandchildren	-11.9525
▁improving	-11.9525
▁simplicity	-11.9525
▁souffrir	-11.9525
▁storytelling	-11.9525
▁terrifying	-11.9525
▁élégant	-11.9525
▁temporaire	-11.9525
▁purchase	-11.9525
▁Sarah	-11.9525
▁externe	-11.9525
▁préférence	-11.9525
▁imprimer	-11.9525
Ouganda	-11.9525
▁Quatre	-11.9525
▁Soviet	-11.9525
▁spectateur	-11.9525
▁marge	-11.9526
▁contaminat	-11.9527
▁axis	-11.9527
▁civic	-11.9527
▁deviner	-11.9527
▁dingue	-11.9528
▁alimente	-11.953
▁marée	-11.9535
▁autiste	-11.9537
invasion	-11.9537
▁artificiel	-11.9559
amener	-11.9596
essentiel	-11.9596
▁1984	-11.9629
▁aggressive	-11.9629
▁fondamentaux	-11.9629
▁janvier	-11.9629
▁judiciaire	-11.9629
▁remplacé	-11.9629
▁équipé	-11.9629
▁FDA	-11.9629
▁shrink	-11.9629
abondance	-11.9629
▁narration	-11.9629
▁hausse	-11.963
▁loving	-11.963
▁assuré	-11.963
établissement	-11.9632
▁expliqu	-11.9659
explorer	-11.9702
Okay	-11.9702
enfance	-11.9702
affect	-11.9702
▁congé	-11.9704
dimensionnel	-11.9718
▁Should	-11.9735
▁aesthetic	-11.9735
▁assemblé	-11.9735
▁burden	-11.9735
▁génocide	-11.9735
▁hectare	-11.9735
▁prosperity	-11.9735
▁Caroline	-11.9735
▁LGBT	-11.9735
▁broadcast	-11.9735
▁élargi	-11.9735
approxim	-11.9735
▁Victor	-11.9735
▁screw	-11.9735
▁trivial	-11.9735
▁tranche	-11.9735
▁fossé	-11.9735
▁orientation	-11.9735
▁inherit	-11.9735
▁plaisante	-11.9735
▁recouvr	-11.9736
▁aspire	-11.9743
onsidérons	-11.9789
arrivée	-11.9808
style	-11.982
œuf	-11.984
▁camarade	-11.9841
▁thrill	-11.9841
#	-11.9841
extrémité	-11.9841
▁anecdote	-11.9841
▁astonishing	-11.9841
▁capabilities	-11.9841
▁fluctu	-11.9841
▁genocide	-11.9841
▁mobility	-11.9841
▁stomach	-11.9841
▁wheelchair	-11.9841
▁Brother	-11.9841
▁corporel	-11.9841
▁Arthur	-11.9841
▁pôle	-11.9841
▁choqué	-11.9841
▁harness	-11.9841
▁personnalisé	-11.9841
▁Eastern	-11.9841
▁russe	-11.9841
Alaska	-11.9841
▁étendre	-11.9841
▁cliché	-11.9842
érien	-11.9884
▁clic	-11.9903
Alzheimer	-11.9915
Africa	-11.9915
school	-11.9916
habitat	-11.9921
plaçant	-11.9937
▁helicopter	-11.9948
▁millénaire	-11.9948
▁receptor	-11.9948
▁synthétique	-11.9948
▁sécheresse	-11.9948
▁Mesdames	-11.9948
▁biodiversity	-11.9948
▁composite	-11.9948
▁dilemme	-11.9948
▁frequency	-11.9948
▁participé	-11.9948
▁register	-11.9948
▁enterprise	-11.9948
▁militant	-11.9948
▁pénétr	-11.9948
▁whistle	-11.9948
▁attaqué	-11.9948
▁transistor	-11.9948
▁artisan	-11.9949
▁bancaire	-11.9949
▁ressens	-11.9949
▁lentille	-11.9949
▁drift	-11.9949
▁stimulant	-11.9949
▁trash	-11.9949
▁graisse	-11.9949
▁forgive	-11.995
▁maïs	-11.9951
▁dédié	-11.9951
▁découpe	-11.9954
inscri	-11.9966
▁merveille	-12.0055
Association	-12.0057
▁Afghan	-12.0057
▁McDonald	-12.0057
▁Monterey	-12.0057
▁abilities	-12.0057
▁divertissement	-12.0057
▁fracture	-12.0057
▁omniprésent	-12.0057
▁provoqué	-12.0057
▁symmetry	-12.0057
▁unbelievable	-12.0057
▁poignée	-12.0057
▁precious	-12.0057
▁chapeau	-12.0057
▁wander	-12.0057
▁crystal	-12.0057
▁juin	-12.0059
Empire	-12.006
approcha	-12.0064
▁Social	-12.0064
▁voile	-12.0066
astuce	-12.0124
harmonie	-12.0142
programmé	-12.0159
▁spontané	-12.0167
▁Hubble	-12.0167
▁Little	-12.0167
▁espérer	-12.0167
▁fabulous	-12.0167
▁gadget	-12.0167
▁géographique	-12.0167
▁mushroom	-12.0167
▁victor	-12.0167
hémisphère	-12.0167
▁expedition	-12.0167
▁proviennent	-12.0167
▁supernova	-12.0167
▁vacuum	-12.0167
▁Mozart	-12.0167
▁cherchant	-12.0167
▁shrimp	-12.0167
▁province	-12.0167
▁Numér	-12.0167
▁fumée	-12.0167
▁Donald	-12.0167
▁régénér	-12.0167
▁Open	-12.0167
▁Italian	-12.0167
▁discuté	-12.0167
▁qualities	-12.0167
intrigue	-12.0168
▁pulse	-12.0168
▁valve	-12.0168
▁certificat	-12.0169
▁couteau	-12.0176
▁incite	-12.0243
▁drought	-12.0278
▁Academy	-12.0278
▁Snowden	-12.0278
▁category	-12.0278
▁dilemma	-12.0278
▁imprimante	-12.0278
▁linéaire	-12.0278
▁pharmaceutical	-12.0278
▁proximité	-12.0278
▁simultaneously	-12.0278
▁sévère	-12.0278
▁traduction	-12.0278
▁excitement	-12.0278
▁LHC	-12.0278
▁translation	-12.0278
autonomie	-12.0278
▁basketball	-12.0278
▁Craig	-12.0278
▁vapeur	-12.0278
▁servant	-12.0279
▁vingtaine	-12.0279
▁chéri	-12.0285
▁hurl	-12.0308
▁stimule	-12.031
resistant	-12.032
looking	-12.0358
▁renvoy	-12.0373
▁distinguish	-12.0391
▁flottant	-12.0391
▁homosexuel	-12.0391
pprovisionnement	-12.0391
▁1996	-12.0391
▁Antarctica	-12.0391
▁altruist	-12.0391
▁authentique	-12.0391
▁ceinture	-12.0391
▁currency	-12.0391
▁episode	-12.0391
▁gratitude	-12.0391
▁maintenance	-12.0391
▁nutriments	-12.0391
▁réservé	-12.0391
▁sanitaire	-12.0391
▁silencieux	-12.0391
▁vulnerability	-12.0391
▁ecological	-12.0391
▁guitar	-12.0391
▁mobilis	-12.0391
▁repenser	-12.0391
▁favela	-12.0391
▁Dutch	-12.0391
▁prospère	-12.0391
▁adoré	-12.0391
▁cliff	-12.0391
▁pencil	-12.0391
▁atelier	-12.0391
amuser	-12.0413
implique	-12.0471
«	-12.0471
▁disparaît	-12.0478
▁precise	-12.0493
▁Seven	-12.0501
=	-12.0504
▁Although	-12.0504
▁Plutôt	-12.0504
▁SETI	-12.0504
▁blockchain	-12.0504
▁exposure	-12.0504
▁Kepler	-12.0504
▁Turkey	-12.0504
▁autrefois	-12.0504
▁whatsoever	-12.0504
▁Voila	-12.0504
▁pensiez	-12.0504
▁submit	-12.0505
▁Larry	-12.0505
▁enrichi	-12.0505
▁beetle	-12.0506
▁cloche	-12.0508
aussi	-12.0509
algorithme	-12.0525
Bruit	-12.0526
▁skate	-12.0528
Everest	-12.0551
▁agrandi	-12.0556
▁meditat	-12.0558
opinion	-12.0586
▁prépare	-12.0589
▁tuyau	-12.0593
Arizona	-12.0619
assembly	-12.0619
hélicoptère	-12.0619
▁Bitcoin	-12.0619
▁December	-12.0619
▁Spanish	-12.0619
▁cognitif	-12.0619
▁contemporary	-12.0619
▁dictionary	-12.0619
▁déménagé	-12.0619
▁executive	-12.0619
▁genuine	-12.0619
▁gradually	-12.0619
▁paralysé	-12.0619
▁sceptique	-12.0619
▁étonnamment	-12.0619
▁dispens	-12.0619
▁investisseurs	-12.0619
▁trouvais	-12.0619
▁algae	-12.0619
▁catalog	-12.0619
▁redesign	-12.0619
▁diamètre	-12.0619
▁microbial	-12.0619
▁fichier	-12.0619
▁béton	-12.0619
horloge	-12.0619
▁timing	-12.0619
▁Canyon	-12.0619
▁éditeur	-12.0619
▁inclut	-12.062
▁stunt	-12.062
▁royal	-12.0621
known	-12.0654
attache	-12.066
income	-12.0703
▁exhibit	-12.0717
ocracy	-12.0735
▁ambigu	-12.0735
▁équitable	-12.0735
éduquer	-12.0735
▁1997	-12.0735
▁Beijing	-12.0735
▁Christopher	-12.0735
▁Magazine	-12.0735
▁awkward	-12.0735
▁breakfast	-12.0735
▁bétail	-12.0735
▁categories	-12.0735
▁compelling	-12.0735
▁crevette	-12.0735
▁critères	-12.0735
▁dramatique	-12.0735
▁inquiétant	-12.0735
▁jihad	-12.0735
▁nutrients	-12.0735
▁rectangle	-12.0735
▁threshold	-12.0735
▁trottoir	-12.0735
▁unprecedented	-12.0735
▁brûlé	-12.0735
▁pilule	-12.0735
▁prenaient	-12.0735
▁tyran	-12.0735
▁seemingly	-12.0736
▁vierge	-12.0736
▁joindre	-12.0736
▁refuge	-12.0738
▁Susan	-12.0743
▁aggr	-12.0749
▁systématique	-12.0762
épargne	-12.0811
Audience	-12.082
viendront	-12.0843
indépendance	-12.0853
éteindre	-12.0853
▁Accord	-12.0853
▁County	-12.0853
▁Ensemble	-12.0853
▁Nigéria	-12.0853
▁Roosevelt	-12.0853
▁Turquie	-12.0853
▁bénéfique	-12.0853
▁chômage	-12.0853
▁déprimé	-12.0853
▁esclaves	-12.0853
▁frustré	-12.0853
▁hypothesis	-12.0853
▁improvise	-12.0853
▁navigation	-12.0853
▁nœud	-12.0853
▁prosthetic	-12.0853
▁voyagé	-12.0853
épreuve	-12.0853
▁étiquette	-12.0853
▁sèche	-12.0853
▁photographié	-12.0854
▁accéléré	-12.0855
▁bribe	-12.0855
unclear	-12.086
apporter	-12.0904
technology	-12.0939
write	-12.0951
assemblage	-12.0972
hypertension	-12.0972
▁Récemment	-12.0972
▁beneath	-12.0972
▁cocktail	-12.0972
▁cohérent	-12.0972
▁disparaissent	-12.0972
▁problématique	-12.0972
▁regulate	-12.0972
▁terrified	-12.0972
▁radar	-12.0972
▁Tibet	-12.0972
▁Liberia	-12.0972
▁valley	-12.0972
▁remix	-12.0972
▁bulb	-12.0972
▁Norman	-12.0972
▁officier	-12.0972
▁Parlons	-12.0973
▁audition	-12.0973
▁notamment	-12.0973
▁activé	-12.0973
▁isolation	-12.0973
▁dépose	-12.0973
embryon	-12.0989
▁épargn	-12.1014
▁Plat	-12.1015
extrême	-12.1059
infection	-12.106
▁veille	-12.1087
▁Elizabeth	-12.1093
▁February	-12.1093
▁YNH	-12.1093
▁bruyant	-12.1093
▁certitude	-12.1093
▁collège	-12.1093
▁crawl	-12.1093
▁curriculum	-12.1093
▁default	-12.1093
▁douloureux	-12.1093
▁débrouill	-12.1093
▁déforestation	-12.1093
▁enforcement	-12.1093
▁faculté	-12.1093
▁intensive	-12.1093
▁pharma	-12.1093
▁recouvert	-12.1093
▁residents	-12.1093
▁stratégique	-12.1093
▁striking	-12.1093
▁épisode	-12.1093
▁Hawaii	-12.1093
▁avatar	-12.1093
▁counsel	-12.1093
▁solitude	-12.1093
▁located	-12.1093
▁décédé	-12.1093
▁détenu	-12.1093
▁Venus	-12.1093
▁closing	-12.1093
▁hiding	-12.1093
▁IBM	-12.1093
▁pivot	-12.1093
▁agissent	-12.1093
▁tomato	-12.1094
▁rebond	-12.1094
▁arrach	-12.1095
generating	-12.1102
amplifie	-12.1166
horizon	-12.1181
ignorance	-12.1181
argument	-12.1182
generation	-12.1182
▁Italie	-12.1199
▁Jefferson	-12.1214
▁Rappelez	-12.1214
▁ambitious	-12.1214
▁attentif	-12.1214
▁djihad	-12.1214
▁démarré	-12.1214
▁morph	-12.1214
▁néglige	-12.1214
▁rembours	-12.1214
▁strategic	-12.1214
▁Friday	-12.1215
▁prudent	-12.1215
▁ramené	-12.1215
▁Cyrus	-12.1215
▁poubelle	-12.1215
▁assassin	-12.1215
▁aérienne	-12.1215
▁algues	-12.1215
▁snake	-12.1215
Arctique	-12.1215
▁admis	-12.1246
▁espéran	-12.1271
accomplir	-12.1304
augmenter	-12.1305
inconnu	-12.1305
▁sacrifi	-12.1331
▁1945	-12.1338
▁Indonesia	-12.1338
▁Monsieur	-12.1338
▁appartient	-12.1338
▁concrète	-12.1338
▁encouragé	-12.1338
▁encrypt	-12.1338
▁spontaneous	-12.1338
▁supermarket	-12.1338
▁thread	-12.1338
ométrique	-12.1338
▁Gaza	-12.1338
▁souligner	-12.1338
▁greffe	-12.1338
▁preference	-12.1338
▁Souvent	-12.1338
▁abandoned	-12.1338
▁singular	-12.1338
▁cheese	-12.1338
▁vitamin	-12.1339
▁gallon	-12.1339
écrase	-12.1339
excitation	-12.134
populat	-12.1359
utilité	-12.1373
adulte	-12.1432
▁Technology	-12.1463
▁endommagé	-12.1463
▁flourish	-12.1463
▁malnutrition	-12.1463
▁receiving	-12.1463
▁éventail	-12.1463
▁cosmic	-12.1463
▁revanche	-12.1463
▁tattoo	-12.1463
▁Columbia	-12.1463
▁Minister	-12.1463
▁détruis	-12.1463
▁intended	-12.1463
▁preparing	-12.1463
▁Machine	-12.1463
▁Diego	-12.1463
▁chamber	-12.1463
veillant	-12.1463
▁awake	-12.1464
▁grace	-12.1464
▁boost	-12.1464
▁Work	-12.1465
écologie	-12.1465
patriot	-12.1466
envoyai	-12.1535
▁virtue	-12.1578
▁Carolina	-12.159
▁Premier	-12.159
▁Sylvia	-12.159
▁accuracy	-12.159
▁deliberate	-12.159
▁décembre	-12.159
▁encouraging	-12.159
▁expérimental	-12.159
▁icône	-12.159
▁néanmoins	-12.159
▁pandemic	-12.159
▁pathogène	-12.159
▁résilience	-12.159
▁terrifié	-12.159
Himalaya	-12.159
▁indirect	-12.159
▁offshore	-12.159
▁reviennent	-12.159
▁Norway	-12.159
▁égard	-12.159
Atlantique	-12.159
▁accélérer	-12.159
▁compliment	-12.159
▁prairie	-12.159
▁Northern	-12.159
▁missile	-12.159
▁variant	-12.1593
▁Simple	-12.1593
observation	-12.1685
structure	-12.1685
▁hérit	-12.1689
▁Twenty	-12.1718
▁réfrigér	-12.1718
intègre	-12.1718
▁Joshua	-12.1718
▁Kansas	-12.1718
▁académique	-12.1718
▁chevaux	-12.1718
▁concurrent	-12.1718
▁exprimé	-12.1718
▁fatigué	-12.1718
▁hamburger	-12.1718
▁luxury	-12.1718
▁moustiquaire	-12.1718
▁pedestrian	-12.1718
▁reinforce	-12.1718
▁trajectory	-12.1718
▁ultraviolet	-12.1718
▁acoustic	-12.1718
▁geographic	-12.1718
▁Madison	-12.1718
▁monsieur	-12.1718
▁relâche	-12.1718
▁Dallas	-12.1718
▁veteran	-12.1718
▁harsh	-12.1718
▁galerie	-12.1718
▁voyaient	-12.1718
▁thermique	-12.1718
▁sapiens	-12.1718
▁Spain	-12.1718
▁retina	-12.1719
▁gratte	-12.1722
▁historic	-12.1764
▁recall	-12.1783
engineer	-12.1815
scientifique	-12.1815
social	-12.1815
▁éduqué	-12.1848
▁1991	-12.1848
▁Giussani	-12.1848
▁Service	-12.1848
▁System	-12.1848
▁eBay	-12.1848
▁identities	-12.1848
▁prévention	-12.1848
▁prévisible	-12.1848
▁réservoir	-12.1848
▁synthèse	-12.1848
▁temporary	-12.1848
▁terribly	-12.1848
▁trouvaient	-12.1848
▁Pouvons	-12.1848
▁activism	-12.1848
▁fractal	-12.1848
▁Linux	-12.1848
▁combler	-12.1848
▁solitaire	-12.1848
▁blend	-12.1848
▁methane	-12.1848
▁superficie	-12.1848
▁heritage	-12.1848
▁Jésus	-12.1848
▁backyard	-12.1848
éprouve	-12.1848
excellence	-12.1849
centimeter	-12.1849
▁marron	-12.1851
▁stimulate	-12.1853
▁margin	-12.1923
intéressant	-12.1946
encourage	-12.1946
keeper	-12.1947
▁débarrass	-12.1956
média	-12.1969
économiste	-12.1973
expérimentation	-12.1979
+	-12.1979
saharienne	-12.1979
▁Council	-12.1979
▁Narrator	-12.1979
▁Phoenix	-12.1979
▁Society	-12.1979
▁Souvenez	-12.1979
▁believing	-12.1979
▁célibataire	-12.1979
▁describing	-12.1979
▁disabilities	-12.1979
▁expectancy	-12.1979
▁mémoris	-12.1979
▁planétaire	-12.1979
▁prononcé	-12.1979
▁reproduce	-12.1979
▁rethink	-12.1979
▁straightforward	-12.1979
▁égoïste	-12.1979
▁enfermé	-12.1979
▁répète	-12.1979
▁variole	-12.1979
▁soccer	-12.1979
identification	-12.1979
▁Woman	-12.1979
▁complément	-12.1979
▁Désolé	-12.1979
▁Peace	-12.1979
▁indication	-12.1979
▁déploie	-12.1979
interpréter	-12.1979
▁parvenu	-12.1979
▁articulat	-12.198
▁surprend	-12.198
▁loose	-12.1981
▁compétence	-12.2066
▁teenage	-12.2083
▁Angel	-12.2107
▁corrupt	-12.2109
▁soupçon	-12.2113
Espagne	-12.2113
▁Carnegie	-12.2113
▁Kosovo	-12.2113
▁Organization	-12.2113
▁Tanzania	-12.2113
▁clarity	-12.2113
▁deforestation	-12.2113
▁devastating	-12.2113
▁emmène	-12.2113
▁emphasize	-12.2113
▁implicit	-12.2113
▁locomotion	-12.2113
▁logistique	-12.2113
▁méthane	-12.2113
▁paralyzed	-12.2113
▁pregnancy	-12.2113
▁territory	-12.2113
▁yourselves	-12.2113
▁April	-12.2113
▁smallpox	-12.2113
humiliation	-12.2113
▁Soudain	-12.2113
▁Suisse	-12.2113
▁Mumbai	-12.2113
▁sulfur	-12.2113
▁workforce	-12.2113
▁pursuit	-12.2113
▁declare	-12.2113
▁gardien	-12.2114
▁complét	-12.2119
▁siffle	-12.2124
introduire	-12.22
entraîne	-12.2206
explosion	-12.2215
hypothèse	-12.2215
communication	-12.2215
Thank	-12.2215
appartenance	-12.2224
▁différenci	-12.2248
▁délibéré	-12.2248
▁inconscient	-12.2248
▁souterrain	-12.2248
Qaeda	-12.2248
▁Actuellement	-12.2248
▁Canadian	-12.2248
▁Professor	-12.2248
▁Telescope	-12.2248
▁brièvement	-12.2248
▁chèvre	-12.2248
▁céréales	-12.2248
▁douloureuse	-12.2248
▁elegant	-12.2248
▁familière	-12.2248
▁mutuellement	-12.2248
▁plomb	-12.2248
▁rupture	-12.2248
▁réconfort	-12.2248
▁satisfaire	-12.2248
▁tuberculose	-12.2248
▁Alpha	-12.2248
▁Malawi	-12.2248
▁theoretical	-12.2248
▁diameter	-12.2248
▁pompier	-12.2248
▁réclam	-12.2248
▁flavor	-12.2248
▁Saudi	-12.2248
▁apparait	-12.2248
intensité	-12.2248
▁retenu	-12.2248
▁warrior	-12.2248
▁inhibit	-12.2248
apercev	-12.2269
▁deposit	-12.2354
alysis	-12.2372
▁approfondi	-12.2385
▁swallow	-12.2385
▁Connecticut	-12.2385
▁Eventually	-12.2385
▁Fondation	-12.2385
▁Industrial	-12.2385
▁Starbucks	-12.2385
▁TEDTalk	-12.2385
▁Together	-12.2385
▁corriger	-12.2385
▁corrélation	-12.2385
▁explosé	-12.2385
▁impressive	-12.2385
▁knife	-12.2385
▁legitimate	-12.2385
▁légitime	-12.2385
▁millennia	-12.2385
▁mosquée	-12.2385
▁mélodie	-12.2385
▁oxytocin	-12.2385
▁perpétue	-12.2385
▁raccourci	-12.2385
▁recyclage	-12.2385
▁schedule	-12.2385
▁compatible	-12.2385
▁execute	-12.2385
▁fassiez	-12.2385
ambassade	-12.2385
▁History	-12.2385
▁cocaine	-12.2385
▁traîne	-12.2385
Indonésie	-12.2385
▁marvel	-12.2385
▁antenna	-12.2385
▁Constitution	-12.2385
▁Dylan	-12.2385
▁anatomy	-12.2385
▁valoris	-12.2385
▁Droit	-12.2385
▁accompagné	-12.2386
horreur	-12.2389
estomac	-12.2401
exploit	-12.2486
quality	-12.2489
intervention	-12.2491
effective	-12.2491
world	-12.2491
▁simultané	-12.2524
accélère	-12.2524
auditorium	-12.2524
ocytocine	-12.2524
▁1989	-12.2524
▁Except	-12.2524
▁Norvège	-12.2524
▁Pittsburgh	-12.2524
▁Suddenly	-12.2524
▁frightening	-12.2524
▁février	-12.2524
▁iPad	-12.2524
▁precision	-12.2524
▁recognizing	-12.2524
▁recycling	-12.2524
▁réplique	-12.2524
▁assault	-12.2524
▁communicating	-12.2524
▁imaginaire	-12.2524
▁influent	-12.2524
▁préparation	-12.2524
▁éternelle	-12.2524
▁cosmique	-12.2524
▁ideology	-12.2524
▁communiquent	-12.2524
▁Presque	-12.2524
▁marchandise	-12.2524
▁plancton	-12.2524
▁spécul	-12.2524
▁croyant	-12.2524
anatomie	-12.2524
Nazi	-12.2583
oeuvre	-12.2631
intégration	-12.2635
▁Cambodia	-12.2664
▁Hospital	-12.2664
▁Renaissance	-12.2664
▁cauchemar	-12.2664
▁fidèle	-12.2664
▁matrix	-12.2664
▁pandémie	-12.2664
▁pantalon	-12.2664
▁pathogen	-12.2664
▁rhino	-12.2664
▁sensibilité	-12.2664
▁substantial	-12.2664
▁tactile	-12.2664
ü	-12.2664
▁1975	-12.2664
▁Building	-12.2664
▁advertise	-12.2664
▁Chuck	-12.2664
▁Seulement	-12.2664
▁sauvetage	-12.2664
▁méduse	-12.2664
▁earliest	-12.2664
▁interior	-12.2664
qualifi	-12.2704
incitation	-12.2739
humeur	-12.276
nçaient	-12.2762
▁produir	-12.2762
expansion	-12.2774
Amazon	-12.2774
▁folk	-12.2781
▁numér	-12.2785
▁Palestinian	-12.2807
▁effondré	-12.2807
▁technicien	-12.2807
orphelinat	-12.2807
ó	-12.2807
▁Development	-12.2807
▁Jonathan	-12.2807
▁Netflix	-12.2807
▁Observ	-12.2807
▁Portugal	-12.2807
▁Saturday	-12.2807
▁Stewart	-12.2807
▁Vancouver	-12.2807
ö	-12.4361
Ê	-12.5238
Ç	-12.6613
ù	-12.7258
—	-12.8681
@	-12.9247
%	-12.9778
‘	-12.9811
^	-13.1721
Î	-13.2833
[	-13.4982
ā	-13.5515
ø	-13.6597
€	-13.7185
£	-14.0794
ä	-14.0794
æ	-14.1703
È	-14.1703
ú	-14.2703
Ô	-14.6493
ì	-14.6493
ī	-14.6493
ō	-14.8159
Á	-14.8159
ȇ	-15.0159
♪	-15.2627
♫	-15.2627
»	-15.2627
	-15.2659
ć	-15.2659
	-15.5993
Ï	-15.5993
š	-15.5993
α	-15.5993
̀	-16.0993
ọ	-16.0993
Č	-16.0993
Ō	-16.0993
©	-16.0993
­	-16.0993
Ė	-16.0993
ū	-16.0993
κ	-16.0993
τ	-16.0993
•	-16.0993
你	-16.0993
葱	-16.0993
送	-16.0993
ẹ	-17.0959
्	-17.096
े	-17.0961
र	-17.0962
’	-17.0962
म	-17.0963
प	-17.0964
χ	-17.0965
υ	-17.0966
ě	-17.0967
ð	-17.0968
Å	-17.0969
¥	-17.097
¡	-17.0971
~	-17.0972
่	-17.0973
ร	-17.0974
ย	-17.0975
Ö	-17.0976
Œ	-17.0977
ʾ	-17.0978
®	-17.0979
อ	-17.098
⁄	-17.0981
̈	-17.0982
Â	-17.0983
*	-17.0984
ñ	-17.0985
ã	-17.0986
”	-17.0987
°	-17.0988
ë	-17.0989
$	-17.099
–	-17.0991
/	-17.0992
{	-17.0993
ט	-17.0993
|	-17.0993
	-17.0993
	-17.0993
	-17.0993
Ì	-17.0993
Ü	-17.0993
å	-17.0993
Ă	-17.0993
ň	-17.0993
ś	-17.0993
Ť	-17.0993
̊	-17.0993
̐	-17.0993
Ε	-17.0993
ε	-17.0993
η	-17.0993
ι	-17.0993
λ	-17.0993
μ	-17.0993
ν	-17.0993
ρ	-17.0993
ω	-17.0993
¢	-17.0993
¿	-17.0993
ò	-17.0993
(	-17.0993
σ	-17.0993
