<s>	0
<pad>	0
</s>	0
<unk>	0
,	-2.93644
.	-3.17212
s	-3.71521
▁the	-4.12953
▁in	-4.48855
▁to	-4.57488
'	-4.6169
▁of	-4.6616
▁a	-4.66458
▁die	-4.71084
en	-4.73587
▁and	-4.75584
▁und	-4.84088
e	-4.89312
t	-4.92703
▁that	-4.93152
▁I	-4.94631
n	-5.06731
▁der	-5.16298
▁is	-5.26378
▁ist	-5.28055
▁you	-5.29432
▁it	-5.32474
▁zu	-5.34333
▁we	-5.36561
▁das	-5.36806
▁ich	-5.51341
▁wir	-5.51588
▁was	-5.58094
-	-5.58923
▁	-5.59981
er	-5.61973
▁es	-5.6225
▁And	-5.67771
▁"	-5.69835
▁ein	-5.70556
▁this	-5.71664
▁Sie	-5.73332
?	-5.74033
▁an	-5.7639
▁sie	-5.78261
:	-5.80199
▁nicht	-5.82992
d	-5.83395
m	-5.83896
▁—	-5.85091
▁von	-5.86954
▁eine	-5.89511
▁so	-5.89858
▁dass	-5.91605
ing	-5.91884
▁be	-5.93074
re	-5.95955
▁den	-5.99641
▁for	-6.00244
r	-6.01959
▁mit	-6.05031
▁auf	-6.06299
ed	-6.08282
▁Und	-6.08592
▁are	-6.0925
)	-6.10834
▁have	-6.11772
▁(	-6.13201
▁on	-6.165
▁they	-6.1715
▁So	-6.17751
▁with	-6.21692
▁Ich	-6.2275
▁wie	-6.25418
▁sich	-6.25944
▁can	-6.27052
▁sind	-6.30704
▁für	-6.35013
▁what	-6.35782
▁all	-6.36007
▁about	-6.37253
▁haben	-6.38655
▁war	-6.39146
▁man	-6.40599
▁um	-6.48385
▁not	-6.48939
y	-6.4974
▁do	-6.5086
▁at	-6.51495
▁als	-6.52596
▁Das	-6.56384
▁as	-6.58859
▁im	-6.60142
▁my	-6.60184
es	-6.61652
▁Es	-6.62331
▁er	-6.63284
▁people	-6.63597
▁diese	-6.63865
▁aus	-6.64348
▁like	-6.64382
▁there	-6.64413
▁one	-6.64922
▁dem	-6.65808
▁Wir	-6.65997
▁from	-6.69342
▁It	-6.7065
▁uns	-6.72583
ly	-6.74625
▁über	-6.75582
▁me	-6.75795
▁but	-6.76599
▁our	-6.76722
▁wenn	-6.76876
▁also	-6.77963
▁We	-6.78539
▁or	-6.79024
al	-6.82635
▁just	-6.83147
▁einen	-6.83314
ve	-6.83436
▁können	-6.8591
▁oder	-6.86058
l	-6.86759
▁out	-6.87132
▁werden	-6.87242
▁But	-6.88022
st	-6.90492
▁if	-6.91066
▁The	-6.91086
▁these	-6.914
▁hat	-6.9203
▁know	-6.92635
▁des	-6.92788
▁up	-6.93396
in	-6.9375
▁he	-6.93912
▁very	-6.95329
▁aber	-6.96858
▁by	-6.96862
te	-6.97275
▁auch	-6.98443
▁when	-6.99743
▁Die	-7.00139
▁them	-7.00593
."	-7.01122
g	-7.01243
▁going	-7.01547
▁kann	-7.01926
▁einer	-7.02056
▁had	-7.0217
c	-7.02229
b	-7.0226
▁more	-7.03228
▁Aber	-7.03234
▁because	-7.03602
▁In	-7.03697
▁einem	-7.05183
▁see	-7.05206
▁nur	-7.05582
▁who	-7.07173
▁think	-7.0769
▁Menschen	-7.08571
f	-7.09729
ll	-7.0987
"	-7.10735
u	-7.1078
▁their	-7.10813
▁wird	-7.1149
▁were	-7.11791
k	-7.12037
▁sehr	-7.1229
▁mich	-7.12365
▁your	-7.12709
▁will	-7.13101
▁would	-7.15076
▁which	-7.15314
▁us	-7.15419
▁how	-7.15493
ä	-7.15601
▁hier	-7.16447
▁really	-7.16556
▁get	-7.16867
▁vor	-7.18892
▁sein	-7.19983
▁gibt	-7.2093
▁time	-7.21363
▁ver	-7.22192
▁nach	-7.23828
▁has	-7.25333
▁dann	-7.26315
▁world	-7.26976
o	-7.28272
▁etwas	-7.29296
an	-7.2937
▁ge	-7.29471
▁–	-7.30187
▁here	-7.30411
ten	-7.31189
▁noch	-7.31368
Laughter	-7.31985
▁This	-7.32429
p	-7.33508
ung	-7.3362
▁mir	-7.33656
▁into	-7.34234
▁some	-7.34508
▁don	-7.34918
▁way	-7.35224
▁Welt	-7.35592
▁Er	-7.3647
▁You	-7.36642
le	-7.36714
▁habe	-7.3679
▁sehen	-7.37303
▁go	-7.39333
▁bei	-7.39353
▁actually	-7.39632
▁want	-7.39881
▁dieser	-7.40105
▁where	-7.40121
▁A	-7.4019
▁mehr	-7.40524
▁years	-7.41538
▁other	-7.41658
z	-7.4221
▁things	-7.43172
▁now	-7.44602
▁could	-7.45322
▁Wenn	-7.45502
▁durch	-7.46223
▁s	-7.46266
ge	-7.46305
;	-7.46412
▁Now	-7.47444
h	-7.47535
il	-7.47583
▁then	-7.47697
▁make	-7.47748
▁alle	-7.48017
w	-7.49019
▁They	-7.50564
▁S	-7.51465
▁been	-7.52067
▁am	-7.52285
▁wurde	-7.54594
ü	-7.55253
▁no	-7.55556
ur	-7.57571
▁re	-7.58201
▁right	-7.58425
▁said	-7.58468
it	-7.60118
▁meine	-7.60496
ro	-7.60625
▁something	-7.60878
S	-7.61099
▁Ihnen	-7.61281
▁over	-7.61421
a	-7.61444
▁than	-7.62594
▁E	-7.62698
be	-7.62792
sch	-7.63556
▁two	-7.63609
▁immer	-7.63977
▁Zeit	-7.64119
▁machen	-7.65142
de	-7.65349
▁zum	-7.65455
▁those	-7.65611
▁first	-7.65647
▁wirklich	-7.65701
▁much	-7.65707
▁wo	-7.65833
▁unsere	-7.66476
▁Be	-7.68278
▁weil	-7.68794
▁He	-7.6883
▁back	-7.69079
▁viel	-7.69401
▁tun	-7.69786
▁thing	-7.7002
▁da	-7.70115
ig	-7.70198
▁work	-7.71249
▁little	-7.72104
▁look	-7.72575
▁her	-7.72584
▁hatte	-7.72872
ar	-7.73561
i	-7.73693
▁got	-7.74184
▁she	-7.74563
▁say	-7.75234
or	-7.75469
▁keine	-7.75779
▁ihre	-7.7666
▁life	-7.77227
ter	-7.77448
ch	-7.77502
▁need	-7.77758
ic	-7.77872
▁Also	-7.77913
▁even	-7.78129
th	-7.78428
ation	-7.78523
▁his	-7.79748
▁That	-7.80046
▁only	-7.80221
▁most	-7.81027
▁viele	-7.81842
et	-7.81882
▁Ein	-7.82109
▁zwei	-7.82266
▁Leben	-7.82399
ra	-7.82915
▁Leute	-7.8343
▁müssen	-7.83852
▁B	-7.84315
▁take	-7.84491
▁einfach	-7.84498
ul	-7.84979
A	-7.85277
▁bin	-7.8545
li	-7.8596
ie	-7.86168
▁many	-7.8662
ieren	-7.86647
▁kind	-7.8672
▁un	-7.86744
▁lot	-7.87027
den	-7.87359
us	-7.87699
▁du	-7.87775
▁Was	-7.87897
▁wissen	-7.87977
▁new	-7.8817
▁andere	-7.8854
▁Dinge	-7.88628
▁dieses	-7.8928
el	-7.89872
▁sagte	-7.90185
ri	-7.90442
ern	-7.90649
▁diesem	-7.91073
▁waren	-7.91091
▁did	-7.91885
▁sagen	-7.91965
▁Jahren	-7.92813
▁ab	-7.92922
▁good	-7.93183
▁around	-7.93651
▁C	-7.93653
▁What	-7.93775
ö	-7.94554
▁different	-7.95001
▁Art	-7.95225
▁diesen	-7.95917
▁ihr	-7.96665
▁There	-7.96682
Lachen	-7.96891
▁down	-7.97184
▁T	-7.9788
▁würde	-7.98348
▁anderen	-7.98514
ion	-7.98604
▁-	-7.9887
▁An	-8.00447
▁jetzt	-8.00637
▁being	-8.00813
▁K	-8.00823
me	-8.00848
?"	-8.00945
▁through	-8.01567
▁selbst	-8.0161
▁Jahre	-8.01768
ver	-8.02444
▁every	-8.02551
▁come	-8.02877
▁use	-8.03823
▁same	-8.0389
▁zur	-8.04666
I	-8.05621
ne	-8.06036
Gelächter	-8.06313
▁Der	-8.0657
▁bis	-8.07306
▁Man	-8.07728
▁de	-8.07923
on	-8.0795
▁alles	-8.08335
▁damit	-8.08348
▁day	-8.09129
at	-8.09158
Applause	-8.09731
ers	-8.09788
▁Da	-8.10494
▁ob	-8.10985
▁wieder	-8.11011
▁muss	-8.11018
▁geht	-8.11037
▁c	-8.11062
▁10	-8.11124
▁put	-8.11176
▁mein	-8.1174
der	-8.12242
▁Wie	-8.12343
▁gut	-8.1342
la	-8.13593
!	-8.139
▁doing	-8.14229
gen	-8.14376
▁three	-8.14684
▁k	-8.14723
▁♫	-8.15296
▁unter	-8.16018
▁20	-8.16666
ist	-8.17443
▁Ver	-8.17694
▁eines	-8.17877
ut	-8.18327
ste	-8.18475
▁Sch	-8.18751
▁If	-8.19045
▁Well	-8.19341
zu	-8.19359
is	-8.19437
▁zurück	-8.19573
ce	-8.19704
ment	-8.2004
ive	-8.20357
▁seine	-8.20416
▁human	-8.20546
▁Kinder	-8.20867
Applaus	-8.20878
B	-8.21203
▁schon	-8.21273
▁called	-8.21707
▁pro	-8.21828
▁Diese	-8.22111
▁well	-8.22182
▁percent	-8.22729
▁any	-8.22732
▁find	-8.23377
ol	-8.23377
▁made	-8.24094
iert	-8.2412
▁möchte	-8.24173
to	-8.24525
M	-8.24704
▁tell	-8.24707
▁own	-8.2481
▁fact	-8.25322
▁ihnen	-8.25425
▁R	-8.25613
▁vielleicht	-8.2633
▁denn	-8.26686
ma	-8.26813
ir	-8.2683
em	-8.27186
ity	-8.27226
▁M	-8.28219
im	-8.28304
ta	-8.28378
▁should	-8.28438
▁drei	-8.2891
sten	-8.28974
▁year	-8.29223
▁why	-8.29376
▁change	-8.29504
▁weiter	-8.29583
▁Re	-8.30136
um	-8.30417
▁idea	-8.30801
▁Vor	-8.31004
▁talk	-8.31153
D	-8.31474
able	-8.3151
▁zusammen	-8.32096
▁let	-8.32196
▁didn	-8.32428
▁thought	-8.33074
▁part	-8.33149
▁davon	-8.33175
v	-8.33264
▁great	-8.33352
ant	-8.33366
▁hatten	-8.33446
▁einige	-8.33573
▁ganz	-8.33663
▁genau	-8.33795
▁real	-8.34016
C	-8.34337
▁heute	-8.35222
▁after	-8.3533
▁Geschichte	-8.3544
▁today	-8.35511
▁end	-8.35512
▁sch	-8.35783
▁Jahr	-8.36093
T	-8.36213
▁started	-8.36345
▁st	-8.3651
▁start	-8.36524
mp	-8.37002
▁ihn	-8.37013
P	-8.37675
▁Ge	-8.38022
▁meiner	-8.38076
lich	-8.38534
▁last	-8.38603
▁könnte	-8.38617
as	-8.38763
▁St	-8.38775
▁Hier	-8.39103
▁Problem	-8.3926
,"	-8.39788
▁P	-8.39957
ru	-8.40259
▁give	-8.40372
▁still	-8.40451
▁never	-8.40868
▁might	-8.40977
▁before	-8.4105
▁gab	-8.41125
▁problem	-8.41565
▁weiß	-8.42173
ck	-8.42198
▁wollen	-8.42381
▁went	-8.42403
▁dort	-8.42427
tra	-8.42482
▁Thank	-8.42581
▁better	-8.42652
▁Ihre	-8.42657
▁sondern	-8.42879
id	-8.43174
ach	-8.43596
▁big	-8.43601
▁Nun	-8.43872
▁Arbeit	-8.44044
▁able	-8.44066
▁important	-8.44076
▁t	-8.44282
▁F	-8.44294
▁bit	-8.44449
▁Als	-8.44457
▁wurden	-8.44896
▁Aus	-8.44962
▁off	-8.45055
▁darüber	-8.4522
▁system	-8.45502
K	-8.45562
he	-8.46134
▁L	-8.4632
▁course	-8.46441
▁gehen	-8.46447
▁paar	-8.46535
▁unserer	-8.46653
lt	-8.46744
▁place	-8.46993
ungen	-8.47102
▁another	-8.47402
▁werde	-8.47557
▁nun	-8.47728
▁D	-8.4796
und	-8.48048
▁brain	-8.48154
▁few	-8.48233
▁long	-8.48606
▁together	-8.48657
▁show	-8.49139
▁came	-8.49456
▁Teil	-8.49756
▁neue	-8.50139
chen	-8.50201
▁wäre	-8.50488
▁Beispiel	-8.5063
▁story	-8.50678
▁water	-8.51296
▁19	-8.51508
▁tatsächlich	-8.51508
ein	-8.51528
est	-8.51532
▁him	-8.51648
▁hin	-8.51808
2	-8.51931
▁Le	-8.52139
▁ago	-8.52158
▁'	-8.52528
▁love	-8.52584
am	-8.52617
▁call	-8.52655
▁Z	-8.52682
ische	-8.52798
▁next	-8.52901
ad	-8.52914
▁New	-8.52967
▁found	-8.53018
igen	-8.53216
▁When	-8.53378
ab	-8.53839
▁each	-8.5455
mo	-8.54967
ze	-8.55277
▁Mal	-8.55532
▁Wasser	-8.55855
▁sogar	-8.56129
▁kein	-8.56223
▁does	-8.56238
▁feel	-8.56284
▁vom	-8.56362
▁Ab	-8.56392
▁U	-8.5647
▁live	-8.56572
▁mean	-8.5677
▁point	-8.56781
▁Tag	-8.56862
na	-8.57008
▁help	-8.57015
age	-8.57248
ia	-8.57379
▁again	-8.57484
▁dazu	-8.5762
▁denken	-8.57664
hr	-8.57711
▁con	-8.57784
▁question	-8.5805
▁finden	-8.58361
▁too	-8.58383
▁kommen	-8.58462
▁Frauen	-8.58729
her	-8.59416
ber	-8.59501
x	-8.59626
▁leben	-8.5981
ate	-8.59851
▁used	-8.59925
▁Land	-8.60197
▁denke	-8.60449
▁between	-8.60815
R	-8.61142
▁nie	-8.61557
▁Frage	-8.61559
▁women	-8.61698
▁macht	-8.61719
▁Dies	-8.61989
▁ohne	-8.62025
ine	-8.62303
▁G	-8.62399
ner	-8.62647
▁zwischen	-8.62665
▁gerade	-8.62767
▁30	-8.62814
▁Auf	-8.62868
▁design	-8.62953
ien	-8.62976
▁example	-8.62994
▁einmal	-8.63137
dem	-8.63155
▁Ha	-8.63199
▁heraus	-8.63406
▁technology	-8.63472
di	-8.63855
▁unser	-8.63955
▁Mo	-8.64031
▁mal	-8.64087
E	-8.641
▁home	-8.64104
▁erste	-8.64596
▁ent	-8.6467
▁konnte	-8.64791
▁understand	-8.6522
tion	-8.65367
ischen	-8.65397
▁For	-8.65558
▁50	-8.65701
▁ja	-8.65773
ry	-8.65828
▁geben	-8.65848
ster	-8.66032
▁Sp	-8.66064
ft	-8.66081
▁data	-8.66366
ben	-8.66384
▁Gehirn	-8.66672
▁gemacht	-8.66918
▁looking	-8.67388
▁g	-8.67768
▁Internet	-8.67819
iv	-8.68188
ling	-8.68256
▁jeder	-8.68268
▁p	-8.68509
▁co	-8.68548
G	-8.68647
mal	-8.68843
▁würden	-8.68849
▁kommt	-8.69077
men	-8.69085
▁W	-8.69093
▁glaube	-8.69174
▁ihren	-8.69203
un	-8.69299
▁wanted	-8.69344
ag	-8.69398
▁zeigen	-8.69704
▁d	-8.69777
▁N	-8.69878
▁doesn	-8.70046
L	-8.70059
▁100	-8.70072
▁car	-8.70131
au	-8.70335
▁Daten	-8.70346
▁besser	-8.70368
▁light	-8.70418
▁Eine	-8.7052
▁dafür	-8.70523
▁person	-8.706
mi	-8.70645
▁believe	-8.70683
pf	-8.70755
▁ersten	-8.70877
▁daran	-8.70908
▁create	-8.71041
lo	-8.71285
▁Grund	-8.71402
▁passiert	-8.71493
▁verstehen	-8.715
ke	-8.71521
▁school	-8.71769
▁done	-8.71782
▁denen	-8.71918
▁My	-8.71961
▁sort	-8.72175
▁space	-8.72212
▁meisten	-8.72281
▁Because	-8.72526
▁e	-8.72787
▁always	-8.7319
heit	-8.73237
▁Im	-8.73263
ler	-8.7343
▁may	-8.7349
isch	-8.73575
▁etwa	-8.737
▁sieht	-8.73715
ik	-8.73747
▁play	-8.73768
▁million	-8.73927
ness	-8.73969
▁ever	-8.74014
▁whole	-8.74083
▁children	-8.74089
▁während	-8.74132
▁fast	-8.74737
▁working	-8.7504
▁ganze	-8.75415
▁Geld	-8.75616
O	-8.75787
ho	-8.76139
▁trying	-8.76192
up	-8.76221
▁sollte	-8.76393
▁wichtig	-8.76397
▁away	-8.76427
F	-8.7656
▁Bild	-8.76601
os	-8.76607
▁moment	-8.76772
fe	-8.76833
▁Ma	-8.76848
▁Millionen	-8.76898
va	-8.76993
▁All	-8.77069
▁Weg	-8.77084
▁four	-8.77208
vi	-8.77458
▁country	-8.77558
▁große	-8.77887
▁meinem	-8.78001
▁sollten	-8.78016
bi	-8.78079
▁high	-8.78258
▁La	-8.78425
bar	-8.78457
▁warum	-8.78481
ph	-8.78778
▁How	-8.78914
▁wollte	-8.7895
▁b	-8.79201
▁natürlich	-8.79215
▁Prozent	-8.79365
▁Idee	-8.79467
ha	-8.79614
▁best	-8.79756
▁try	-8.80072
▁lassen	-8.80211
ci	-8.80304
ger	-8.80653
▁meinen	-8.80739
▁könnten	-8.81032
▁power	-8.81033
är	-8.81038
▁welche	-8.81222
▁TED	-8.81323
▁Lebens	-8.81551
▁per	-8.81847
▁O	-8.8189
ige	-8.82074
▁15	-8.82099
0	-8.82115
▁form	-8.822
zeit	-8.82361
▁Ja	-8.82424
▁letzten	-8.82769
▁old	-8.82891
N	-8.8291
▁ging	-8.83022
ies	-8.83089
1	-8.83329
ken	-8.83409
▁Raum	-8.83568
▁ihrer	-8.83692
go	-8.83866
ni	-8.84221
op	-8.84588
▁maybe	-8.84592
▁As	-8.84714
▁De	-8.84833
sh	-8.84835
▁3	-8.84897
]	-8.84946
▁Pro	-8.84968
▁Al	-8.85007
man	-8.85012
▁Ka	-8.85064
▁Un	-8.85086
▁small	-8.85231
▁using	-8.85287
▁kids	-8.8529
▁information	-8.85475
▁kam	-8.85612
che	-8.85697
3	-8.85835
▁sprechen	-8.85956
▁thinking	-8.86112
▁five	-8.86116
▁sense	-8.86244
co	-8.86364
▁dabei	-8.86443
▁took	-8.86557
▁arbeiten	-8.86563
▁money	-8.86602
▁hard	-8.86661
▁Ende	-8.86734
▁means	-8.8677
▁everything	-8.86957
▁hand	-8.87049
uch	-8.87073
5	-8.87085
▁become	-8.87244
ga	-8.87281
▁One	-8.87394
end	-8.87407
▁number	-8.87425
▁second	-8.87451
we	-8.87452
▁bedeutet	-8.87629
sp	-8.87644
ance	-8.87711
▁such	-8.87902
8	-8.87907
▁Co	-8.87994
no	-8.88058
▁ziemlich	-8.88402
land	-8.8849
▁experience	-8.88535
▁No	-8.8875
▁future	-8.88766
▁sagt	-8.89001
▁social	-8.89133
▁Körper	-8.89193
▁bring	-8.89203
ert	-8.89302
▁She	-8.89322
▁left	-8.8939
▁To	-8.90288
ton	-8.90292
ier	-8.90494
▁half	-8.90522
7	-8.9076
▁bekommen	-8.91371
▁sicher	-8.91413
▁darauf	-8.91419
▁weniger	-8.91448
wa	-8.91484
tri	-8.91602
▁China	-8.91734
▁enough	-8.91857
nen	-8.91885
stand	-8.91887
▁Mit	-8.92209
▁Do	-8.92265
▁Computer	-8.92496
▁unseren	-8.92627
▁getting	-8.92758
the	-8.92796
▁ask	-8.93049
bo	-8.93235
▁Dann	-8.93256
form	-8.93281
▁wenig	-8.93286
▁These	-8.936
ren	-8.93624
H	-8.9386
▁food	-8.93901
▁dachte	-8.93919
▁Pa	-8.94076
▁vier	-8.94231
▁open	-8.94292
ot	-8.9457
▁head	-8.94665
4	-8.9473
tor	-8.9475
▁care	-8.94769
liche	-8.94899
▁eigentlich	-8.95173
▁answer	-8.95308
▁Mann	-8.95354
▁Du	-8.95416
▁Se	-8.95434
▁doch	-8.95463
nd	-8.9558
▁Dank	-8.95623
▁less	-8.9566
ard	-8.95862
br	-8.96038
ty	-8.96102
▁dis	-8.96103
▁Zu	-8.96534
ell	-8.96771
▁[	-8.96858
▁Um	-8.9691
▁quite	-8.97212
▁nehmen	-8.97397
▁brauchen	-8.97479
ous	-8.97534
per	-8.97672
▁probably	-8.97802
▁Fall	-8.97903
▁kleine	-8.97999
ko	-8.98078
▁interesting	-8.98158
%	-8.9827
▁Denn	-8.98493
▁planet	-8.98555
▁global	-8.98659
▁sp	-8.98667
W	-8.98671
▁energy	-8.98739
kt	-8.98834
▁happened	-8.9922
ator	-8.99225
▁simple	-8.99278
▁body	-8.99286
ff	-8.99541
▁kleinen	-8.9955
ka	-8.99614
Ich	-8.997
▁talking	-8.99807
ng	-8.9983
▁z	-8.99986
▁Let	-9.00047
▁Technologie	-9.00162
▁ex	-9.00339
▁room	-9.00422
▁Energie	-9.00473
pe	-9.00501
▁Ihr	-9.00504
▁making	-9.0051
▁without	-9.0052
▁po	-9.00618
lei	-9.00619
▁lives	-9.00705
▁told	-9.00755
▁Dollar	-9.01015
▁move	-9.01407
▁side	-9.01528
▁Person	-9.01565
▁test	-9.01853
▁comes	-9.01925
▁process	-9.02076
▁H	-9.02109
▁face	-9.02151
▁jeden	-9.02341
less	-9.02436
tic	-9.02557
▁gegen	-9.02564
▁jemand	-9.02584
▁Sache	-9.02654
▁York	-9.03016
▁richtig	-9.03082
▁men	-9.03158
ating	-9.03166
▁Am	-9.03199
6	-9.0328
zi	-9.03344
▁Moment	-9.03392
▁matter	-9.03421
▁stuff	-9.03494
▁build	-9.03503
▁ihm	-9.0363
▁young	-9.03647
ring	-9.03798
▁bringen	-9.03802
▁building	-9.03814
▁gute	-9.0383
▁schnell	-9.03874
▁hätte	-9.04057
▁Zukunft	-9.04198
▁Bo	-9.04249
▁pretty	-9.04339
▁ca	-9.0437
▁Kind	-9.04384
zen	-9.04549
▁reason	-9.04562
pi	-9.04568
▁Stadt	-9.04628
▁anything	-9.04766
▁Ta	-9.04871
fi	-9.04945
▁across	-9.05052
bel	-9.05117
▁Frau	-9.05263
pro	-9.05334
ting	-9.05618
hi	-9.05652
all	-9.05726
ure	-9.058
▁bad	-9.05827
▁funktioniert	-9.05843
▁gesehen	-9.06036
▁möglich	-9.06036
▁Über	-9.06055
▁2	-9.06203
▁coming	-9.06424
.000	-9.06548
ial	-9.06668
▁40	-9.06699
▁großen	-9.06755
▁family	-9.06931
▁Wo	-9.071
▁Ro	-9.07109
▁keep	-9.07173
▁happen	-9.0723
▁science	-9.07297
cht	-9.07364
▁Menge	-9.07384
art	-9.07681
▁far	-9.07809
▁health	-9.08032
▁Weise	-9.08049
▁Auto	-9.0851
▁its	-9.08535
▁18	-9.08572
▁asked	-9.08599
▁mind	-9.08693
▁Natur	-9.08781
▁Here	-9.08799
▁times	-9.08817
▁J	-9.08957
▁Ort	-9.08973
▁später	-9.08998
▁Ko	-9.09283
▁set	-9.09532
▁billion	-9.09908
▁je	-9.09911
▁countries	-9.0997
▁learn	-9.09999
▁Licht	-9.10001
nde	-9.1004
▁OK	-9.10072
ca	-9.10089
▁4	-9.10167
sche	-9.1032
ex	-9.10386
▁else	-9.1043
aus	-9.1048
▁System	-9.10537
ör	-9.10539
▁Seite	-9.10789
pa	-9.10901
▁dollars	-9.10934
▁saw	-9.10973
▁living	-9.11103
da	-9.11173
00	-9.11215
▁later	-9.11249
▁land	-9.11303
▁Hand	-9.11345
old	-9.11379
▁having	-9.11409
▁hope	-9.11763
▁seit	-9.1215
los	-9.12159
▁project	-9.12302
kommen	-9.12316
io	-9.12438
ary	-9.12463
▁ganzen	-9.12697
▁remember	-9.12714
▁beim	-9.12882
▁Erde	-9.12937
▁gesagt	-9.12963
9	-9.13013
▁ko	-9.13305
▁stand	-9.13429
▁glauben	-9.13467
▁keinen	-9.13496
▁erst	-9.13546
▁Okay	-9.13547
▁Danke	-9.13606
▁Nach	-9.13667
▁Dr	-9.13696
son	-9.13878
que	-9.14032
▁Or	-9.14074
äh	-9.14178
▁Ra	-9.14222
▁hoch	-9.1427
▁fünf	-9.14351
The	-9.14482
▁single	-9.14613
▁eigenen	-9.14647
ated	-9.14701
▁sei	-9.1472
lä	-9.14736
▁picture	-9.14777
▁pre	-9.14804
▁Li	-9.14818
▁Africa	-9.14819
▁konnten	-9.14845
▁Me	-9.14922
ally	-9.1498
▁Warum	-9.14999
ug	-9.15015
ian	-9.15225
▁Mutter	-9.1555
▁lang	-9.15748
▁while	-9.15866
ba	-9.16069
▁lernen	-9.16095
".	-9.16241
▁Sa	-9.16318
▁inside	-9.16428
pp	-9.16488
▁Probleme	-9.16499
dy	-9.1672
▁case	-9.16864
▁fest	-9.1688
▁Di	-9.16919
▁le	-9.16956
▁goes	-9.16986
▁Earth	-9.17059
▁schwer	-9.17149
▁versuchen	-9.17314
▁both	-9.17382
▁nutzen	-9.17384
▁V	-9.17419
▁read	-9.17471
ium	-9.17568
▁nichts	-9.17636
▁helfen	-9.17708
▁stellen	-9.17935
ism	-9.17947
▁Vielen	-9.18058
ah	-9.18185
▁computer	-9.18263
▁5	-9.1828
▁lange	-9.18309
▁public	-9.18359
ative	-9.18438
▁almost	-9.18441
▁weit	-9.18511
▁seen	-9.1868
▁happens	-9.18699
eln	-9.18752
▁„	-9.18807
nehmen	-9.18942
▁f	-9.18946
lichen	-9.18995
▁zeigt	-9.19037
▁name	-9.1946
▁Ba	-9.19542
sa	-9.1965
ite	-9.19662
▁sure	-9.19676
▁under	-9.19763
▁imagine	-9.19842
▁art	-9.19852
▁la	-9.19961
▁schaffen	-9.19986
,000	-9.19992
▁USA	-9.20615
▁sah	-9.20625
▁run	-9.20683
▁six	-9.20693
▁days	-9.20693
ß	-9.20983
▁arm	-9.21059
cken	-9.21168
▁cancer	-9.21273
▁CA	-9.21533
teil	-9.21578
ted	-9.21602
▁Ho	-9.21728
▁book	-9.21774
▁control	-9.2179
▁vielen	-9.21809
▁yet	-9.21871
▁city	-9.21934
▁myself	-9.2194
▁saying	-9.22248
▁12	-9.22528
▁someone	-9.22589
▁jedes	-9.22798
▁makes	-9.22889
▁wrong	-9.22962
▁community	-9.2305
▁heißt	-9.23136
▁once	-9.23213
▁says	-9.23314
▁1	-9.23316
▁wahrscheinlich	-9.23322
ap	-9.23382
▁Y	-9.23499
▁business	-9.23757
ang	-9.23989
▁already	-9.24082
gehen	-9.24089
▁market	-9.24188
▁possible	-9.24342
▁Why	-9.24349
ized	-9.24427
▁language	-9.24429
▁problems	-9.24478
▁ange	-9.24496
hen	-9.24509
▁klar	-9.24518
and	-9.24522
mon	-9.24546
▁di	-9.24677
▁nothing	-9.24868
▁ways	-9.24952
▁whether	-9.24952
auf	-9.25012
▁ma	-9.25127
▁cells	-9.25315
ür	-9.25318
du	-9.25392
▁Jetzt	-9.25393
do	-9.25417
▁Buch	-9.25446
▁unserem	-9.2546
▁begann	-9.25483
▁tra	-9.25602
gt	-9.25606
cy	-9.25649
▁stop	-9.25729
▁often	-9.25751
▁guy	-9.25764
▁Br	-9.25786
▁Spiel	-9.25794
▁looked	-9.25832
▁self	-9.25838
▁amazing	-9.25918
▁genug	-9.26011
▁Wissen	-9.26168
▁Not	-9.26188
▁se	-9.26234
ful	-9.263
▁m	-9.2648
▁Entwicklung	-9.2669
▁ra	-9.26716
pt	-9.26774
▁anders	-9.26883
tz	-9.26886
▁Form	-9.27134
tu	-9.27136
ble	-9.27166
ende	-9.27202
▁nächsten	-9.27213
▁seiner	-9.27344
▁jede	-9.27583
ität	-9.2759
▁age	-9.27643
▁DNA	-9.27698
ize	-9.27864
ord	-9.27918
wand	-9.27952
nder	-9.2808
▁neuen	-9.28107
▁research	-9.28199
▁beautiful	-9.28238
▁order	-9.28253
▁history	-9.28419
▁erzählen	-9.28462
▁job	-9.28542
▁Na	-9.28697
▁Bei	-9.28746
ide	-9.28826
▁heart	-9.2888
▁Projekt	-9.28971
ain	-9.29023
▁experiment	-9.29068
ud	-9.29134
ac	-9.2928
▁dich	-9.29414
▁video	-9.29419
▁true	-9.29786
▁recht	-9.30021
▁couple	-9.30061
ib	-9.30116
▁kennen	-9.30401
▁words	-9.30443
▁gleich	-9.30454
▁bevor	-9.30661
▁night	-9.30708
▁entwickelt	-9.30862
iz	-9.30919
ak	-9.30981
▁Mädchen	-9.30984
▁basically	-9.31082
red	-9.31162
▁child	-9.31431
▁music	-9.31475
▁Nicht	-9.31675
▁Musik	-9.31958
log	-9.32008
▁within	-9.32013
chte	-9.32025
▁gar	-9.32047
▁heard	-9.32131
so	-9.3214
▁herum	-9.32198
▁mother	-9.323
▁Für	-9.32315
mit	-9.32324
▁top	-9.32362
▁group	-9.32612
▁air	-9.32617
▁months	-9.32674
▁Kon	-9.3273
▁liegt	-9.32957
▁Meine	-9.33029
▁weg	-9.33317
▁large	-9.33354
isten	-9.33366
▁cr	-9.33504
▁At	-9.33511
ick	-9.33548
ence	-9.33662
iger	-9.33706
▁Video	-9.34035
▁bauen	-9.34193
▁stories	-9.34287
▁verändern	-9.34287
▁bo	-9.34341
schen	-9.34423
▁Planeten	-9.34431
▁Design	-9.34635
▁species	-9.3477
▁government	-9.34869
▁Augen	-9.34969
▁ideas	-9.35035
▁gehört	-9.3529
▁line	-9.35521
▁learned	-9.35546
▁musste	-9.35639
▁turn	-9.35656
▁until	-9.35835
▁Kunst	-9.35935
▁Punkt	-9.35973
▁United	-9.36033
▁Schule	-9.36095
▁Geschichten	-9.36205
legen	-9.36206
schaft	-9.36242
▁Familie	-9.36306
▁universe	-9.3642
▁Informationen	-9.36484
▁close	-9.3649
bu	-9.3654
▁Angst	-9.36815
lin	-9.37076
▁built	-9.37207
▁education	-9.37305
recht	-9.37536
▁Männer	-9.37561
▁letzte	-9.37568
▁mo	-9.376
▁knew	-9.37702
▁alt	-9.38002
▁braucht	-9.3803
lf	-9.38081
▁Afrika	-9.38091
▁falsch	-9.38101
▁ungefähr	-9.38104
▁Ideen	-9.38183
▁environment	-9.38192
▁past	-9.38219
▁Ne	-9.38229
▁front	-9.38368
▁Kopf	-9.38421
▁must	-9.38431
▁word	-9.38524
▁Fragen	-9.38601
▁America	-9.38627
▁piece	-9.3869
▁Unternehmen	-9.38708
ale	-9.38716
▁free	-9.38723
ging	-9.38756
halten	-9.38778
sehen	-9.38811
▁fish	-9.38925
▁Haus	-9.38934
port	-9.38984
▁stehen	-9.39054
▁woman	-9.39084
▁decided	-9.391
schau	-9.3925
♪	-9.39303
▁model	-9.39419
rate	-9.39491
▁Antwort	-9.39505
▁verändert	-9.39505
▁60	-9.39562
▁study	-9.39743
▁though	-9.39797
▁Bi	-9.39936
▁Selbst	-9.40113
▁sub	-9.40157
igkeit	-9.40267
▁normal	-9.40267
vo	-9.40374
▁personal	-9.40389
▁menschliche	-9.4046
▁wahr	-9.40482
▁schwierig	-9.40622
▁share	-9.40642
way	-9.40676
▁Leuten	-9.40723
▁25	-9.40849
▁verschiedene	-9.40874
▁ourselves	-9.40929
ish	-9.40978
▁house	-9.41102
▁überall	-9.41192
▁Krieg	-9.41238
gang	-9.41537
▁view	-9.41615
one	-9.4166
▁v	-9.41721
▁fragen	-9.41775
▁comp	-9.41935
▁Ga	-9.41986
▁nature	-9.42064
▁friends	-9.42267
▁erkennen	-9.42583
geben	-9.4259
▁exactly	-9.42605
▁nennen	-9.42613
▁darum	-9.42625
ismus	-9.42636
▁r	-9.42645
▁ihrem	-9.42664
les	-9.42705
▁11	-9.4281
▁vi	-9.4282
▁cool	-9.42849
▁Gesellschaft	-9.42859
▁Ent	-9.42877
▁Mein	-9.42923
▁qu	-9.42958
▁hear	-9.4301
▁became	-9.43106
▁Eltern	-9.43111
▁looks	-9.43232
uck	-9.43266
lang	-9.433
hin	-9.43611
if	-9.43825
igung	-9.43859
line	-9.43957
▁completely	-9.43992
▁since	-9.44159
▁sagten	-9.44182
▁Milliarden	-9.44196
▁figure	-9.44291
▁sound	-9.4434
▁Po	-9.44482
▁Wissenschaft	-9.4453
wer	-9.44589
▁Fa	-9.44592
▁einzige	-9.44596
▁places	-9.4461
▁everybody	-9.4469
V	-9.44806
▁culture	-9.4482
▁bisschen	-9.44834
tung	-9.44902
▁taking	-9.45129
▁leave	-9.45226
▁neu	-9.45228
▁step	-9.45299
▁Weil	-9.45435
▁company	-9.45545
ich	-9.45548
des	-9.45569
▁huge	-9.4557
▁animals	-9.45606
▁80	-9.45633
▁besonders	-9.45652
▁bereits	-9.4571
▁Vielleicht	-9.4576
keit	-9.45846
▁Gefühl	-9.45903
▁seinen	-9.45946
▁against	-9.46044
▁6	-9.46076
▁ocean	-9.46083
▁ti	-9.46097
▁Doch	-9.46165
▁Regierung	-9.46209
com	-9.463
▁Chris	-9.463
",	-9.46372
▁natural	-9.46624
ron	-9.46771
▁halten	-9.46844
▁hours	-9.46954
▁allen	-9.47043
▁risk	-9.47171
▁Arm	-9.4719
▁team	-9.47193
ja	-9.47233
▁economic	-9.47277
▁themselves	-9.47277
▁cell	-9.47344
ow	-9.47392
▁reden	-9.47505
▁society	-9.47715
tel	-9.47753
▁States	-9.47822
▁itself	-9.47935
▁sometimes	-9.48046
▁sh	-9.48108
▁machte	-9.48262
by	-9.48269
▁weitere	-9.48327
▁schön	-9.48591
▁disease	-9.48618
▁erreichen	-9.48643
▁happening	-9.48779
▁behavior	-9.48818
▁Mars	-9.48842
▁7	-9.48897
fin	-9.49046
▁Minuten	-9.49067
▁India	-9.49224
ierte	-9.49227
▁200	-9.49273
▁inter	-9.49319
▁somebody	-9.49375
▁phone	-9.49375
▁Krebs	-9.49486
▁War	-9.49717
▁send	-9.4973
▁soll	-9.49745
▁digital	-9.49822
▁dir	-9.49869
oo	-9.49972
▁Gebäude	-9.50046
▁aller	-9.50131
▁namens	-9.5018
mmer	-9.50243
▁Film	-9.50243
▁hätten	-9.50267
bt	-9.50348
▁level	-9.50393
▁Gruppe	-9.50447
ise	-9.50509
▁Ex	-9.50694
▁Arten	-9.50707
▁rest	-9.5092
ile	-9.50922
▁along	-9.50984
▁minutes	-9.51064
▁exist	-9.51082
▁questions	-9.51167
▁kurz	-9.5132
▁’	-9.51403
nden	-9.51406
▁nächste	-9.51451
▁hören	-9.51483
▁Lo	-9.51503
▁difficult	-9.51517
▁Google	-9.51631
▁steht	-9.51631
▁created	-9.51829
▁gr	-9.51915
ase	-9.5201
▁instead	-9.52089
▁Gott	-9.52098
▁works	-9.52128
▁walk	-9.52165
▁darin	-9.52184
▁anzu	-9.52195
▁w	-9.52218
ran	-9.52276
▁unglaublich	-9.52306
▁black	-9.5233
▁Oder	-9.5238
fall	-9.52417
▁Some	-9.5246
fen	-9.52497
▁rather	-9.52565
haft	-9.52582
▁pa	-9.52665
▁hinter	-9.52814
▁euch	-9.52815
▁Macht	-9.52898
▁jedem	-9.52949
icht	-9.53228
▁image	-9.53264
▁everyone	-9.53278
▁turns	-9.53326
▁Vater	-9.53372
▁learning	-9.53421
▁ändern	-9.53475
▁worked	-9.53611
side	-9.53644
▁mag	-9.53727
▁versch	-9.53774
▁spielen	-9.53779
▁students	-9.53875
▁Patienten	-9.54062
nom	-9.54074
▁sechs	-9.54175
bild	-9.54259
▁Wort	-9.5426
▁Bilder	-9.54319
▁game	-9.54339
▁Dieses	-9.54393
▁Kultur	-9.54407
▁Ziel	-9.54477
▁outside	-9.54518
▁fa	-9.5454
▁least	-9.54642
gi	-9.54733
“	-9.54749
▁Universum	-9.5476
mat	-9.54785
ue	-9.54801
▁American	-9.55066
▁population	-9.55115
▁gerne	-9.55203
▁Glück	-9.55231
▁machine	-9.55307
kon	-9.5539
▁solche	-9.55441
▁Hause	-9.55476
▁structure	-9.55706
▁entire	-9.55707
ther	-9.55809
▁Stunden	-9.5582
▁manchmal	-9.55825
▁state	-9.55876
▁Oh	-9.5593
elle	-9.55972
▁early	-9.55978
spiel	-9.56039
▁ausge	-9.56103
hm	-9.56129
▁Stück	-9.56194
▁wer	-9.56374
▁couldn	-9.56392
▁thousands	-9.56465
▁benutzen	-9.565
And	-9.56525
▁Luft	-9.56553
▁third	-9.56661
con	-9.5679
▁fe	-9.56869
▁bekannt	-9.56903
▁Unter	-9.56948
▁gesamte	-9.57146
▁frei	-9.57187
kl	-9.57207
▁friend	-9.57221
ight	-9.57365
▁God	-9.5737
▁color	-9.57384
▁pay	-9.57641
ities	-9.57725
▁Indien	-9.5775
▁anderes	-9.57843
xi	-9.57873
▁grow	-9.57916
▁wohl	-9.5822
▁leicht	-9.58246
▁vorstellen	-9.58295
▁gave	-9.58361
ical	-9.58371
weg	-9.58451
▁behind	-9.58479
▁hi	-9.58592
bei	-9.58594
▁sea	-9.58649
▁8	-9.58649
▁bereit	-9.58661
▁poor	-9.58676
ors	-9.58717
▁spend	-9.58836
▁short	-9.58853
▁act	-9.58869
▁buy	-9.58968
▁particular	-9.58972
▁br	-9.58995
▁Bewegung	-9.5909
▁gemeinsam	-9.59092
sam	-9.59132
▁won	-9.59171
▁entwickeln	-9.59213
▁amount	-9.59213
▁Liebe	-9.59218
ome	-9.59422
ierung	-9.59456
▁fl	-9.59529
▁full	-9.59595
▁na	-9.59602
oc	-9.59634
▁erhalten	-9.59746
▁field	-9.59845
len	-9.60047
▁death	-9.60203
▁begin	-9.60217
▁Mar	-9.60279
ding	-9.60351
▁fear	-9.60497
▁cost	-9.60512
▁support	-9.60576
▁network	-9.60577
ett	-9.60581
▁führen	-9.60609
▁9	-9.60644
▁dream	-9.60701
▁wollten	-9.60891
hl	-9.60946
▁local	-9.60954
▁beiden	-9.61047
▁Möglichkeit	-9.6108
▁fand	-9.61104
▁groß	-9.61105
▁kinds	-9.61158
stoff	-9.61198
▁changed	-9.61287
▁deal	-9.61425
▁Roboter	-9.61453
▁began	-9.61632
▁common	-9.61705
▁90	-9.61735
▁seven	-9.61833
▁Verhalten	-9.61837
use	-9.6188
▁Fi	-9.61913
▁week	-9.62088
▁feeling	-9.62093
We	-9.62104
tern	-9.6214
▁happy	-9.62211
▁middle	-9.62211
▁Je	-9.62329
▁oben	-9.6239
har	-9.62434
▁paper	-9.62479
▁14	-9.62519
▁plan	-9.62683
▁Vorstellung	-9.62732
halt	-9.62794
▁Sprache	-9.62802
▁verschiedenen	-9.6284
ack	-9.62933
▁scale	-9.62938
rin	-9.62969
▁Ju	-9.62977
▁Recht	-9.6302
▁ho	-9.63158
▁felt	-9.63254
▁besten	-9.63352
voll	-9.63359
▁einigen	-9.63497
unk	-9.63574
▁program	-9.63649
ei	-9.63681
▁record	-9.63745
▁Wa	-9.63847
▁irgendwie	-9.63874
▁Ni	-9.63874
▁niemand	-9.63877
▁difference	-9.63909
▁Bu	-9.63943
▁yourself	-9.64003
▁direkt	-9.64009
▁offen	-9.64178
▁wasn	-9.6437
▁bewegen	-9.64525
ions	-9.64616
▁sage	-9.64858
▁Rück	-9.64861
▁film	-9.64873
reich	-9.64875
▁easy	-9.64911
▁16	-9.64959
▁Kindern	-9.65043
▁map	-9.65125
▁super	-9.65152
▁Herz	-9.652
enden	-9.65269
▁red	-9.65303
▁o	-9.65324
dung	-9.65352
▁Then	-9.65389
▁l	-9.65473
▁online	-9.65704
▁Prozess	-9.65827
▁shape	-9.65829
sse	-9.65868
ere	-9.65885
bau	-9.65919
▁realized	-9.66106
U	-9.66167
▁Bereich	-9.66273
ization	-9.66298
▁wusste	-9.66379
▁On	-9.66397
▁vorher	-9.66573
war	-9.66609
ort	-9.66619
▁international	-9.66619
ual	-9.66679
▁given	-9.66685
▁news	-9.66754
▁guys	-9.66813
▁taken	-9.66834
arbeit	-9.66918
▁Lass	-9.6695
▁parents	-9.6697
▁reality	-9.66982
▁Ki	-9.67068
eh	-9.67069
▁eigene	-9.67173
▁Wer	-9.67183
treten	-9.67213
for	-9.67281
▁political	-9.67284
▁getan	-9.67324
▁powerful	-9.67414
king	-9.67527
▁Go	-9.67598
▁Herausforderung	-9.67685
▁glücklich	-9.67732
▁beginning	-9.67827
sprech	-9.67858
▁Mensch	-9.67871
▁wegen	-9.67926
▁Wahl	-9.6796
▁Anfang	-9.6798
▁voice	-9.68087
▁certain	-9.68104
▁fühlen	-9.68129
▁Erfahrung	-9.68291
ob	-9.68345
▁weltweit	-9.68357
▁century	-9.68406
▁los	-9.68511
▁eyes	-9.68536
▁kid	-9.68618
▁fr	-9.68661
▁area	-9.68663
▁ba	-9.68668
▁eher	-9.68684
▁modern	-9.68709
year	-9.68811
▁Fl	-9.68855
▁key	-9.68923
▁nämlich	-9.69033
▁abge	-9.69047
▁Vi	-9.69056
tag	-9.69167
▁cut	-9.6918
▁Sta	-9.69254
▁Su	-9.69329
▁reach	-9.69349
▁turned	-9.69354
▁Lehrer	-9.69427
▁unterschiedlich	-9.69442
▁needed	-9.69499
▁drive	-9.69523
act	-9.69537
▁auszu	-9.69539
app	-9.69662
▁em	-9.69673
▁systems	-9.69856
ations	-9.69935
▁interessant	-9.69981
▁explain	-9.69988
▁Stellen	-9.70057
▁Sinn	-9.7006
▁Freunde	-9.70085
▁perhaps	-9.70126
▁Schritt	-9.70126
▁beginnen	-9.7015
▁photograph	-9.70265
▁Fr	-9.70307
▁treffen	-9.70432
▁size	-9.70549
▁companies	-9.70676
änge	-9.70819
▁app	-9.70983
▁cities	-9.70988
▁überhaupt	-9.71091
▁eight	-9.71113
▁non	-9.71443
ker	-9.71446
▁simply	-9.71508
▁stay	-9.71521
▁seeing	-9.71568
▁low	-9.7172
▁moving	-9.71787
▁Mittel	-9.719
▁schauen	-9.71931
rs	-9.71952
▁cannot	-9.72141
▁menschlichen	-9.72196
rück	-9.72245
▁wonderful	-9.72255
▁finally	-9.72262
unt	-9.72294
▁post	-9.72344
▁rate	-9.72437
▁oil	-9.72443
▁17	-9.72509
▁Gra	-9.72586
ind	-9.72612
hol	-9.72626
▁Gemeinschaft	-9.72627
par	-9.72644
pri	-9.72645
▁longer	-9.72748
▁führt	-9.72831
▁media	-9.72835
▁hands	-9.72842
▁Tiere	-9.72853
zahl	-9.72884
▁Team	-9.72934
▁Lage	-9.73011
einander	-9.73025
▁/	-9.73051
▁met	-9.73059
▁zwar	-9.73206
▁father	-9.7321
▁others	-9.73212
net	-9.73302
▁fun	-9.73331
▁Wissenschaftler	-9.73358
▁versucht	-9.73382
▁positive	-9.73641
▁Qu	-9.73745
▁challenge	-9.73763
▁verwenden	-9.73763
▁value	-9.73763
▁Wochen	-9.73814
cher	-9.73823
lichkeit	-9.73868
▁People	-9.73902
▁Technik	-9.74045
▁70	-9.74069
▁solve	-9.74072
▁Just	-9.74179
▁gets	-9.74238
▁Umwelt	-9.74338
ckt	-9.74475
▁sc	-9.74551
▁tut	-9.7461
▁Zum	-9.74735
▁represent	-9.74761
▁measure	-9.74761
▁El	-9.74796
▁speak	-9.74815
▁innerhalb	-9.74905
▁eat	-9.75041
▁völlig	-9.75049
werk	-9.75074
▁gleichen	-9.7512
uf	-9.7516
▁San	-9.75173
▁fragte	-9.75223
▁Of	-9.75251
cke	-9.75283
ziehen	-9.75352
hy	-9.75358
▁Sachen	-9.7539
▁blood	-9.75483
▁Hilfe	-9.75483
▁Essen	-9.75522
▁bekam	-9.75655
▁break	-9.75706
▁Nacht	-9.75792
▁jene	-9.75799
ank	-9.75828
▁class	-9.75933
▁terms	-9.76057
▁HIV	-9.7621
rum	-9.76269
▁special	-9.76505
▁Länder	-9.76604
J	-9.76666
▁allem	-9.76684
▁South	-9.76801
▁US	-9.76922
▁deine	-9.76974
ake	-9.76989
▁jedoch	-9.77089
mittel	-9.77129
▁flow	-9.77189
Oh	-9.77203
▁kamen	-9.77212
chten	-9.77215
▁Tages	-9.7722
▁Hu	-9.77242
▁Bildung	-9.77266
▁present	-9.77283
▁Viele	-9.77316
wi	-9.77376
▁surface	-9.77383
▁zweite	-9.77393
▁Tage	-9.77474
lock	-9.77547
▁stark	-9.77679
▁interested	-9.777
▁Alter	-9.77713
leg	-9.77728
▁generation	-9.77886
▁center	-9.7798
▁Gut	-9.77992
▁mussten	-9.77993
ible	-9.77999
▁hit	-9.78035
org	-9.78119
ning	-9.78174
▁blue	-9.78203
▁wall	-9.78214
▁tried	-9.78241
ward	-9.78258
▁device	-9.78273
▁ground	-9.78422
▁Gedanken	-9.78464
top	-9.7847
▁Te	-9.78585
stellen	-9.78593
▁deep	-9.78706
▁Haupt	-9.78721
Ge	-9.78877
▁lots	-9.79047
▁Her	-9.7914
▁Blut	-9.79171
▁protect	-9.79261
▁Denken	-9.79302
▁13	-9.79346
▁quickly	-9.79372
▁dark	-9.79422
▁result	-9.79619
▁travel	-9.79777
▁ability	-9.79809
eb	-9.79818
▁Sicherheit	-9.79928
▁Generation	-9.7993
▁benutzt	-9.80076
▁el	-9.80145
▁whatever	-9.80217
▁spent	-9.80243
rank	-9.80244
▁Eis	-9.80301
▁national	-9.80375
ries	-9.80385
▁Ku	-9.8044
▁needs	-9.80476
tlich	-9.80484
▁Möglichkeiten	-9.80528
ration	-9.80529
qui	-9.8053
▁World	-9.80532
iff	-9.80549
▁gone	-9.80567
ious	-9.80661
▁Pe	-9.80743
lon	-9.80901
▁write	-9.81092
▁takes	-9.81125
▁movement	-9.8114
▁win	-9.81145
▁genauso	-9.81201
▁complex	-9.81271
trieb	-9.81298
▁damals	-9.813
▁individual	-9.81335
▁lost	-9.81453
▁allow	-9.81516
▁Versuch	-9.81579
system	-9.8165
▁Information	-9.81657
▁schrieb	-9.81703
cent	-9.8172
ship	-9.81729
▁soziale	-9.81895
▁hoffe	-9.8192
▁Erfolg	-9.821
▁Boden	-9.82158
▁Thema	-9.82225
▁Bar	-9.82239
▁sta	-9.82329
▁lösen	-9.82331
▁bleiben	-9.82429
▁girl	-9.82443
▁Can	-9.82486
▁brachte	-9.82565
▁bed	-9.82567
nte	-9.82591
▁Kl	-9.82607
hand	-9.82665
You	-9.82668
▁situation	-9.82688
▁lead	-9.82691
▁Familien	-9.82712
▁Unterschied	-9.82714
▁21	-9.82719
▁Ca	-9.82805
▁nu	-9.82822
sicht	-9.8292
▁Our	-9.82983
▁obwohl	-9.83006
▁Lösung	-9.83062
▁strong	-9.83156
Das	-9.83163
▁patients	-9.83236
lan	-9.8345
ass	-9.83566
▁schlecht	-9.83616
▁approach	-9.83626
▁message	-9.83635
ice	-9.83686
▁sitting	-9.83796
▁clear	-9.83823
▁Jahrhundert	-9.83855
▁produce	-9.83963
▁größte	-9.83969
▁Namen	-9.83979
▁ri	-9.84033
ht	-9.8433
▁Zellen	-9.84337
punkt	-9.84395
▁John	-9.84403
▁Woche	-9.84431
▁gleiche	-9.84445
▁born	-9.84494
▁box	-9.84558
▁opportunity	-9.84573
!"	-9.84595
▁Tier	-9.84632
▁National	-9.84637
val	-9.84639
during	-9.84665
▁office	-9.84671
▁parts	-9.84686
▁Grunde	-9.84687
▁character	-9.84732
▁either	-9.84732
▁increase	-9.84732
arch	-9.8476
▁realize	-9.848
led	-9.84803
▁worden	-9.84848
▁access	-9.84885
▁Gen	-9.84895
▁schreiben	-9.84927
▁Reise	-9.84962
ose	-9.84979
▁focus	-9.84979
▁Situation	-9.8505
▁Labor	-9.85051
▁weeks	-9.85078
▁wären	-9.85126
tten	-9.85151
sel	-9.85184
▁Wirtschaft	-9.85185
▁Ozean	-9.85209
▁Unsere	-9.85287
ign	-9.85321
▁lo	-9.85332
▁climate	-9.85369
▁white	-9.85603
out	-9.85725
▁sign	-9.85811
▁Richtung	-9.8585
▁Monate	-9.85925
ability	-9.85928
▁Meinung	-9.85938
▁thank	-9.85955
▁pick	-9.85971
bare	-9.85995
ekt	-9.86011
▁Si	-9.86041
▁Cha	-9.86079
▁continue	-9.86172
▁Bau	-9.86177
▁sollen	-9.86184
▁stage	-9.86227
▁morning	-9.86333
▁Dingen	-9.86338
▁suchen	-9.86358
▁growth	-9.86389
▁West	-9.86408
ists	-9.86425
▁bar	-9.86481
▁rich	-9.86547
▁bringt	-9.86707
▁Pi	-9.86716
What	-9.86778
qua	-9.86796
ping	-9.86839
▁ha	-9.86954
rat	-9.86958
▁Publikum	-9.87018
gestellt	-9.87023
▁based	-9.8714
▁entfernt	-9.87144
führen	-9.87174
▁Wert	-9.87185
▁Amerika	-9.87282
▁Wahrheit	-9.87306
▁provide	-9.87307
▁hold	-9.87366
Well	-9.87447
▁Schw	-9.8751
▁Programm	-9.87526
row	-9.87595
▁Nein	-9.87689
ade	-9.87721
ete	-9.87768
erung	-9.87776
tische	-9.87812
▁Rolle	-9.88009
hal	-9.8801
▁Zwei	-9.88064
wert	-9.88114
▁impact	-9.88125
▁emotional	-9.88145
raum	-9.8819
blick	-9.88191
▁attention	-9.8829
▁average	-9.8829
plan	-9.88337
▁essen	-9.88376
▁fall	-9.88424
▁green	-9.8847
▁Alle	-9.88506
▁fire	-9.88535
setzen	-9.88562
▁kleiner	-9.88571
▁link	-9.88605
▁komplett	-9.88619
▁nahm	-9.88693
▁Gesicht	-9.88743
▁betrachten	-9.88784
af	-9.88825
▁Freund	-9.88854
▁lässt	-9.88875
In	-9.88918
▁visual	-9.89116
▁animal	-9.8919
▁bewusst	-9.8925
day	-9.89275
▁Chinese	-9.89282
▁größten	-9.89291
setzt	-9.89308
▁Tra	-9.89448
▁economy	-9.89448
▁liebe	-9.89511
ock	-9.89532
fu	-9.89559
▁photo	-9.89612
▁funktionieren	-9.89615
▁unten	-9.89668
ierten	-9.89675
▁teilen	-9.89733
▁seem	-9.8993
▁besteht	-9.89954
▁bitte	-9.89955
▁nice	-9.89971
ana	-9.89996
▁feet	-9.90012
Was	-9.90064
▁literally	-9.90117
▁path	-9.90178
▁region	-9.90185
▁pe	-9.90214
▁scientists	-9.90219
▁Gebiet	-9.90285
▁main	-9.90315
▁okay	-9.90452
▁chance	-9.90453
▁pass	-9.90494
▁train	-9.90508
▁Markt	-9.90569
fang	-9.90611
▁incredible	-9.90621
▁alone	-9.90632
▁Jo	-9.90655
▁dessen	-9.90746
▁growing	-9.90823
▁Ri	-9.90903
▁bottom	-9.90958
▁wrote	-9.91127
▁Con	-9.91194
▁bio	-9.91198
▁Heute	-9.91305
▁Gi	-9.91498
▁fo	-9.91499
▁Right	-9.91503
ari	-9.91559
▁Fähigkeit	-9.91613
▁action	-9.91614
▁brought	-9.91637
▁pl	-9.9169
▁star	-9.91698
▁isn	-9.91704
▁known	-9.91733
▁Arbeits	-9.9177
▁connect	-9.91789
▁audience	-9.91807
▁gelernt	-9.91807
▁sprach	-9.91858
hor	-9.9191
▁tief	-9.91925
▁sex	-9.92004
▁material	-9.92105
▁erinnern	-9.92149
▁Gene	-9.92162
▁Gesundheit	-9.92259
▁London	-9.9232
▁entdeckt	-9.92321
▁langsam	-9.92336
▁Fisch	-9.92339
▁shows	-9.92456
▁sterben	-9.92492
▁Größe	-9.92663
▁giving	-9.92663
isieren	-9.92698
▁physical	-9.92717
Video	-9.92815
▁rein	-9.92833
zeichnet	-9.92835
▁camera	-9.93005
▁humans	-9.93041
▁revolution	-9.93044
▁mass	-9.93056
druck	-9.93161
▁function	-9.93181
▁knowledge	-9.93181
atur	-9.93273
ons	-9.9337
Sch	-9.93377
▁forward	-9.93467
▁voll	-9.93468
griff	-9.93504
▁scheint	-9.93529
Und	-9.93535
▁books	-9.9354
istic	-9.93558
▁issue	-9.93567
▁Muster	-9.93567
▁Modell	-9.9369
▁zuvor	-9.93824
▁Durch	-9.93871
▁beide	-9.93886
▁verbunden	-9.94049
▁Fe	-9.94098
▁tat	-9.94117
genommen	-9.9415
satz	-9.94199
▁conversation	-9.94223
▁road	-9.94224
▁potential	-9.94257
▁telling	-9.94278
fahren	-9.94334
▁Realität	-9.94411
▁watch	-9.94426
▁Zahl	-9.94434
tzt	-9.94442
▁erschaffen	-9.94445
▁North	-9.94574
▁stellt	-9.94636
▁mi	-9.94692
▁meines	-9.94733
▁Krankheit	-9.94753
si	-9.94765
▁Netzwerk	-9.94778
▁Staaten	-9.94884
▁Öl	-9.94925
▁anderer	-9.94951
▁late	-9.94952
▁relationship	-9.94971
▁sit	-9.94975
▁Ihren	-9.94996
So	-9.95003
lung	-9.95051
▁erreicht	-9.95106
▁bessere	-9.95111
▁seems	-9.95121
▁Car	-9.95166
ris	-9.95224
▁movie	-9.95278
▁verwendet	-9.95278
▁understanding	-9.95374
isiert	-9.95521
▁areas	-9.95522
ktion	-9.95549
▁girls	-9.95556
▁Ländern	-9.957
▁starting	-9.95713
ek	-9.95724
mut	-9.95738
▁aufge	-9.95761
▁gefunden	-9.95808
▁lesen	-9.95862
▁Autos	-9.95965
▁Test	-9.95983
▁genannt	-9.95985
▁Tatsache	-9.95985
▁block	-9.96013
▁artist	-9.96083
▁fanden	-9.96194
heim	-9.96224
ged	-9.96227
▁safe	-9.9634
▁"(	-9.96362
▁erstaunlich	-9.96413
grün	-9.96429
lassen	-9.96463
press	-9.96485
▁truth	-9.9652
vor	-9.96536
▁Gr	-9.96539
▁numbers	-9.96554
▁schließlich	-9.96699
▁Umgebung	-9.96702
▁Einige	-9.96745
▁statt	-9.96844
▁Sehen	-9.96871
▁developed	-9.96897
▁24	-9.97008
▁affect	-9.97058
▁draußen	-9.97058
▁Tu	-9.97135
▁type	-9.97167
▁innovation	-9.97237
▁Kraft	-9.97238
▁Pri	-9.97273
sucht	-9.97293
▁trust	-9.97418
▁text	-9.97418
▁Tat	-9.97458
▁Yeah	-9.97485
▁Bio	-9.97501
▁hundreds	-9.97538
▁worth	-9.976
▁City	-9.97615
▁choice	-9.97674
▁dead	-9.97727
▁Reihe	-9.97779
▁running	-9.97795
ku	-9.97902
ition	-9.97906
▁Jeder	-9.97968
▁anyone	-9.98009
▁acht	-9.98054
▁op	-9.98057
▁CO	-9.98081
pass	-9.98088
▁tools	-9.98104
▁sleep	-9.98142
▁wouldn	-9.98158
▁Park	-9.98159
▁500	-9.98159
pol	-9.98184
▁law	-9.98201
▁Ke	-9.98224
▁lab	-9.98255
▁development	-9.98357
▁junge	-9.98435
zug	-9.98495
▁plötzlich	-9.98506
▁spielt	-9.98537
▁Verbindung	-9.9855
▁Super	-9.98565
▁eye	-9.98644
ied	-9.98668
▁images	-9.98676
▁discovered	-9.98682
▁Bevölkerung	-9.98688
▁spread	-9.98688
▁ten	-9.98773
▁tend	-9.98816
▁soon	-9.98838
own	-9.98895
▁sun	-9.98932
▁fundamental	-9.98936
▁forest	-9.98955
▁sehe	-9.99001
▁creating	-9.99055
▁Medien	-9.99055
▁kaufen	-9.99056
▁gewesen	-9.9909
▁hervor	-9.991
roll	-9.99143
essen	-9.99153
▁transform	-9.99164
ped	-9.99282
Die	-9.99343
▁Gewalt	-9.99422
▁Studie	-9.99467
▁Wi	-9.99489
▁teil	-9.99552
vers	-9.99579
▁länger	-9.99606
▁See	-9.99636
▁Bedeutung	-9.9979
▁Natürlich	-9.9979
▁teach	-9.99907
▁Europe	-9.99913
▁Lei	-9.99931
▁aufzu	-9.99953
▁multi	-9.99978
▁African	-9.99984
vis	-9.99986
ments	-10.0003
▁Revolution	-10.0016
▁source	-10.0016
zt	-10.003
▁anti	-10.0031
▁mine	-10.0034
&	-10.0035
▁passieren	-10.0039
▁Pu	-10.004
▁erklären	-10.0043
▁hospital	-10.0053
▁zer	-10.0057
▁Preis	-10.0061
▁report	-10.0063
▁miles	-10.0069
▁Konzept	-10.0072
▁recognize	-10.0072
light	-10.0072
▁rot	-10.0073
▁miteinander	-10.0084
▁similar	-10.009
meter	-10.0094
zellen	-10.0095
richten	-10.0096
▁changes	-10.0099
gleich	-10.0101
oren	-10.0101
lass	-10.0116
izing	-10.0118
▁trans	-10.0128
▁Neu	-10.0135
▁ice	-10.0138
▁h	-10.0141
▁wild	-10.0147
▁Foto	-10.0154
▁Aufgabe	-10.016
▁Deshalb	-10.0165
hnen	-10.0167
▁aussehen	-10.0171
pen	-10.0172
▁save	-10.0178
▁meet	-10.0178
▁evolution	-10.0183
▁Kr	-10.0186
▁mache	-10.0193
nce	-10.0193
▁add	-10.0194
▁bat	-10.0203
▁Pol	-10.0203
▁gegenüber	-10.0204
▁moral	-10.0209
▁kill	-10.0211
time	-10.0217
rei	-10.0218
▁Hoffnung	-10.0222
▁guess	-10.0222
▁fly	-10.0227
eten	-10.0227
are	-10.0227
▁Wind	-10.0236
▁Bücher	-10.0241
▁Innovation	-10.0241
▁suggest	-10.0241
▁perfekt	-10.0241
▁hinaus	-10.0246
▁unbe	-10.0252
▁Schul	-10.0254
▁theory	-10.0254
leben	-10.0255
ny	-10.0256
▁allein	-10.0256
▁Lu	-10.0261
▁Gu	-10.0263
▁force	-10.0271
▁jemals	-10.0279
▁Wal	-10.0282
▁Tod	-10.0284
▁recently	-10.0285
▁einfache	-10.0287
▁goal	-10.0293
▁Groß	-10.0297
▁blind	-10.0298
off	-10.0307
▁Während	-10.0317
▁follow	-10.0325
▁hinein	-10.0331
▁cars	-10.0335
▁000	-10.0337
▁Sam	-10.0337
▁Stimme	-10.034
ruf	-10.035
▁concept	-10.0355
▁erfolgreich	-10.0355
▁beginnt	-10.0356
rry	-10.0358
▁Genau	-10.0359
▁With	-10.0362
▁sieben	-10.0368
▁stimmt	-10.0371
▁verloren	-10.0373
▁require	-10.0375
▁technologies	-10.0375
Wir	-10.0384
▁gebaut	-10.0388
▁Fehler	-10.0396
▁Har	-10.0409
▁English	-10.0413
▁interessiert	-10.0413
▁asking	-10.0423
▁Forschung	-10.0425
ischer	-10.0436
▁perfect	-10.044
▁patient	-10.0447
ühl	-10.0452
▁total	-10.0457
▁absolutely	-10.0457
▁plant	-10.0457
▁Ph	-10.0463
▁solution	-10.0469
aff	-10.0477
▁einge	-10.0477
ov	-10.0479
our	-10.0482
lic	-10.0483
iti	-10.0487
▁especially	-10.049
▁sofort	-10.0491
▁medical	-10.0491
▁Meter	-10.0493
▁300	-10.0497
▁klein	-10.0498
▁showed	-10.0502
▁gezeigt	-10.051
▁Platz	-10.0511
▁engage	-10.0512
▁raus	-10.0512
▁gas	-10.0512
ki	-10.0515
▁ne	-10.0521
▁Afghanistan	-10.0529
▁expect	-10.0545
▁door	-10.0545
▁Europa	-10.0549
▁Ist	-10.0553
▁mental	-10.0554
▁By	-10.0565
▁Tatsächlich	-10.0569
▁industry	-10.0569
▁daraus	-10.0569
▁among	-10.0572
▁gewisse	-10.0575
▁las	-10.0575
▁zehn	-10.0588
▁incredibly	-10.0588
▁Anzahl	-10.0593
▁table	-10.0603
▁Straßen	-10.0604
put	-10.0606
▁deshalb	-10.0608
gesetzt	-10.0608
ray	-10.0619
▁Städte	-10.0623
▁reich	-10.0623
▁Japan	-10.0627
▁sing	-10.0629
▁push	-10.063
Z	-10.063
mate	-10.0631
▁likely	-10.0632
ok	-10.0638
▁nachdem	-10.0638
▁site	-10.0639
▁Ihrer	-10.0639
▁tiny	-10.0648
▁neben	-10.0649
mission	-10.0652
▁page	-10.0654
▁wind	-10.0666
▁carbon	-10.0668
▁touch	-10.067
:"	-10.0679
▁stellte	-10.0687
▁Facebook	-10.0687
▁Hälfte	-10.0687
nten	-10.0698
▁Berg	-10.07
▁private	-10.0701
schlag	-10.0707
▁treat	-10.0719
▁success	-10.0721
▁listen	-10.0724
▁period	-10.0726
▁bewegt	-10.0728
▁solar	-10.0729
▁wonder	-10.0729
ook	-10.0731
▁hart	-10.0739
lauf	-10.0739
▁Entscheidungen	-10.0744
▁Ar	-10.0746
▁millions	-10.0746
▁geworden	-10.0746
▁egal	-10.0746
▁Hund	-10.0747
bringen	-10.0758
Beifall	-10.076
▁Alles	-10.0761
fallen	-10.0763
▁traf	-10.0763
▁progress	-10.0766
low	-10.0779
▁designed	-10.0784
▁changing	-10.0786
▁Oberfläche	-10.0786
▁search	-10.0788
▁Mi	-10.0798
ular	-10.0804
▁evidence	-10.0806
▁Beziehung	-10.0819
tik	-10.0821
▁interest	-10.0826
▁glaubt	-10.0826
▁höher	-10.0827
▁Chance	-10.0827
arm	-10.0836
spect	-10.0842
▁major	-10.0844
▁join	-10.0847
▁clean	-10.0847
▁smart	-10.0847
▁fix	-10.0849
▁nimmt	-10.0866
▁danach	-10.087
No	-10.087
▁genetic	-10.0872
▁resources	-10.0878
▁riesige	-10.0884
▁wichtige	-10.0887
▁anfangen	-10.0887
▁ähnlich	-10.0896
fassen	-10.09
▁interessante	-10.0906
stück	-10.0911
▁Studenten	-10.092
▁track	-10.0937
▁größer	-10.0939
▁issues	-10.0947
▁sell	-10.0949
▁enter	-10.0956
▁möchten	-10.0966
▁invest	-10.0972
och	-10.0976
greifen	-10.0978
▁offer	-10.098
▁product	-10.0985
▁basic	-10.0988
▁subject	-10.0989
▁baby	-10.099
uit	-10.0992
▁treatment	-10.0995
ellen	-10.0999
ay	-10.1002
▁ließ	-10.1004
▁vision	-10.1006
je	-10.1006
▁pack	-10.1006
▁attack	-10.1009
▁playing	-10.1011
▁unseres	-10.1019
▁bekommt	-10.1029
▁Wörter	-10.103
▁ständig	-10.1039
Be	-10.1041
▁Experiment	-10.1043
▁available	-10.105
▁math	-10.1055
lit	-10.1057
ever	-10.1061
▁Süd	-10.1068
▁Meer	-10.1073
▁East	-10.1073
▁Universität	-10.1073
ktiv	-10.1074
usch	-10.1084
▁robot	-10.109
▁Mitte	-10.1091
▁Kamera	-10.1091
▁collect	-10.1102
▁ones	-10.1104
▁hole	-10.1106
▁gesch	-10.1107
▁Rest	-10.1109
▁gu	-10.1111
▁Künstler	-10.1112
▁beyond	-10.1112
▁role	-10.1113
▁X	-10.1124
ika	-10.1125
▁screen	-10.1133
▁hast	-10.1138
▁Technologien	-10.1139
▁hundred	-10.114
▁beste	-10.114
▁Don	-10.114
▁interact	-10.114
▁Atom	-10.1144
▁yes	-10.1146
▁develop	-10.1162
ically	-10.1166
akt	-10.1177
sagen	-10.118
sum	-10.1184
licht	-10.1187
▁Material	-10.1193
▁geboren	-10.1194
▁practice	-10.1195
▁niemals	-10.1195
▁favorite	-10.1195
▁Interesse	-10.1196
▁richtige	-10.1197
▁object	-10.1201
▁nachdenken	-10.1202
▁laufen	-10.1206
fach	-10.1211
machen	-10.1216
▁Nahrung	-10.1216
▁ve	-10.1219
platz	-10.1221
▁einzu	-10.1227
üge	-10.1235
▁appear	-10.1237
▁extra	-10.124
▁Nachrichten	-10.1242
rang	-10.1243
▁effect	-10.1244
▁jemanden	-10.1247
wo	-10.1251
▁einzelne	-10.1257
▁verrückt	-10.1258
▁developing	-10.1264
▁aktiv	-10.1267
hu	-10.1267
▁extrem	-10.127
▁welches	-10.1273
cc	-10.1273
za	-10.1278
▁village	-10.1279
▁First	-10.1279
▁towards	-10.1282
stein	-10.1292
▁Per	-10.1296
laden	-10.1296
▁Every	-10.1299
▁writing	-10.13
▁card	-10.1303
▁list	-10.1309
▁fing	-10.1311
▁falls	-10.1314
▁Veränderung	-10.1318
▁sounds	-10.132
▁findet	-10.1327
▁nahe	-10.1342
▁Plan	-10.1344
▁schneller	-10.1354
deck	-10.1359
pel	-10.1362
▁Vortrag	-10.1364
▁Hi	-10.1367
▁daher	-10.1384
▁street	-10.1385
▁Mu	-10.1388
ani	-10.1389
han	-10.14
geht	-10.1401
▁fliegen	-10.1406
lau	-10.1423
▁Organ	-10.1427
kel	-10.1431
▁Rat	-10.1431
▁drug	-10.1441
▁sent	-10.1443
gebracht	-10.1445
let	-10.1447
stelle	-10.1449
▁großartig	-10.1453
▁involved	-10.146
▁lived	-10.1462
▁manche	-10.1468
enz	-10.1469
lam	-10.147
▁Ad	-10.1476
▁lieben	-10.1479
▁event	-10.1479
▁absolut	-10.1483
▁David	-10.1491
ea	-10.1492
kraft	-10.1499
eep	-10.1502
erweise	-10.1502
▁Nation	-10.1507
▁schlechte	-10.1508
▁slow	-10.1508
▁Maybe	-10.151
▁Behandlung	-10.1513
▁several	-10.1513
die	-10.1518
▁putting	-10.1524
wei	-10.1525
Music	-10.1525
▁talked	-10.1528
▁Min	-10.1529
▁großartige	-10.153
▁reasons	-10.1531
▁Demokratie	-10.1534
▁gen	-10.1535
▁scientific	-10.1535
▁agree	-10.1536
denken	-10.1539
lose	-10.1553
▁kleines	-10.1555
▁predict	-10.156
▁Straße	-10.156
innen	-10.1563
▁bigger	-10.1565
bot	-10.1565
▁sonst	-10.157
▁engineer	-10.1571
▁Teile	-10.158
▁nine	-10.1582
▁Von	-10.1582
weisen	-10.1586
ory	-10.1587
▁auto	-10.1593
▁mis	-10.1597
▁park	-10.1599
▁Sex	-10.1599
▁fit	-10.1601
▁gingen	-10.1606
▁store	-10.1606
▁Maschine	-10.1619
ey	-10.1621
▁journey	-10.1621
▁Firma	-10.1621
▁gives	-10.1624
▁Bank	-10.1628
▁bist	-10.1634
▁connection	-10.1638
▁wish	-10.1646
▁massive	-10.1647
▁Medizin	-10.1665
▁Nur	-10.1665
▁abzu	-10.1681
▁month	-10.1686
▁intelligent	-10.1687
▁mögen	-10.1687
▁rules	-10.1687
▁Struktur	-10.1687
▁groups	-10.17
ology	-10.1702
teilen	-10.1706
▁feed	-10.1708
▁response	-10.1708
▁deliver	-10.1708
▁wait	-10.1709
stehen	-10.1727
▁mu	-10.1738
▁near	-10.1746
Ja	-10.1747
▁Produkt	-10.1749
▁perspective	-10.1752
ney	-10.1755
▁Will	-10.1764
▁dog	-10.1771
▁consider	-10.1774
plo	-10.1774
▁Jahrzehnt	-10.1775
▁stick	-10.178
▁liegen	-10.1782
▁fight	-10.1794
▁miss	-10.1802
wasser	-10.1802
▁pull	-10.1802
▁Armut	-10.1803
ham	-10.1806
▁ziehen	-10.1809
chan	-10.1809
▁ran	-10.1811
▁fi	-10.1814
▁Zusammen	-10.1818
▁compassion	-10.1819
▁check	-10.1819
▁offensichtlich	-10.1819
▁Strom	-10.182
▁meaning	-10.1836
▁wa	-10.184
▁poverty	-10.1841
▁Blick	-10.1844
▁Inter	-10.1852
mark	-10.1855
▁alten	-10.1855
▁Wachstum	-10.1863
▁account	-10.1863
▁erlaubt	-10.1863
▁Fortschritt	-10.1863
▁Papier	-10.1863
▁Mark	-10.1867
▁walking	-10.1871
▁Zahlen	-10.1886
▁speed	-10.1886
▁fahren	-10.1888
▁zeige	-10.1889
ssen	-10.1907
▁secret	-10.1908
▁becomes	-10.1913
▁früher	-10.1925
▁visit	-10.1931
▁Yes	-10.1945
▁machten	-10.1947
▁violence	-10.1953
▁achieve	-10.1953
▁Job	-10.1958
▁setzt	-10.1961
test	-10.1964
tisch	-10.1975
▁benefit	-10.1975
▁standard	-10.1979
iß	-10.198
▁nation	-10.1988
ify	-10.1998
▁element	-10.1998
▁Entscheidung	-10.2001
▁sozialen	-10.2005
reif	-10.2008
well	-10.201
▁fund	-10.2012
sol	-10.2023
▁wichtiger	-10.2032
▁hielt	-10.2035
▁Gruppen	-10.2035
▁Sonne	-10.2039
▁particularly	-10.2042
▁gegeben	-10.2044
▁position	-10.2044
▁moved	-10.2049
▁erzählt	-10.2049
▁Vo	-10.2053
ough	-10.2054
ford	-10.2055
▁Daher	-10.2058
▁draw	-10.2062
▁Web	-10.2065
lig	-10.2067
▁Even	-10.2067
▁Auch	-10.2069
ssystem	-10.2072
▁successful	-10.2072
del	-10.2073
tes	-10.2074
wir	-10.2077
arten	-10.2078
▁lose	-10.2082
▁näher	-10.2089
ession	-10.2091
▁Typ	-10.2093
of	-10.21
▁Who	-10.2122
▁general	-10.2123
▁computers	-10.2124
▁depend	-10.2127
atom	-10.2127
hören	-10.2129
▁creative	-10.2135
▁Kosten	-10.2143
dimensional	-10.2157
▁Mathematik	-10.2157
▁biggest	-10.2158
▁Theorie	-10.2158
▁Ergebnis	-10.216
▁Ä	-10.2161
▁mehrere	-10.2167
▁farm	-10.2169
▁guten	-10.2169
sis	-10.2169
▁Schauen	-10.2172
▁print	-10.2172
▁herauszufinden	-10.218
▁nennt	-10.218
▁After	-10.2181
▁wider	-10.2185
änder	-10.2188
▁Staat	-10.2199
▁Schüler	-10.2204
fälle	-10.2204
richtung	-10.2211
uß	-10.2216
▁pictures	-10.2217
▁urban	-10.2227
▁throw	-10.2227
▁genommen	-10.2229
seite	-10.2229
▁schw	-10.2231
▁organ	-10.224
▁partner	-10.2242
▁Studien	-10.2244
▁Karte	-10.2244
▁student	-10.2245
▁verb	-10.225
ina	-10.2257
▁drugs	-10.2257
▁finding	-10.2259
kam	-10.2267
▁University	-10.2273
▁anybody	-10.2273
▁breath	-10.2273
▁Bill	-10.2276
▁Zugang	-10.2276
▁Pan	-10.2297
▁Druck	-10.2299
▁links	-10.2299
▁Wand	-10.2302
▁setzen	-10.2306
▁blau	-10.2311
▁Sc	-10.2316
▁Evolution	-10.232
▁price	-10.232
▁detail	-10.2321
▁Orte	-10.2324
▁anstatt	-10.2334
▁tragen	-10.2335
ified	-10.2352
üsse	-10.2356
weit	-10.2357
▁nuclear	-10.2366
▁verbessern	-10.2366
ziel	-10.2368
stellt	-10.2373
raten	-10.2375
Re	-10.2376
berg	-10.2382
▁bank	-10.2386
flu	-10.2388
▁außer	-10.2388
▁Pla	-10.2389
▁AIDS	-10.239
programm	-10.2391
▁Reaktion	-10.2391
brechen	-10.2392
▁Menschheit	-10.2393
dom	-10.2397
▁Uhr	-10.24
oh	-10.24
▁Gesundheits	-10.2402
ump	-10.2403
▁skin	-10.2406
▁software	-10.2413
▁älter	-10.2413
j	-10.2418
▁dachten	-10.2419
selben	-10.2425
upp	-10.2431
▁gesund	-10.2436
▁Religion	-10.2437
▁gleichzeitig	-10.2437
▁medicine	-10.2437
▁cover	-10.2442
ffer	-10.2442
▁supposed	-10.2445
bald	-10.2454
▁ready	-10.2456
▁further	-10.2461
▁peace	-10.2461
ären	-10.2461
▁Fähigkeiten	-10.2464
▁discover	-10.247
▁Herr	-10.2471
▁hot	-10.2471
haus	-10.2478
▁enorm	-10.2483
▁Bürger	-10.2484
▁college	-10.2484
▁communities	-10.2484
ulation	-10.249
▁Worte	-10.2492
▁heiß	-10.2494
▁showing	-10.2496
▁accept	-10.2508
▁Ärzte	-10.2508
▁Flugzeug	-10.2508
▁Mitgefühl	-10.2509
▁largest	-10.2514
▁amp	-10.2521
▁choose	-10.2532
▁memory	-10.2532
▁kreativ	-10.2533
▁neues	-10.2534
part	-10.2534
▁mark	-10.2543
alen	-10.2546
aw	-10.2547
▁context	-10.2556
▁neuro	-10.2556
▁Ebene	-10.2563
▁bla	-10.2566
work	-10.2573
ologie	-10.2579
▁Muslim	-10.258
▁exciting	-10.258
▁quality	-10.258
▁vergessen	-10.258
▁remain	-10.258
▁bi	-10.2585
▁certainly	-10.2601
▁sahen	-10.2614
▁bald	-10.2617
▁vorbei	-10.262
rich	-10.2623
▁notice	-10.2624
▁doctor	-10.2626
▁Partner	-10.2628
▁Telefon	-10.2628
▁gross	-10.2628
▁roll	-10.2628
▁ball	-10.2628
▁onto	-10.2629
▁boy	-10.2638
gabe	-10.2639
▁bestimmte	-10.2645
▁code	-10.2646
▁Islam	-10.2654
▁hour	-10.2661
wachsen	-10.2661
▁hundert	-10.2676
▁Traum	-10.2685
▁Tür	-10.2686
▁Vereinigte	-10.27
▁pattern	-10.2701
▁Politik	-10.2702
▁democracy	-10.2702
▁begannen	-10.2703
drücken	-10.2718
▁Büro	-10.2724
▁Abend	-10.2725
wende	-10.2727
▁sitzen	-10.2727
▁count	-10.273
▁ju	-10.2733
▁zuerst	-10.2733
▁meeting	-10.2735
▁named	-10.2738
▁totally	-10.2741
▁Zeug	-10.2749
▁grew	-10.2749
▁alte	-10.2755
▁Where	-10.2756
board	-10.2766
▁Ding	-10.2768
▁lag	-10.2773
▁geschieht	-10.2773
▁sodass	-10.2773
ica	-10.278
▁baut	-10.2781
▁connected	-10.2782
▁higher	-10.2787
▁Str	-10.2787
▁Mikro	-10.2796
ille	-10.2797
▁Aufmerksamkeit	-10.2798
▁ermöglicht	-10.2798
▁Netz	-10.2803
kle	-10.2805
▁tap	-10.2815
über	-10.2818
▁Twitter	-10.2822
▁chemical	-10.2822
▁crazy	-10.2822
▁Nigeria	-10.2822
▁cross	-10.2822
▁Geschäfts	-10.2826
▁hol	-10.2834
schließen	-10.2835
▁Bewusstsein	-10.2847
▁argument	-10.2847
▁cause	-10.2848
▁Most	-10.2851
laufen	-10.2861
▁Che	-10.2863
car	-10.2868
▁religion	-10.2871
▁hörte	-10.2881
ama	-10.2893
▁schools	-10.2894
▁conflict	-10.2896
▁nobody	-10.2896
▁families	-10.2896
▁worse	-10.2896
▁fuel	-10.29
▁lie	-10.2902
▁Monaten	-10.2907
▁Kern	-10.2909
▁Pflanzen	-10.2911
▁song	-10.2913
sicher	-10.2915
▁Gespräch	-10.2921
▁everywhere	-10.2921
Wie	-10.2926
isierung	-10.2927
▁großer	-10.2928
▁dance	-10.2935
tät	-10.2936
▁bestimmt	-10.2938
▁früh	-10.2939
uh	-10.2941
▁lokal	-10.2946
chi	-10.2946
bahn	-10.2951
gue	-10.2951
▁Gold	-10.2953
▁gene	-10.2954
▁watching	-10.2959
▁fertig	-10.2961
▁signal	-10.2962
räume	-10.2967
▁Ergebnisse	-10.2968
▁folgende	-10.2968
▁security	-10.297
▁police	-10.297
▁leaders	-10.2974
▁Fahr	-10.2974
zieh	-10.2976
▁threat	-10.2976
▁ignor	-10.2979
▁verlassen	-10.2981
▁gla	-10.2984
stellung	-10.299
é	-10.2995
▁bacteria	-10.2995
▁cap	-10.2997
▁Baby	-10.2998
▁Para	-10.2998
▁direction	-10.3001
▁pain	-10.3003
lip	-10.3003
▁Sicht	-10.3003
▁TV	-10.3003
▁dein	-10.3008
schi	-10.3014
▁scan	-10.3015
▁wussten	-10.3016
▁Monat	-10.3023
▁voller	-10.3023
▁echte	-10.303
▁nein	-10.3034
cle	-10.3043
▁detect	-10.3045
▁results	-10.3046
▁drop	-10.3047
▁fühlte	-10.3054
▁versuchte	-10.3055
gab	-10.3056
▁Are	-10.3063
▁prop	-10.3066
▁Seiten	-10.3069
▁eventually	-10.307
ständig	-10.3071
zugehen	-10.3072
▁rep	-10.3073
▁decision	-10.308
▁finde	-10.308
▁Klima	-10.3096
stitution	-10.3099
▁Amerikaner	-10.3099
▁led	-10.3101
▁Grenzen	-10.3101
kehr	-10.3114
▁Iran	-10.3115
▁micro	-10.3121
▁including	-10.3121
▁führte	-10.3129
ably	-10.3132
Musik	-10.3135
▁improve	-10.3138
▁geschrieben	-10.3153
▁minds	-10.3155
▁extremely	-10.3156
▁arbeitete	-10.3156
▁zweiten	-10.3165
▁entscheiden	-10.3168
▁Krankheiten	-10.3171
▁return	-10.3172
▁medizinische	-10.3172
▁laugh	-10.3172
▁Schulen	-10.3175
▁sat	-10.3175
schnitt	-10.3177
glich	-10.3181
▁organization	-10.3185
▁version	-10.3189
▁betrachtet	-10.3197
▁shift	-10.3197
▁kaum	-10.3197
▁Nummer	-10.3198
▁trees	-10.32
wirtschaft	-10.32
▁Meeres	-10.3212
▁wi	-10.3216
▁bleibt	-10.3223
▁bodies	-10.3223
▁ändert	-10.3225
▁ship	-10.3237
▁inner	-10.324
▁Washington	-10.3248
▁Objekt	-10.3249
▁Region	-10.325
▁passierte	-10.3251
▁rede	-10.3262
▁spa	-10.3263
▁individuals	-10.3267
▁para	-10.3268
tischen	-10.3271
▁beobachten	-10.3274
▁shot	-10.3277
▁carry	-10.3285
▁Th	-10.3289
▁magic	-10.3291
▁bemerkt	-10.33
▁mountain	-10.33
▁hu	-10.3304
▁obviously	-10.3308
▁wirtschaftliche	-10.3309
▁allowed	-10.3312
üb	-10.3319
grund	-10.3321
▁survive	-10.3325
organism	-10.3328
▁lernte	-10.333
▁bur	-10.3331
oid	-10.3336
▁bomb	-10.3336
▁thousand	-10.3342
▁Handy	-10.335
▁gesprochen	-10.3351
▁plastic	-10.3351
▁taught	-10.3352
erin	-10.3354
▁wachsen	-10.3356
▁schafft	-10.3377
▁folgen	-10.338
▁materials	-10.3381
▁wave	-10.3386
folge	-10.3401
▁equal	-10.3402
▁Vergangenheit	-10.3403
schrift	-10.3403
▁killed	-10.3409
▁letter	-10.3415
▁critical	-10.3416
▁ta	-10.3421
tritt	-10.3425
▁address	-10.3429
geschlossen	-10.3429
▁Geist	-10.3434
▁Los	-10.3435
▁suddenly	-10.3435
ley	-10.3437
qual	-10.3441
▁cat	-10.3455
▁interview	-10.3456
▁Gerät	-10.3469
▁Kontrolle	-10.3471
▁pur	-10.348
▁zumindest	-10.3481
▁Himmel	-10.3482
▁bilden	-10.3482
Er	-10.3486
▁rock	-10.3494
rot	-10.35
▁conditions	-10.3502
▁loved	-10.3505
▁400	-10.3506
▁Funktion	-10.3508
▁prevent	-10.3508
▁task	-10.3508
▁base	-10.3513
▁te	-10.3524
mmel	-10.3527
▁komplexe	-10.3533
▁fantastisch	-10.3534
▁oh	-10.3547
▁Kreis	-10.3548
netz	-10.3552
▁Können	-10.356
▁somewhere	-10.356
buch	-10.3561
win	-10.3561
▁Freiheit	-10.3562
feld	-10.3562
▁Sohn	-10.3563
▁ansehen	-10.3565
like	-10.357
▁Kollegen	-10.3571
▁1.	-10.3572
band	-10.3572
ette	-10.3574
▁shown	-10.3574
▁Geschäft	-10.3583
▁fine	-10.3587
zeichnen	-10.3587
▁excited	-10.3587
▁gearbeitet	-10.3587
▁extraordinary	-10.3589
▁career	-10.359
▁essentially	-10.3592
▁meant	-10.3595
▁Personen	-10.3603
mann	-10.3606
▁waste	-10.3608
▁beschloss	-10.3613
▁bunch	-10.3613
▁daughter	-10.3613
▁Firmen	-10.3613
▁verlieren	-10.3613
▁Tro	-10.362
nach	-10.362
▁Gründe	-10.3629
▁Haut	-10.3629
▁Stelle	-10.3635
▁tree	-10.3639
▁Erinnerung	-10.364
▁kompliziert	-10.364
▁explore	-10.364
▁truly	-10.364
▁games	-10.3656
liebt	-10.3664
▁täglich	-10.3667
▁Einfluss	-10.3669
▁Today	-10.3669
path	-10.3683
▁handelt	-10.3686
▁eng	-10.3688
rennen	-10.3689
▁komme	-10.3691
▁Präsident	-10.3693
▁stress	-10.3693
▁Regeln	-10.3693
▁Steve	-10.3694
▁bestimmten	-10.3698
med	-10.3707
▁toll	-10.371
▁Hände	-10.3711
prä	-10.3718
welt	-10.3719
▁faster	-10.3719
▁Morgen	-10.372
▁original	-10.3722
▁minute	-10.3728
kommt	-10.3736
▁board	-10.3737
▁zeigte	-10.374
▁Konflikt	-10.3747
▁happiness	-10.3747
▁prison	-10.3747
▁morgen	-10.3747
▁perform	-10.3752
▁häufig	-10.3753
▁projects	-10.3756
▁150	-10.3761
jährige	-10.3764
▁teacher	-10.3772
▁Kampf	-10.3774
▁above	-10.3774
▁floor	-10.3778
▁gern	-10.3779
aking	-10.3783
▁traditional	-10.3784
cker	-10.3786
▁2000	-10.3788
▁male	-10.3792
▁erzählte	-10.3794
▁Spezies	-10.3801
▁Israel	-10.3801
▁sky	-10.3801
▁Those	-10.3802
gruppe	-10.3804
▁examples	-10.3805
right	-10.3806
▁older	-10.3809
▁term	-10.3809
▁trial	-10.3811
▁schöne	-10.3814
▁45	-10.3818
▁plants	-10.3819
▁Paul	-10.382
▁Mil	-10.3822
▁usually	-10.3828
frei	-10.3829
▁wann	-10.383
zeug	-10.3834
tragen	-10.3834
▁standing	-10.384
▁su	-10.3846
▁Kommunikation	-10.3855
▁nachzudenken	-10.3855
▁Risiko	-10.3855
▁Beginn	-10.3855
▁remind	-10.3855
▁slide	-10.3855
tum	-10.3857
▁teachers	-10.386
ographic	-10.3868
▁range	-10.3871
gegeben	-10.388
▁Physik	-10.3882
▁profit	-10.3883
nor	-10.3888
kreis	-10.3892
pped	-10.3899
▁Wald	-10.39
▁Stein	-10.3901
▁speziell	-10.391
▁Dorf	-10.391
▁Leistung	-10.391
▁High	-10.391
▁window	-10.3911
▁cold	-10.3921
▁jobs	-10.3928
▁mom	-10.3936
▁legal	-10.3941
zustellen	-10.3941
▁limit	-10.3942
wie	-10.3942
▁manage	-10.3948
▁Klasse	-10.3952
▁burn	-10.3953
▁foot	-10.3955
Ver	-10.3957
kal	-10.396
▁Software	-10.3965
▁principle	-10.3965
▁respond	-10.3965
▁unique	-10.3965
▁expert	-10.3965
▁alive	-10.3967
rad	-10.3979
▁training	-10.3981
▁etc	-10.3982
rap	-10.3983
▁erfahren	-10.3986
▁Nachricht	-10.3987
▁gefährlich	-10.3992
▁Arzt	-10.3993
▁trotzdem	-10.3994
▁somehow	-10.3996
▁indeed	-10.3996
▁Beispiele	-10.3997
▁Industrie	-10.3997
▁ended	-10.4005
▁brains	-10.4011
▁dritte	-10.4011
▁negative	-10.4013
▁rund	-10.4015
▁Gefängnis	-10.402
▁schrecklich	-10.402
▁afford	-10.402
▁Wirklichkeit	-10.402
▁Mond	-10.4025
▁retten	-10.4029
▁Erd	-10.4033
▁complete	-10.4036
▁objects	-10.4036
▁Tri	-10.4038
▁website	-10.4048
▁activity	-10.4048
▁Finger	-10.405
ram	-10.4061
▁George	-10.4075
▁kept	-10.4075
▁winzig	-10.4076
▁tool	-10.4076
▁Spaß	-10.4076
▁anschauen	-10.4076
▁freedom	-10.4076
wal	-10.4088
▁hell	-10.4091
▁nenne	-10.4095
▁seltsam	-10.4103
▁erzeugen	-10.4103
lief	-10.4103
▁crisis	-10.4103
▁wife	-10.4105
▁Sinne	-10.4105
▁reading	-10.4111
▁Tagen	-10.4113
▁unge	-10.4117
▁factor	-10.4118
▁Look	-10.412
last	-10.4128
▁complicated	-10.4131
▁please	-10.4131
▁female	-10.4131
▁Text	-10.4132
▁Früh	-10.4134
Do	-10.4141
▁Sha	-10.4144
▁Arab	-10.4149
▁Pf	-10.4156
▁email	-10.4159
▁»	-10.4159
▁unmöglich	-10.4161
▁Ur	-10.4172
▁Gesetz	-10.4175
▁serious	-10.4175
▁hohe	-10.4176
▁strange	-10.4177
Q	-10.4187
▁Bakterien	-10.4187
▁reduce	-10.4187
▁ehrlich	-10.4187
▁pen	-10.4188
▁Uni	-10.4189
▁Neuro	-10.4193
esten	-10.4195
▁town	-10.4203
sprach	-10.4207
▁humanity	-10.4211
▁Wesen	-10.4212
▁models	-10.4214
▁impossible	-10.4215
▁famous	-10.4215
▁jump	-10.4219
hop	-10.4227
▁current	-10.4232
typ	-10.4232
▁policy	-10.4244
▁square	-10.4244
▁«	-10.4244
▁Ob	-10.4245
lly	-10.4245
▁Ti	-10.4247
▁respect	-10.4251
▁rise	-10.4256
▁denkt	-10.4263
▁arbeite	-10.4263
▁lower	-10.4267
▁fu	-10.4267
▁aussieht	-10.4272
▁gewinnen	-10.4272
▁content	-10.4273
▁einzelnen	-10.4273
▁architecture	-10.4273
rüber	-10.4281
▁Hoch	-10.4286
bal	-10.4294
▁lebt	-10.4299
▁nannte	-10.4301
▁nutzt	-10.4301
▁laut	-10.4303
tür	-10.4308
▁Orten	-10.431
Ma	-10.4319
ata	-10.4322
▁existiert	-10.4326
▁studies	-10.4329
▁Schlaf	-10.4329
▁unglaubliche	-10.4332
aging	-10.4333
▁larger	-10.4344
▁hört	-10.4346
▁England	-10.4357
▁Schmerz	-10.4357
▁erklärt	-10.4357
▁anymore	-10.4357
▁symbol	-10.4358
bit	-10.4367
▁Liste	-10.4367
▁dar	-10.4367
▁Beziehungen	-10.4368
▁race	-10.4368
wort	-10.437
▁starts	-10.4373
▁Komm	-10.4375
▁products	-10.4382
▁press	-10.4385
▁finger	-10.4385
▁painting	-10.4386
▁saß	-10.4386
▁verbinden	-10.4386
▁Ball	-10.4389
artige	-10.4397
▁tolle	-10.4413
▁effort	-10.4415
industrie	-10.4415
▁biology	-10.4415
▁doctors	-10.4416
▁pieces	-10.4417
▁Gegen	-10.4419
▁serve	-10.442
sinn	-10.4421
▁paint	-10.4423
▁Damit	-10.4424
▁Indian	-10.4426
▁ni	-10.4427
wohn	-10.4429
sitz	-10.4431
▁service	-10.4432
zunehmen	-10.4441
▁arbeitet	-10.4442
▁healthy	-10.4444
▁electricity	-10.4445
▁möglichen	-10.4446
▁Like	-10.445
▁cook	-10.4451
▁specific	-10.4451
Le	-10.4461
jo	-10.4462
▁Nord	-10.4472
▁irgendeine	-10.4473
▁performance	-10.4474
ktor	-10.4478
wechsel	-10.448
▁Medikamente	-10.4481
▁Landes	-10.4485
▁bus	-10.4487
▁Fo	-10.449
▁jungen	-10.4492
mic	-10.4496
▁communication	-10.4501
▁enjoy	-10.4501
▁entdecken	-10.4502
▁eben	-10.4511
bed	-10.4517
▁gebracht	-10.4522
▁rain	-10.4522
▁allows	-10.4523
▁fair	-10.4526
weise	-10.4528
▁Ressourcen	-10.4531
▁written	-10.4531
▁solchen	-10.4538
▁großes	-10.4539
wing	-10.4549
▁befinden	-10.4549
tausend	-10.4551
ians	-10.4555
▁Führung	-10.456
▁Mr	-10.4585
▁lit	-10.4587
▁flu	-10.4588
▁Museum	-10.4589
▁brother	-10.4589
▁heutzutage	-10.4589
▁reflect	-10.4589
▁Finanz	-10.4589
▁gefragt	-10.4591
▁Bra	-10.4592
▁Wieder	-10.4593
▁mobile	-10.4593
▁camp	-10.4599
▁harm	-10.4601
▁upon	-10.4601
rand	-10.4604
▁Sterne	-10.4614
▁patterns	-10.4618
▁Elektro	-10.4618
▁veröffentlicht	-10.4618
▁gering	-10.4621
▁“	-10.4621
ätze	-10.4626
ark	-10.4627
▁Glauben	-10.463
ologen	-10.463
▁gehe	-10.4634
▁hum	-10.4643
▁Harvard	-10.4648
▁Wahrscheinlich	-10.4648
▁35	-10.4657
▁radio	-10.466
▁sad	-10.4664
tausch	-10.467
▁fat	-10.4671
▁aufgrund	-10.4674
▁document	-10.4677
▁intelligence	-10.4677
▁cheap	-10.4677
▁decide	-10.4678
▁Organisation	-10.4678
0,000	-10.4679
▁leisten	-10.4681
▁starb	-10.4683
▁mar	-10.4693
▁genetisch	-10.4694
▁gekommen	-10.4695
▁rat	-10.4695
▁fühlt	-10.4696
▁lines	-10.4706
▁produzieren	-10.4707
▁Bäume	-10.4707
▁purpose	-10.4707
▁poll	-10.4716
▁keiner	-10.4716
▁y	-10.4718
▁genes	-10.4718
▁politische	-10.4733
▁neun	-10.4736
▁alternative	-10.4736
▁hilft	-10.4736
▁Bühne	-10.4737
cal	-10.4744
▁haven	-10.4756
ush	-10.4764
▁anywhere	-10.4766
▁irgendwo	-10.4766
▁verbreitet	-10.4766
▁dangerous	-10.4767
▁versuche	-10.4767
▁entstand	-10.4775
hält	-10.4775
▁glass	-10.4779
▁dreht	-10.4783
▁Fotos	-10.4784
▁final	-10.4785
▁greatest	-10.4785
▁lesson	-10.4785
over	-10.4786
▁spring	-10.479
▁Ok	-10.4796
▁niedrig	-10.4796
▁separate	-10.4796
▁becoming	-10.4796
▁Frieden	-10.4796
▁wenige	-10.4797
▁dauert	-10.4798
▁series	-10.4798
▁dadurch	-10.4799
▁Eines	-10.4818
▁Tom	-10.4819
▁Prinzip	-10.4824
gh	-10.4826
▁earlier	-10.4826
▁significant	-10.4826
▁coral	-10.4826
▁Ton	-10.4828
▁Vergleich	-10.4831
▁schwarze	-10.4833
▁spin	-10.4842
▁tri	-10.4845
pose	-10.4846
▁läuft	-10.4847
pping	-10.4848
▁Second	-10.4856
▁öffentlichen	-10.4857
▁Kar	-10.4857
▁Trans	-10.4859
▁buildings	-10.4862
▁Beruf	-10.4864
▁Million	-10.4864
▁listening	-10.4867
▁hero	-10.487
▁Gl	-10.4875
▁eure	-10.4881
▁wert	-10.4883
▁Gelegenheit	-10.4886
▁military	-10.4886
▁Artikel	-10.4886
▁Botschaft	-10.4886
▁solutions	-10.4901
▁September	-10.4916
▁erinnert	-10.4916
▁Manchmal	-10.4916
▁School	-10.4916
▁verkauft	-10.4917
▁schützen	-10.4917
▁rule	-10.4922
ball	-10.4926
▁capital	-10.4935
▁drink	-10.4941
gie	-10.4942
▁unterstützen	-10.4947
▁untersuchen	-10.4947
▁His	-10.4947
▁trade	-10.4957
▁gold	-10.4959
▁kannst	-10.4961
baren	-10.4961
▁gestellt	-10.4963
▁decisions	-10.4965
▁son	-10.4973
ya	-10.4975
▁target	-10.4977
▁charge	-10.4977
Hey	-10.4977
▁define	-10.498
▁Architektur	-10.4981
liegen	-10.4985
▁Sekunden	-10.4991
▁einander	-10.4996
He	-10.5003
▁Red	-10.5004
▁effective	-10.5005
▁Aspekt	-10.5008
▁mistake	-10.5008
▁besondere	-10.5008
▁fossil	-10.5008
▁Flug	-10.5011
▁hält	-10.5014
zo	-10.502
▁spot	-10.502
▁actual	-10.5028
▁Schlüssel	-10.5038
▁erwartet	-10.5038
▁Element	-10.5038
▁Spitze	-10.5038
▁Drei	-10.5043
grat	-10.5044
minister	-10.5056
gezogen	-10.5056
▁benötigt	-10.5069
▁gift	-10.5069
▁Hirn	-10.5069
▁worry	-10.5076
Sie	-10.5083
▁trick	-10.5087
kur	-10.5092
kor	-10.5095
▁außerhalb	-10.51
▁familiar	-10.51
▁Fluss	-10.51
▁Manche	-10.5102
▁Fuß	-10.5103
ates	-10.5106
▁Sand	-10.5112
▁Times	-10.5113
▁Jede	-10.5118
▁zero	-10.5118
▁clearly	-10.5123
▁himself	-10.513
▁Auswirkungen	-10.513
▁Krankenhaus	-10.5131
▁enormous	-10.5132
▁raise	-10.5135
Ha	-10.5149
▁danke	-10.5151
Es	-10.5159
▁Aktivität	-10.5161
▁Geh	-10.5162
▁institutions	-10.5165
pot	-10.5173
▁decades	-10.5174
▁Mut	-10.5178
lage	-10.5183
▁Ingenieur	-10.5192
▁Klimawandel	-10.5192
▁expensive	-10.5192
▁temperature	-10.5193
▁hinzu	-10.5193
▁Feld	-10.5193
▁neurons	-10.5195
▁fan	-10.5196
▁Erstens	-10.5197
▁waiting	-10.5199
▁Zeitpunkt	-10.5202
▁sowohl	-10.5205
▁demand	-10.5211
▁Unser	-10.5213
fähig	-10.5218
problem	-10.5218
▁globalen	-10.5221
▁Vertrauen	-10.5224
▁MIT	-10.5224
▁Feuer	-10.5224
▁verstanden	-10.5224
▁Forscher	-10.5224
▁throughout	-10.523
▁machines	-10.5236
unter	-10.5237
▁Mc	-10.5244
▁Journal	-10.5255
▁höchst	-10.5255
▁virtual	-10.5255
▁Regierungen	-10.5258
maschine	-10.5258
▁smaller	-10.5259
▁Gleich	-10.5262
▁Designer	-10.5267
▁passen	-10.5279
reiben	-10.528
gung	-10.5285
▁öffentliche	-10.5285
▁cases	-10.5286
▁contain	-10.5286
▁Wunder	-10.5286
▁Schwester	-10.5287
lies	-10.5294
▁Name	-10.5301
▁75	-10.5303
▁Genom	-10.5304
▁leg	-10.5309
▁Pen	-10.5311
▁Imagine	-10.5318
▁Richard	-10.5318
▁financial	-10.5318
▁physics	-10.5318
▁babies	-10.5318
▁instance	-10.5318
▁entschieden	-10.5322
▁skills	-10.5323
▁Klein	-10.5327
▁Maschinen	-10.5329
träge	-10.5332
▁Mach	-10.5334
▁Americans	-10.5338
▁bisher	-10.5339
ju	-10.534
Wo	-10.534
▁Linie	-10.5347
▁Darwin	-10.5349
▁Fri	-10.5351
▁environmental	-10.5352
▁mix	-10.5353
▁Bis	-10.5357
▁Vorteil	-10.5358
▁bestehen	-10.5358
▁trip	-10.5363
▁Werte	-10.5365
▁corner	-10.5366
▁Systeme	-10.5378
▁Englisch	-10.5381
▁expand	-10.5381
▁Polizei	-10.5381
▁protein	-10.5381
▁normalerweise	-10.5382
▁pressure	-10.5382
staat	-10.5383
▁Baum	-10.5394
▁Lösungen	-10.54
▁bone	-10.5403
▁erleben	-10.5403
▁wunderbare	-10.5404
▁bear	-10.5404
▁schlimm	-10.5405
viel	-10.5407
▁Which	-10.5413
▁Tisch	-10.5414
▁herausfinden	-10.5414
tat	-10.5418
▁Gefahr	-10.5419
▁sammeln	-10.5423
▁Erfahrungen	-10.5428
energie	-10.5429
▁runter	-10.5431
▁Beste	-10.5431
handel	-10.5432
krat	-10.5435
▁fail	-10.5435
▁geschehen	-10.5444
erei	-10.5445
▁hab	-10.5447
▁forget	-10.5449
karte	-10.5449
▁hair	-10.545
▁globale	-10.5453
term	-10.5458
▁Lernen	-10.5463
▁prove	-10.5468
▁transport	-10.5474
▁weight	-10.5475
▁Verständnis	-10.5476
▁diejenigen	-10.5476
▁Kurz	-10.5477
▁sensor	-10.5477
▁Solar	-10.5478
▁zufällig	-10.5482
▁Regel	-10.5482
▁Einstein	-10.5483
▁messen	-10.5487
▁except	-10.5497
▁Freude	-10.5508
▁honest	-10.5508
▁extreme	-10.551
▁forms	-10.5511
▁Farbe	-10.5514
▁unit	-10.5515
▁sexual	-10.5521
▁warten	-10.5521
spann	-10.5522
air	-10.5523
▁tells	-10.553
schicht	-10.5536
▁Bett	-10.554
▁einzigen	-10.554
▁verursacht	-10.5541
▁adapt	-10.5541
▁sister	-10.5541
wissenschaft	-10.5542
▁größere	-10.5545
▁Auge	-10.5546
graph	-10.5548
yo	-10.5558
mine	-10.556
▁Lang	-10.5562
▁robots	-10.5564
▁Herzen	-10.5565
▁shared	-10.5568
▁Wege	-10.5571
▁erinnere	-10.5573
▁fantastic	-10.5573
▁illegal	-10.5573
schutz	-10.5573
▁heat	-10.5574
gebiet	-10.5574
▁Projekte	-10.5584
▁web	-10.5585
▁Grad	-10.5587
▁persönliche	-10.5592
▁accident	-10.5605
▁bloß	-10.5606
▁Bezug	-10.5614
▁taten	-10.5616
▁points	-10.5617
▁persönlich	-10.5618
▁river	-10.5621
▁stars	-10.5622
heben	-10.5631
▁echt	-10.5633
▁atmosphere	-10.5638
▁match	-10.5638
▁Methode	-10.5639
▁Stunde	-10.5639
▁schaut	-10.564
▁immediately	-10.5641
stadt	-10.5642
▁ban	-10.5645
▁Den	-10.5655
werte	-10.5655
▁Hy	-10.5661
▁Hin	-10.5667
▁challenges	-10.567
▁Geräusch	-10.567
▁include	-10.567
▁erwarten	-10.567
▁erlebt	-10.567
▁walked	-10.567
▁selten	-10.5671
▁geschah	-10.5672
▁Formen	-10.5677
▁decade	-10.569
▁Sport	-10.5692
▁sorts	-10.5692
prüf	-10.5703
▁Ordnung	-10.5703
▁cultural	-10.5703
▁driving	-10.5703
▁Francisco	-10.5703
▁pu	-10.5703
▁income	-10.5708
▁ahead	-10.5708
▁Post	-10.5717
▁fallen	-10.5719
▁Punkte	-10.5722
▁Op	-10.5724
lick	-10.5724
führung	-10.573
licher	-10.5732
arian	-10.5733
illa	-10.5734
▁Ei	-10.5734
▁vehicle	-10.5736
▁wunderschön	-10.5736
▁Another	-10.5736
▁wählen	-10.5736
▁erzeugt	-10.5736
▁vote	-10.5742
person	-10.5743
barkeit	-10.575
isierte	-10.5758
▁circle	-10.5769
▁landscape	-10.5769
▁politics	-10.5769
▁helped	-10.5774
▁catch	-10.5781
▁services	-10.5782
gesellschaft	-10.5783
▁pop	-10.5787
▁Western	-10.5787
▁scar	-10.5789
skraft	-10.579
zogen	-10.5793
alität	-10.5795
steuer	-10.5796
▁trouble	-10.5802
▁Entdeckung	-10.5802
▁beauty	-10.5802
prozess	-10.5802
▁neighborhood	-10.5802
▁biological	-10.5802
▁Detail	-10.5803
▁ernst	-10.5816
arbeiten	-10.5819
zubringen	-10.5834
▁beeinflusst	-10.5835
▁behaupte	-10.5835
▁praktisch	-10.5835
▁collective	-10.5839
▁motor	-10.5839
▁greater	-10.5844
urf	-10.5847
cut	-10.5863
▁müsste	-10.5866
▁Verantwortung	-10.5868
▁speech	-10.5868
▁statistic	-10.5868
▁Sun	-10.5871
▁option	-10.5871
▁geschaffen	-10.5872
list	-10.5873
▁beach	-10.5875
▁cur	-10.5875
▁teaching	-10.5883
▁Handel	-10.589
▁optim	-10.5896
▁beschäftigt	-10.5901
▁Geburt	-10.5901
▁dasselbe	-10.5902
reichen	-10.5902
▁broken	-10.5904
▁mess	-10.5907
▁production	-10.5907
star	-10.5908
▁fällt	-10.5916
gelegt	-10.592
▁Many	-10.5922
▁heutigen	-10.5926
▁Mir	-10.5929
▁herunter	-10.5932
▁berühmt	-10.5935
▁cloud	-10.5935
▁terrible	-10.5935
▁Tochter	-10.5935
▁gedacht	-10.5935
▁Junge	-10.5939
▁Two	-10.594
▁brand	-10.5941
cor	-10.5956
▁Sommer	-10.5962
▁Glas	-10.5966
▁König	-10.5968
▁therefore	-10.5969
▁professional	-10.5969
▁failure	-10.597
▁genome	-10.597
▁ebenso	-10.5973
▁ideal	-10.5973
▁willing	-10.5974
place	-10.5984
▁Kor	-10.5992
▁sand	-10.5995
▁active	-10.6
▁entweder	-10.6002
▁Signal	-10.6002
▁spoke	-10.6003
▁sowie	-10.6004
▁Veränderungen	-10.6007
▁legs	-10.6009
kind	-10.6011
▁Westen	-10.6014
▁Lehr	-10.6022
▁whose	-10.6029
▁apply	-10.6031
▁Amazon	-10.6036
▁NASA	-10.6036
▁distance	-10.6036
▁summer	-10.604
▁Frank	-10.6041
▁Jungen	-10.6042
▁rechts	-10.6045
▁north	-10.6049
vier	-10.6049
▁Geb	-10.606
La	-10.6063
▁befindet	-10.607
▁Lieblings	-10.607
▁communicate	-10.607
▁yeah	-10.607
▁influence	-10.607
▁behandelt	-10.607
▁generate	-10.6073
▁Werk	-10.6079
▁Fische	-10.6081
far	-10.6088
ziert	-10.6094
modell	-10.6103
▁values	-10.6103
▁birth	-10.6103
▁afraid	-10.6104
▁straight	-10.6104
▁Think	-10.6104
▁Betracht	-10.6104
▁selben	-10.6105
▁emerge	-10.6105
neu	-10.6117
geschichte	-10.6121
▁22	-10.6128
▁relationships	-10.6129
▁Fu	-10.6136
▁produziert	-10.6138
mäßig	-10.6138
▁method	-10.6138
▁Drogen	-10.6138
▁dunkle	-10.6138
▁Kilometer	-10.6138
füll	-10.6138
▁Sozial	-10.6138
▁voraus	-10.614
▁Sal	-10.6142
▁useful	-10.6151
▁levels	-10.6153
▁types	-10.6153
Mail	-10.6154
pre	-10.6165
▁double	-10.6172
▁Schutz	-10.6173
▁übrigens	-10.6174
▁Nähe	-10.6174
▁Autor	-10.6175
▁Verb	-10.6177
craft	-10.6177
▁lief	-10.6181
▁sum	-10.6185
▁mächtig	-10.6185
▁Gang	-10.6185
nung	-10.6188
▁boat	-10.6192
▁Frei	-10.6193
▁interaction	-10.6196
▁amerikanischen	-10.6197
▁colleagues	-10.6199
▁algorithm	-10.6206
▁genutzt	-10.6206
▁getroffen	-10.6206
▁behandeln	-10.6207
▁random	-10.6207
▁Überleben	-10.6209
▁Opfer	-10.621
strahl	-10.621
ix	-10.6211
egel	-10.6214
▁Motor	-10.6217
▁passion	-10.6219
▁Ehe	-10.6221
▁Last	-10.6221
▁obvious	-10.6229
▁brauchte	-10.6231
▁Noch	-10.6233
▁Rand	-10.6236
pack	-10.6237
▁author	-10.6238
▁architect	-10.624
struktur	-10.6241
▁California	-10.6241
▁Leidenschaft	-10.6241
▁Nehmen	-10.6241
▁popular	-10.6241
▁vollständig	-10.6242
▁schicken	-10.6242
▁edge	-10.6244
▁forth	-10.6249
▁station	-10.6251
▁laws	-10.6252
nahme	-10.6255
▁überleben	-10.6262
50	-10.6268
ification	-10.627
▁Suche	-10.6274
▁Antworten	-10.6275
▁various	-10.6275
leistung	-10.6277
▁Quelle	-10.6277
▁select	-10.6278
▁Seit	-10.6281
▁engineering	-10.6283
▁verbringen	-10.6288
bank	-10.6297
▁quick	-10.6301
▁km	-10.6304
▁Charakter	-10.631
▁konzentrieren	-10.631
▁possibly	-10.631
▁Instead	-10.631
▁capture	-10.631
▁effektiv	-10.631
▁Schwarz	-10.631
▁wealth	-10.6311
▁aren	-10.6311
▁describe	-10.6316
▁mission	-10.6316
▁costs	-10.6322
asse	-10.6329
▁choices	-10.633
▁legen	-10.6336
plica	-10.6337
krieg	-10.6339
▁neighbor	-10.6345
▁recent	-10.6345
▁Nerven	-10.6345
▁understood	-10.6345
▁spricht	-10.6345
▁television	-10.6345
▁install	-10.6346
▁Version	-10.6346
▁Gemeinde	-10.6351
▁Life	-10.6353
▁flying	-10.636
wesen	-10.6362
▁Gefühle	-10.637
▁citizens	-10.6379
▁Zelle	-10.6381
▁stopped	-10.6382
▁Gesetze	-10.6389
▁invented	-10.64
ily	-10.6403
Ein	-10.6412
▁climb	-10.6415
▁disappear	-10.6415
▁außergewöhnlich	-10.6415
▁saving	-10.642
▁rid	-10.6429
▁Schiff	-10.6449
▁Jedes	-10.645
▁Höhe	-10.645
▁Charles	-10.645
▁consequence	-10.645
▁Volk	-10.645
▁verkaufen	-10.645
zeichen	-10.645
nahmen	-10.645
schaftliche	-10.6457
▁none	-10.6458
▁lu	-10.6461
▁jemandem	-10.6465
anischen	-10.6474
▁speaking	-10.6481
▁Asia	-10.6483
▁societies	-10.6486
▁Plastik	-10.6486
▁Street	-10.6486
▁Erkenntnis	-10.6487
How	-10.6489
▁anyway	-10.6495
design	-10.6497
▁alter	-10.6497
position	-10.65
öl	-10.6501
▁closer	-10.6502
▁organizations	-10.6504
▁Produkte	-10.6506
▁layer	-10.6509
▁express	-10.6513
▁Atmosphäre	-10.6521
▁Identität	-10.6521
▁Schönheit	-10.6521
▁insect	-10.6521
▁Tumor	-10.6521
▁Fenster	-10.6521
▁Biologie	-10.6522
▁apart	-10.6525
▁Professor	-10.6526
▁welcher	-10.6531
▁herstellen	-10.6532
▁Haben	-10.6535
kauf	-10.6537
▁College	-10.6557
▁2010	-10.6557
▁creativity	-10.6557
▁sequence	-10.6557
▁struggle	-10.6557
▁surround	-10.6557
forschung	-10.6557
▁aufregend	-10.6557
▁Gewinn	-10.6557
▁worst	-10.6557
anische	-10.6563
▁condition	-10.6564
▁noise	-10.6574
▁mostly	-10.6581
uten	-10.6582
▁seemed	-10.6585
It	-10.6585
▁endlich	-10.6585
nisse	-10.6586
source	-10.6587
▁net	-10.6591
▁allgemein	-10.6592
▁Etwa	-10.6593
▁patent	-10.6594
▁Bienen	-10.6596
uff	-10.6598
▁nahmen	-10.6605
▁following	-10.6607
▁Männern	-10.6607
▁seat	-10.6609
▁nor	-10.6613
▁drin	-10.6614
▁disc	-10.6617
▁Brot	-10.6617
▁sick	-10.6618
alter	-10.6623
▁remarkable	-10.6628
▁deutlich	-10.6628
▁vast	-10.6629
▁sold	-10.6632
▁untersucht	-10.6634
▁gain	-10.6635
▁lack	-10.664
dauer	-10.6641
▁Gehirns	-10.6642
▁tag	-10.6646
▁Schl	-10.6647
▁verw	-10.6648
▁diseases	-10.6657
suche	-10.6662
▁civil	-10.6664
▁custom	-10.6664
taucht	-10.6671
▁Städten	-10.6673
▁directly	-10.6674
▁Einer	-10.6693
▁Eigenschaften	-10.6696
▁Va	-10.6696
Mo	-10.6697
fisch	-10.6697
▁Perspektive	-10.67
▁sample	-10.67
▁Kontakt	-10.67
einhalb	-10.6701
▁Geschlecht	-10.6701
▁Cor	-10.6702
▁erhielt	-10.6708
eute	-10.6709
▁Regen	-10.6709
▁copy	-10.6713
▁below	-10.6713
tzen	-10.6713
istische	-10.6718
▁held	-10.6718
▁Einkommen	-10.6719
▁Jahrhunderts	-10.6721
markt	-10.6726
▁fehl	-10.6726
▁Depression	-10.6737
▁although	-10.6737
▁infrastructure	-10.6737
▁steckt	-10.6737
▁iron	-10.6737
▁spät	-10.6737
▁normale	-10.6749
▁driver	-10.6751
fro	-10.6753
▁wide	-10.6754
▁virus	-10.6758
lop	-10.6761
ließ	-10.6763
▁Ganze	-10.6766
▁wichtigsten	-10.677
▁folgt	-10.6773
ological	-10.6774
mobil	-10.6775
▁23	-10.678
▁Gas	-10.6786
▁engine	-10.6789
bruch	-10.6789
▁ihres	-10.6791
▁effects	-10.6793
▁shop	-10.6797
▁Freunden	-10.6806
▁belief	-10.6808
▁Anti	-10.6809
▁Chicago	-10.6809
▁beobachtet	-10.6809
▁central	-10.6809
▁Karriere	-10.681
▁shoot	-10.681
▁shark	-10.681
▁2008	-10.6814
▁paid	-10.6816
▁wunderbar	-10.6819
▁existieren	-10.6822
▁scientist	-10.6824
zusetzen	-10.6824
▁Band	-10.6829
▁loss	-10.6845
verständlich	-10.6846
▁erfunden	-10.6846
▁destroy	-10.6846
▁supply	-10.6846
▁wesentlich	-10.6846
▁kämpfen	-10.6846
▁99	-10.6849
▁dieselbe	-10.6853
▁Inhalt	-10.6859
▁labor	-10.6878
▁capacity	-10.6883
▁switch	-10.6883
▁gather	-10.6883
▁Ahnung	-10.6883
▁argue	-10.6883
▁Gar	-10.6883
▁traditionelle	-10.6884
▁kostet	-10.6884
▁Tim	-10.6885
▁boys	-10.6886
▁politischen	-10.689
▁noticed	-10.6892
▁amerikanische	-10.6893
▁published	-10.6898
komm	-10.6911
▁Chi	-10.692
▁imagination	-10.692
issen	-10.692
▁profound	-10.692
▁Standard	-10.6921
Wenn	-10.6924
▁Worten	-10.6924
▁Werkzeuge	-10.6926
▁lautet	-10.6944
▁Pre	-10.6945
führ	-10.6953
izieren	-10.6953
▁Kreativität	-10.6957
▁seconds	-10.6959
▁Begriff	-10.6967
bauen	-10.6971
▁birds	-10.6973
lager	-10.6974
▁spreche	-10.699
▁mid	-10.6991
▁technique	-10.6994
▁tissue	-10.6994
▁giant	-10.6994
▁From	-10.6994
▁damage	-10.6994
▁fuhr	-10.6996
▁Welche	-10.6997
▁rare	-10.7001
Nein	-10.7008
▁lies	-10.702
▁Knochen	-10.7031
▁Michael	-10.7031
▁instrument	-10.7031
▁feature	-10.7031
▁rational	-10.7032
gerät	-10.7035
hängen	-10.7035
▁replace	-10.7037
▁emotions	-10.7048
▁wood	-10.7057
▁Alzheimer	-10.7069
▁ebenfalls	-10.7069
▁slightly	-10.7069
▁Position	-10.7069
▁interpret	-10.7069
▁Kohle	-10.707
▁guter	-10.7072
hung	-10.7072
fahrt	-10.7077
▁gebe	-10.708
▁Over	-10.709
▁natürliche	-10.7096
▁react	-10.7096
hilfe	-10.71
▁trotz	-10.7104
▁Instrument	-10.7106
▁Strategie	-10.7106
▁easier	-10.7106
▁industrial	-10.7106
▁nötig	-10.7106
▁traffic	-10.7106
▁nachhaltig	-10.7107
▁James	-10.7107
▁aware	-10.7108
▁master	-10.7115
▁Keine	-10.7124
▁causes	-10.7138
▁occur	-10.7143
setzung	-10.7144
▁brilliant	-10.7144
▁conference	-10.7144
▁Great	-10.7144
▁combine	-10.7145
▁dying	-10.7145
▁funny	-10.7145
▁south	-10.7146
▁Dort	-10.7151
▁Zustand	-10.7152
▁Island	-10.7155
schrei	-10.7158
▁Big	-10.7159
liebe	-10.7163
▁frühen	-10.7164
▁billig	-10.7176
tech	-10.7178
▁dad	-10.718
▁$	-10.7181
▁Brazil	-10.7182
▁einzigartig	-10.7182
▁identity	-10.7182
▁satellite	-10.7182
▁husband	-10.7182
▁trifft	-10.7182
▁tumor	-10.7182
▁Tausende	-10.7182
▁Geheimnis	-10.7182
▁Anderson	-10.7183
▁unabhängig	-10.7183
▁sentence	-10.7184
Warum	-10.7184
▁Paris	-10.7186
Why	-10.7187
▁desire	-10.7189
▁sau	-10.719
▁nett	-10.7201
▁Unterschiede	-10.7213
▁Air	-10.7214
▁surprising	-10.722
▁governments	-10.722
▁Protein	-10.7221
▁Titel	-10.7221
▁entstehen	-10.7223
pper	-10.7229
▁Osten	-10.7232
▁Schlag	-10.7233
▁nearly	-10.724
▁Werkzeug	-10.7252
erie	-10.7253
▁differently	-10.7256
▁Wohn	-10.7257
▁halb	-10.7257
▁einfacher	-10.7257
▁Intelligenz	-10.7258
▁Pakistan	-10.7258
▁iPhone	-10.7258
▁oxygen	-10.7258
▁öffnen	-10.7258
▁gilt	-10.7258
▁Lauf	-10.726
▁weren	-10.7263
▁bra	-10.7264
▁Ganz	-10.7266
▁gap	-10.7267
▁Einsatz	-10.7267
▁Your	-10.7284
▁Teilen	-10.7296
▁refugee	-10.7296
▁ermöglichen	-10.7297
▁hack	-10.7298
nimmt	-10.7298
Da	-10.7299
▁highly	-10.7302
▁Wandel	-10.7303
▁pig	-10.7306
▁stabil	-10.7307
▁beat	-10.732
▁kurze	-10.7324
▁mini	-10.7332
▁Todes	-10.7334
▁commercial	-10.7335
▁sogenannte	-10.7335
▁ursprünglich	-10.7335
▁ancient	-10.7335
▁Steuer	-10.7335
▁Operation	-10.7335
▁promise	-10.7335
▁pan	-10.7339
▁fühle	-10.7344
▁weiterhin	-10.7344
▁starke	-10.735
▁Tieren	-10.7357
▁Bur	-10.7371
▁Sauerstoff	-10.7373
▁determine	-10.7373
▁surgery	-10.7373
▁überrascht	-10.7373
▁balance	-10.7373
▁sharing	-10.7374
▁helping	-10.7374
▁Link	-10.7376
▁halbe	-10.7376
▁attract	-10.7376
▁Träume	-10.7379
▁tradition	-10.7396
▁Geschwindigkeit	-10.7412
▁Korallen	-10.7412
▁Müll	-10.7412
▁graduate	-10.7412
▁shock	-10.7414
▁gotten	-10.7418
▁unver	-10.7419
▁Ansicht	-10.7421
▁blog	-10.7424
▁played	-10.7427
Un	-10.7435
sätze	-10.7438
▁grab	-10.7446
▁Jobs	-10.7449
▁tremendous	-10.7451
▁Bildschirm	-10.7452
tete	-10.7455
▁weird	-10.7455
▁Boot	-10.7472
▁Mess	-10.7477
▁sport	-10.7481
▁BG	-10.7481
▁plane	-10.7483
▁fill	-10.7484
▁ähnliche	-10.7488
kin	-10.7488
▁YouTube	-10.749
▁component	-10.749
▁kontrollieren	-10.749
▁Anwendung	-10.749
▁recover	-10.749
▁avoid	-10.749
▁classroom	-10.7491
▁überzeugen	-10.7491
▁Insel	-10.7492
▁fangen	-10.7495
bereit	-10.7497
ura	-10.7498
▁Lied	-10.7501
▁Port	-10.7508
breite	-10.7512
▁campaign	-10.7529
▁continent	-10.7529
▁dynamic	-10.7529
▁responsibility	-10.7529
▁vermutlich	-10.7529
▁bought	-10.7529
▁addition	-10.753
▁log	-10.7531
▁earth	-10.7534
▁eigenes	-10.7534
▁riesigen	-10.7535
▁stellten	-10.7537
▁kenne	-10.7542
▁evolved	-10.7544
▁0	-10.7555
▁gegangen	-10.7562
körper	-10.7568
▁Gewicht	-10.7569
▁Zeichen	-10.7569
▁easily	-10.7569
▁relevant	-10.7569
▁religious	-10.7569
▁zusätzlich	-10.7569
fassung	-10.7569
▁sustainable	-10.7571
▁Farben	-10.7571
▁tausende	-10.7574
▁afrikanische	-10.7575
▁seien	-10.7578
▁Laufe	-10.7581
▁Gro	-10.7581
lagen	-10.7584
▁programs	-10.7595
bildung	-10.7606
▁Rede	-10.7608
▁diversity	-10.7608
▁faszinierend	-10.7608
▁opposite	-10.7608
▁sector	-10.7608
▁reagieren	-10.7608
▁tax	-10.761
▁Kunden	-10.7611
▁basis	-10.7611
Ko	-10.7616
ugg	-10.7632
gramm	-10.7633
▁Waffen	-10.7634
▁zog	-10.764
fährt	-10.7646
▁Objekte	-10.7646
▁entirely	-10.7648
▁Großbritannien	-10.7648
▁Temperatur	-10.7648
▁beeinflussen	-10.7648
▁Again	-10.7648
▁border	-10.7648
▁bridge	-10.7649
▁enable	-10.7652
▁Ausdruck	-10.7653
▁grand	-10.7654
▁farmers	-10.7655
länder	-10.7656
▁Kann	-10.7659
▁Einzel	-10.7662
▁Aufnahme	-10.7663
▁Norm	-10.7663
▁core	-10.7665
▁Radio	-10.7666
▁Wirtschafts	-10.7678
▁App	-10.7678
▁produced	-10.7682
▁fully	-10.7685
▁Science	-10.7688
▁Infrastruktur	-10.7688
▁Vielfalt	-10.7688
▁begeistert	-10.7688
▁definition	-10.7688
▁twice	-10.7688
▁remove	-10.7688
▁überzeugt	-10.7688
▁Tief	-10.769
▁Ausbildung	-10.769
▁Ansatz	-10.7696
tiere	-10.77
Du	-10.7706
▁states	-10.7707
▁Gegend	-10.7713
▁Australia	-10.7728
▁chair	-10.7728
▁Häuser	-10.7728
▁Brief	-10.773
▁Materialien	-10.7731
material	-10.7731
▁Lebensmittel	-10.7732
▁Verkehr	-10.7732
▁Angeles	-10.7733
▁members	-10.7735
▁hang	-10.7737
▁missing	-10.7738
▁invent	-10.774
holen	-10.7745
▁langen	-10.7753
▁Center	-10.7762
▁ill	-10.7763
▁jung	-10.7767
▁Phänomen	-10.7768
▁betrifft	-10.7768
▁muscle	-10.7768
▁Schluss	-10.7768
spiegel	-10.7768
▁Zweitens	-10.7768
▁Richtig	-10.7769
▁moralische	-10.7769
▁Landschaft	-10.7776
▁entrepreneur	-10.7779
▁King	-10.7782
▁Mehr	-10.7785
▁Erst	-10.7786
ehren	-10.7792
▁studying	-10.7794
▁Hä	-10.7803
▁begonnen	-10.7808
▁metaphor	-10.7808
▁Mütter	-10.7808
▁angefangen	-10.7808
▁divide	-10.7808
▁despite	-10.7808
▁joy	-10.7808
▁scene	-10.7814
▁blieb	-10.7815
▁herzustellen	-10.7815
▁schien	-10.7816
▁Russia	-10.7816
ave	-10.7822
▁10,000	-10.7824
▁focused	-10.7826
▁hearing	-10.7831
verse	-10.7833
dach	-10.7833
▁differences	-10.7838
not	-10.7839
technologie	-10.784
▁Arch	-10.784
losen	-10.7848
▁Verfügung	-10.7849
▁article	-10.7849
▁roof	-10.7849
▁Gedicht	-10.7849
▁Vision	-10.7849
▁schaute	-10.785
▁strength	-10.785
▁Green	-10.7852
▁kalt	-10.7859
▁host	-10.7859
▁aufgenommen	-10.7862
wirken	-10.7863
hab	-10.7876
▁Durchschnitt	-10.7879
▁Take	-10.7889
▁forces	-10.7889
▁Unterstützung	-10.7889
▁depression	-10.7889
▁bottle	-10.7889
▁verdienen	-10.7889
▁lustig	-10.789
▁Obama	-10.789
▁flight	-10.7894
▁entlang	-10.7896
▁Holz	-10.7898
▁Dan	-10.7898
▁legt	-10.7912
▁600	-10.7912
▁consumer	-10.7913
▁Code	-10.7916
▁lock	-10.7928
▁Statistik	-10.793
▁application	-10.793
▁erwähnt	-10.793
▁cycle	-10.793
▁Würde	-10.793
▁Boston	-10.7931
▁Erzähl	-10.7934
▁dagegen	-10.7935
▁Mont	-10.7936
▁Ecke	-10.7946
gericht	-10.7947
riech	-10.7954
fällig	-10.7964
▁suit	-10.7967
An	-10.7968
▁electro	-10.797
▁streets	-10.7971
▁encourage	-10.7971
▁nützlich	-10.7971
▁Iraq	-10.7971
▁kulturelle	-10.7971
▁civilization	-10.7972
▁outcome	-10.7973
▁Online	-10.7974
▁voran	-10.7975
▁era	-10.7978
▁handeln	-10.7979
▁tough	-10.7979
▁alleine	-10.7979
▁27	-10.7979
▁Filme	-10.7982
▁davor	-10.7982
▁fiel	-10.7989
▁erkannte	-10.799
bereich	-10.7993
▁ear	-10.7994
▁suffering	-10.7997
▁erstellt	-10.7998
▁aid	-10.8004
▁mach	-10.8004
▁entschied	-10.8007
▁erstellen	-10.8011
▁background	-10.8012
▁benötigen	-10.8012
▁buchstäblich	-10.8012
▁sorgen	-10.8014
▁dig	-10.8015
bert	-10.8017
zimmer	-10.8017
teile	-10.8017
▁heran	-10.8019
▁Produktion	-10.8037
▁geh	-10.804
gar	-10.804
▁Verbindungen	-10.8045
▁steigen	-10.8047
▁Fernseh	-10.8049
▁victim	-10.8054
▁election	-10.8054
▁smell	-10.8054
▁chose	-10.8054
▁molecules	-10.8058
▁drawing	-10.8061
▁Effekt	-10.8061
▁Ed	-10.8062
▁party	-10.8063
▁reaction	-10.8066
▁fragten	-10.8067
▁Forschungs	-10.807
▁grundlegende	-10.8074
▁blow	-10.8077
▁quote	-10.8082
▁claim	-10.8095
▁whale	-10.8095
▁klingt	-10.8095
▁technische	-10.8096
▁Massen	-10.8099
▁workers	-10.8099
▁Andere	-10.8103
freund	-10.8103
▁dorthin	-10.8104
▁efficient	-10.8105
cop	-10.8106
▁geo	-10.8107
▁investment	-10.8108
▁inspired	-10.811
jahr	-10.811
plat	-10.8114
▁moon	-10.8116
point	-10.8117
elte	-10.8119
▁Haar	-10.8129
park	-10.813
▁Tradition	-10.8137
▁Zusammenhang	-10.8137
▁crowd	-10.8137
▁Unternehmer	-10.8137
▁bag	-10.8139
▁Neuronen	-10.814
▁absolute	-10.814
▁dritten	-10.815
▁Akt	-10.8154
▁beschreiben	-10.8155
▁nehme	-10.8156
▁Korea	-10.816
▁grade	-10.8161
▁Drittel	-10.8179
▁chinesische	-10.8179
▁correct	-10.8179
▁opportunities	-10.8179
▁typisch	-10.8179
bewegung	-10.818
▁eating	-10.8184
▁entscheidend	-10.8184
▁durchgeführt	-10.8184
schein	-10.8189
macht	-10.82
▁Hinter	-10.82
big	-10.8202
grad	-10.8203
wunder	-10.8203
▁bitten	-10.8211
ppel	-10.8214
geführt	-10.8217
▁Middle	-10.8221
▁Wahrnehmung	-10.8221
▁regular	-10.8221
▁prior	-10.8221
▁chain	-10.8221
▁immun	-10.8221
bon	-10.8221
▁degrees	-10.8222
▁Pflege	-10.8223
▁Sin	-10.8226
▁forever	-10.8234
ali	-10.8235
▁European	-10.8236
▁passed	-10.8237
▁Folge	-10.8239
▁wohin	-10.824
▁ski	-10.826
schluss	-10.8261
▁Wikipedia	-10.8263
▁elektrische	-10.8263
▁entsteht	-10.8263
▁president	-10.8263
▁professor	-10.8263
▁Babys	-10.8263
▁Virus	-10.8263
▁Mai	-10.8264
dienst	-10.8265
▁Großteil	-10.8265
▁Basis	-10.8268
▁Gesellschaften	-10.8278
▁Stand	-10.828
▁Kal	-10.8281
burg	-10.8282
station	-10.8282
▁Spa	-10.8292
▁Sonnen	-10.8295
▁designers	-10.8299
▁More	-10.8301
▁gender	-10.8303
▁Diskussion	-10.8305
▁Militär	-10.8305
▁erforschen	-10.8305
▁estimate	-10.8305
▁stolz	-10.8305
▁Zusammenarbeit	-10.8307
aktiv	-10.8309
▁spending	-10.8313
▁größeren	-10.8317
▁UN	-10.832
finden	-10.8334
gehend	-10.8338
▁Such	-10.8338
▁notion	-10.8339
▁Organisationen	-10.8346
▁Untersuchung	-10.8348
▁Zentrum	-10.8348
▁unbedingt	-10.8348
▁gestalten	-10.8348
▁adopt	-10.8348
▁Qualität	-10.8349
▁importantly	-10.8349
▁Verlust	-10.835
ong	-10.8351
▁Schuld	-10.8352
▁Adam	-10.8352
This	-10.8354
▁Patient	-10.8356
▁investieren	-10.8356
▁lucky	-10.8356
▁darf	-10.836
▁Beine	-10.8362
▁glo	-10.8366
▁Loch	-10.8369
Co	-10.8369
▁Folgen	-10.8372
zelle	-10.8372
maß	-10.8377
▁End	-10.8384
▁Grün	-10.8388
▁Bedingungen	-10.8391
▁Niemand	-10.8391
▁universal	-10.8391
▁Thomas	-10.8391
▁root	-10.8391
▁consciousness	-10.8392
▁Rad	-10.8393
▁radical	-10.8393
▁Satz	-10.8396
▁Bauern	-10.8401
fern	-10.8404
▁parent	-10.8406
schlagen	-10.8421
▁Dem	-10.8429
▁biologische	-10.8429
▁coffee	-10.8434
▁inspiriert	-10.8434
▁contact	-10.8434
▁wuchs	-10.8434
▁stecken	-10.8434
▁British	-10.8434
stimme	-10.8437
▁crime	-10.8437
▁complexity	-10.8441
▁Maß	-10.8441
▁Miss	-10.8447
▁reward	-10.8448
▁entwickelten	-10.8449
▁Weiß	-10.8455
omi	-10.8459
▁meist	-10.8466
kunft	-10.8475
▁Actually	-10.8477
▁identify	-10.8477
▁kommunizieren	-10.8477
schlüsse	-10.8477
▁leadership	-10.8477
▁Faktor	-10.8478
gelassen	-10.848
fluss	-10.8482
▁nochmal	-10.8493
▁basiert	-10.8496
▁Viel	-10.8505
▁GPS	-10.852
▁possibility	-10.852
▁Sometimes	-10.852
▁Kenya	-10.852
stern	-10.8531
hood	-10.8534
▁surprise	-10.8534
ago	-10.8537
▁suffer	-10.8537
▁Geräte	-10.854
stände	-10.854
Y	-10.8543
atic	-10.8544
▁pal	-10.8546
▁deeply	-10.8554
state	-10.8556
▁Politiker	-10.8561
▁Fach	-10.8562
▁spirit	-10.8563
▁employ	-10.8563
▁Komplexität	-10.8563
▁competition	-10.8563
▁kümmern	-10.8563
▁magazine	-10.8563
▁verfügbar	-10.8563
▁faith	-10.8563
▁Institutionen	-10.8564
▁remote	-10.8564
▁hurt	-10.8564
▁score	-10.8566
▁bezahlt	-10.8566
▁2007	-10.8569
wagen	-10.8569
zwischen	-10.8571
▁direct	-10.8571
▁psycho	-10.858
▁dahin	-10.8582
▁EM	-10.8585
▁Sekunde	-10.8588
vision	-10.8589
▁krank	-10.859
head	-10.8595
▁figured	-10.8597
▁nah	-10.8598
stab	-10.8602
matic	-10.8604
tun	-10.8604
▁clever	-10.8607
▁Good	-10.8607
▁Institute	-10.8607
▁However	-10.8611
▁Human	-10.8611
▁Stoff	-10.8612
atter	-10.8618
▁relativ	-10.863
steigen	-10.8634
▁Medikament	-10.8638
regel	-10.864
▁turning	-10.864
▁breit	-10.8647
▁raised	-10.8649
günstig	-10.8651
▁bemerkenswert	-10.8651
▁Gegenteil	-10.8652
▁1980	-10.8653
wärts	-10.8653
▁Zucker	-10.8653
tauchen	-10.8657
▁wander	-10.8657
daten	-10.8658
▁Aufgaben	-10.8668
▁Ziele	-10.8669
▁Bas	-10.8672
▁island	-10.8673
▁umgehen	-10.8674
▁cop	-10.8682
▁Gesch	-10.8683
▁Typen	-10.8688
▁breast	-10.8695
▁fashion	-10.8695
▁strategy	-10.8695
▁Wunsch	-10.8695
▁erlauben	-10.8695
▁truck	-10.8695
▁talent	-10.8695
▁Zuerst	-10.8695
▁Wild	-10.8696
phy	-10.8697
▁1,000	-10.87
▁Ben	-10.8701
▁Konferenz	-10.8701
treffen	-10.8703
▁Start	-10.8715
quelle	-10.8716
room	-10.8718
▁leid	-10.8719
▁gun	-10.872
▁Mode	-10.8726
▁westliche	-10.873
funktion	-10.8737
▁Vögel	-10.8739
▁ecosystem	-10.8739
▁zerstört	-10.8739
▁Insekten	-10.8739
▁crash	-10.8739
▁French	-10.8739
▁Fal	-10.874
▁operation	-10.874
▁stärker	-10.8741
▁Golf	-10.8742
based	-10.8746
▁stuck	-10.8749
▁Roman	-10.8749
▁leer	-10.8757
▁erhält	-10.8759
▁meters	-10.8762
gegen	-10.8763
▁Fliege	-10.8763
▁neuer	-10.8764
▁foreign	-10.8764
▁Architekt	-10.8779
▁zone	-10.8779
▁desert	-10.8781
▁previous	-10.8784
▁visuelle	-10.8784
▁platform	-10.8784
▁Gewebe	-10.8784
▁Bruder	-10.8784
▁Stärke	-10.8784
möglichkeit	-10.8784
erfolg	-10.8785
tail	-10.8786
▁novel	-10.8786
life	-10.879
That	-10.8792
▁solid	-10.8795
▁Norden	-10.8795
▁Rob	-10.8797
▁gegenseitig	-10.88
tage	-10.88
▁Blog	-10.8802
Der	-10.8803
▁Lern	-10.8808
▁leider	-10.882
kultur	-10.8828
▁Experten	-10.8828
▁Kontinent	-10.8828
▁mouth	-10.8828
▁technical	-10.8829
▁Vogel	-10.8829
▁verbracht	-10.883
q	-10.8831
▁Fernsehen	-10.8834
stream	-10.8837
▁bird	-10.8854
▁adult	-10.8855
▁lernt	-10.8865
▁advantage	-10.8873
▁dürfen	-10.8873
▁exercise	-10.8873
▁hängt	-10.8873
▁mechanism	-10.8873
▁getötet	-10.8873
▁wächst	-10.8873
▁prefer	-10.8873
▁bestimmen	-10.8874
▁date	-10.8875
▁Fällen	-10.8876
▁bright	-10.8878
bewusst	-10.8882
gegangen	-10.8886
pla	-10.8895
▁flat	-10.8899
▁Act	-10.8901
▁hall	-10.8902
▁65	-10.8911
▁auseinander	-10.8915
aktion	-10.8916
▁Mitglied	-10.8918
▁geschafft	-10.8918
rechnung	-10.8918
▁Materie	-10.8918
▁coast	-10.8919
▁bezahlen	-10.8919
▁majority	-10.8924
▁ultimately	-10.8925
▁expression	-10.8932
▁Au	-10.8938
▁graph	-10.8943
ießen	-10.8946
stimmt	-10.8946
▁justice	-10.8952
▁responsible	-10.8963
▁überraschend	-10.8963
▁versteckt	-10.8963
▁disorder	-10.8964
▁trend	-10.8964
▁electronic	-10.8965
möglich	-10.8967
▁Paar	-10.8968
▁solch	-10.8969
▁Krise	-10.897
wick	-10.8973
▁Karten	-10.8974
▁gewöhnlich	-10.8977
▁stranger	-10.898
▁übertragen	-10.8983
▁notwendig	-10.8989
▁whi	-10.899
▁cave	-10.9005
▁1990	-10.9009
▁dinosaur	-10.9009
▁necessarily	-10.9009
▁Malaria	-10.9009
krebs	-10.9009
▁creatures	-10.901
▁Jungs	-10.901
▁Robert	-10.9013
sweise	-10.9016
▁Haiti	-10.9016
▁proud	-10.9022
fläche	-10.9023
▁wichtigste	-10.9026
ahn	-10.9039
zugeben	-10.904
▁believed	-10.9043
▁fragt	-10.9052
▁govern	-10.9053
Go	-10.9054
▁monkey	-10.9055
▁Resultat	-10.9055
▁effizient	-10.9055
▁verantwortlich	-10.9055
▁scheinen	-10.9055
▁Außerdem	-10.9056
▁Irak	-10.9059
▁repeat	-10.9059
▁Ökosystem	-10.9059
Pro	-10.9059
▁motion	-10.9063
▁frage	-10.9065
sichtlich	-10.9067
▁particles	-10.9071
gram	-10.9077
▁Sein	-10.9086
▁halte	-10.9087
▁Symbol	-10.91
▁Valley	-10.91
▁gewonnen	-10.91
▁herausgefunden	-10.91
▁museum	-10.91
▁quiet	-10.9101
▁außerdem	-10.9104
▁mode	-10.9111
▁Spielen	-10.9113
▁writer	-10.9116
geber	-10.9117
▁May	-10.9119
▁fairly	-10.9119
▁stem	-10.914
▁tick	-10.9141
▁marriage	-10.9147
▁monitor	-10.9147
▁dress	-10.9147
▁gewaltig	-10.9147
▁debate	-10.9147
▁bieten	-10.9148
▁honor	-10.9148
▁sink	-10.9151
▁Kindheit	-10.9157
▁multiple	-10.9163
▁sorry	-10.9165
▁adults	-10.9165
▁Bitte	-10.9167
unternehmen	-10.9169
▁finish	-10.917
▁Mill	-10.9174
▁schwarz	-10.9182
▁Hai	-10.9186
▁Flüchtling	-10.9191
▁Fünf	-10.9193
▁International	-10.9193
▁yellow	-10.9193
▁airplane	-10.9193
▁Heimat	-10.9193
▁gelangen	-10.9193
speicher	-10.9193
▁ring	-10.9197
▁epi	-10.9213
▁lieber	-10.9217
▁innovative	-10.9221
▁leading	-10.9226
wirkung	-10.9228
▁Erfindung	-10.9239
▁Soldaten	-10.9239
▁letztendlich	-10.924
▁Hintergrund	-10.924
▁einsetzen	-10.924
▁Show	-10.9244
▁Kurs	-10.9245
▁Einfach	-10.9248
▁hohen	-10.9257
▁holding	-10.9271
dding	-10.9271
▁Sorgen	-10.9274
▁Rot	-10.9284
▁blu	-10.9286
▁Kräfte	-10.9286
▁attempt	-10.9286
projekt	-10.9286
▁cartoon	-10.9286
▁opinion	-10.9286
▁250	-10.9287
▁pet	-10.9287
▁Stress	-10.9287
leuchten	-10.9288
▁click	-10.929
▁fold	-10.9293
▁journalist	-10.9298
▁opened	-10.9313
▁Milliarde	-10.9316
▁passt	-10.9317
▁Laden	-10.9321
▁wiederum	-10.9328
Na	-10.9331
▁Januar	-10.9333
▁besitzen	-10.9333
erseits	-10.9334
▁Küste	-10.9334
▁Grundlage	-10.9335
rechnen	-10.9336
eign	-10.9336
▁reicht	-10.9341
▁Cap	-10.9343
▁wahre	-10.935
▁sicherlich	-10.9353
▁received	-10.9358
▁Kein	-10.9379
▁usw	-10.938
▁Ameisen	-10.938
▁verbessert	-10.938
▁dinner	-10.938
▁Obwohl	-10.938
figur	-10.938
▁extend	-10.9381
▁Fläche	-10.9381
▁childhood	-10.9381
fähigkeit	-10.9381
▁unfortunately	-10.9383
▁vollkommen	-10.9383
▁coal	-10.9392
▁Joe	-10.9393
▁drehen	-10.9396
▁rief	-10.9403
▁plus	-10.9403
ivity	-10.9404
▁Gericht	-10.9404
▁Seele	-10.9426
würdig	-10.9427
▁flo	-10.9427
▁Kontext	-10.9428
▁interagieren	-10.9428
▁kürzlich	-10.9428
▁phenomenon	-10.9428
▁succeed	-10.9428
▁sugar	-10.9428
▁geführt	-10.9428
▁Nutzen	-10.9429
▁sitzt	-10.9429
▁Stimmen	-10.9434
▁tausend	-10.9434
▁Modelle	-10.9452
▁failed	-10.9462
▁Einheit	-10.9464
▁bill	-10.9465
ography	-10.9467
für	-10.9472
▁earn	-10.9475
▁bubble	-10.9475
▁necessary	-10.9475
▁restaurant	-10.9475
▁verwandeln	-10.9475
▁zukünftige	-10.9475
▁broad	-10.9475
▁töten	-10.9475
▁studied	-10.9475
▁gäbe	-10.9475
▁traurig	-10.9475
▁concentrat	-10.9475
▁Interaktion	-10.9476
▁General	-10.9476
▁Folgendes	-10.9476
lösung	-10.9476
▁Augenblick	-10.9478
aving	-10.948
wat	-10.949
istisch	-10.9499
▁stream	-10.9514
Gesundheitswesen	-10.9516
▁Ost	-10.9517
▁Star	-10.9518
spielen	-10.9519
▁Kalifornien	-10.9523
▁konzentriert	-10.9523
▁Kohlenstoff	-10.9523
▁sozusagen	-10.9523
▁mindestens	-10.9523
▁Außen	-10.9523
▁unsichtbar	-10.9523
▁2005	-10.9529
▁Einstellung	-10.9531
▁constantly	-10.9531
▁spec	-10.9531
▁Masse	-10.9533
jährigen	-10.954
oma	-10.954
▁trained	-10.9541
▁belong	-10.9542
▁band	-10.9544
▁hunderte	-10.9547
▁weiss	-10.9548
▁compared	-10.9549
▁Denk	-10.9552
▁Yorker	-10.9558
▁construct	-10.9566
▁dran	-10.9569
▁degree	-10.957
▁hauptsächlich	-10.9571
▁Quadrat	-10.9571
▁location	-10.9571
▁vertraut	-10.9571
▁creation	-10.9572
▁battle	-10.9572
▁Wüste	-10.9572
▁entwerfen	-10.9573
lla	-10.9579
▁sichtbar	-10.9583
linie	-10.9588
▁Gründen	-10.9595
▁Pra	-10.9597
▁erzähle	-10.9603
▁Stimm	-10.9604
▁typical	-10.9608
▁sudden	-10.9608
▁bedeutend	-10.9608
▁Jack	-10.961
▁Kaffee	-10.9619
▁Zweck	-10.9619
▁Affen	-10.962
▁caught	-10.9621
▁2009	-10.9624
▁dozen	-10.9627
▁flag	-10.9627
▁weak	-10.963
zone	-10.9631
▁Stamm	-10.9632
schütz	-10.9647
▁übrig	-10.9666
▁Egypt	-10.9668
▁Erklärung	-10.9668
▁Schrift	-10.9668
▁interessieren	-10.9668
▁conduct	-10.9668
▁Rahmen	-10.9668
führt	-10.9668
▁Hunger	-10.9668
▁1960	-10.967
▁harder	-10.967
schule	-10.967
▁Beweis	-10.9676
▁insight	-10.9679
▁Once	-10.9682
▁habt	-10.9683
▁Themen	-10.9684
▁weapons	-10.9685
▁lay	-10.9685
▁frame	-10.9688
▁Verstand	-10.969
▁tip	-10.9696
▁erhöht	-10.9717
▁irgendwann	-10.9717
▁narrative	-10.9717
▁Talk	-10.9717
▁leaving	-10.9718
▁capable	-10.9722
▁Mission	-10.9722
▁Bildern	-10.9724
▁Apple	-10.9726
▁fighting	-10.9727
ounce	-10.9727
▁assume	-10.9727
▁tue	-10.9735
▁launch	-10.9743
20	-10.9743
▁related	-10.9754
Man	-10.9762
▁Gleiche	-10.9763
▁Satelliten	-10.9766
▁individuell	-10.9766
▁perception	-10.9766
▁verhindern	-10.9766
▁worried	-10.9766
▁chemische	-10.9766
▁stammt	-10.9766
▁Martin	-10.9767
▁Dia	-10.977
▁Wichtig	-10.9779
▁Zeitung	-10.979
▁discovery	-10.9796
▁arbeiteten	-10.9805
itude	-10.9806
▁described	-10.9807
▁Emotionen	-10.9815
▁Öffentlichkeit	-10.9815
▁Änderung	-10.9815
▁Titan	-10.9815
▁vorhanden	-10.9815
▁Brust	-10.9815
schläge	-10.9816
▁empower	-10.9816
▁Stift	-10.9816
▁leiden	-10.982
▁hinweg	-10.9823
▁Schicht	-10.9828
▁pair	-10.9828
▁grau	-10.9833
fried	-10.9833
▁schließen	-10.9839
▁finished	-10.984
▁Still	-10.9842
Fi	-10.9845
▁versuchten	-10.9849
▁Sehr	-10.9862
▁Strukturen	-10.9864
schneiden	-10.9865
▁Fabrik	-10.9865
▁trillion	-10.9865
▁Figur	-10.9865
▁bread	-10.9865
▁drag	-10.9865
▁reveal	-10.9865
▁Umstände	-10.9866
▁intensiv	-10.9866
▁komplex	-10.9867
▁wearing	-10.9868
azi	-10.987
▁Did	-10.9874
▁Bericht	-10.9875
▁bedeuten	-10.9876
durchschnittlich	-10.9878
▁curve	-10.9881
▁leader	-10.9882
▁garden	-10.9887
ulate	-10.9892
▁Bein	-10.9894
anne	-10.9894
grade	-10.9899
▁Gedanke	-10.99
stoß	-10.9903
▁1970	-10.9914
▁Rätsel	-10.9914
▁Mitarbeiter	-10.9914
▁fell	-10.9914
▁verfolgen	-10.9914
▁court	-10.9916
schaffen	-10.9916
▁clinic	-10.9918
▁Pass	-10.992
▁schlimmer	-10.9927
▁Experimente	-10.9931
▁Roh	-10.9934
power	-10.9934
▁slowly	-10.9942
▁rap	-10.9951
▁stone	-10.9956
Ö	-10.9957
anlage	-10.9958
▁clinical	-10.9961
▁button	-10.9963
▁Zivilisation	-10.9964
▁intellectual	-10.9964
▁Zuhause	-10.9964
▁comment	-10.9965
▁translate	-10.9965
▁Landwirtschaft	-10.9968
▁treated	-10.9972
But	-10.9972
▁everyday	-10.9974
▁relative	-10.9976
▁Zug	-10.9981
▁Have	-10.9983
▁fern	-10.9984
▁concerned	-10.9985
▁Reg	-10.9988
kar	-10.9992
▁verschieden	-10.9994
▁gemein	-10.9998
▁kosten	-11
water	-11.0007
▁Hol	-11.0013
völker	-11.0015
▁Ernährung	-11.0015
▁Ghana	-11.0015
▁verwandelt	-11.0015
▁interface	-11.0015
▁aufhören	-11.0015
▁wertvoll	-11.0016
zel	-11.0018
▁unlike	-11.0022
▁Sag	-11.0022
▁followed	-11.0025
but	-11.0025
Okay	-11.0028
▁State	-11.0033
▁Sprachen	-11.0033
▁poem	-11.0035
▁modernen	-11.0035
▁werfen	-11.005
▁metal	-11.0051
▁Neues	-11.0059
illion	-11.0063
▁Brücke	-11.0065
▁Brasilien	-11.0065
▁politician	-11.0065
▁married	-11.0065
▁erscheinen	-11.0065
▁horse	-11.0065
▁odd	-11.0065
▁Fahrzeug	-11.0066
▁Abschluss	-11.0067
▁invited	-11.0084
▁taste	-11.0089
fully	-11.0095
▁dollar	-11.0095
▁Bob	-11.0096
▁aufbauen	-11.0098
▁surprised	-11.0099
▁Freundin	-11.0115
▁hunt	-11.0115
▁Zimmer	-11.0116
▁fördern	-11.0116
▁university	-11.0116
▁hoffentlich	-11.0116
▁Website	-11.0116
▁lunch	-11.0116
▁pounds	-11.0117
▁operate	-11.0121
▁pump	-11.0124
▁discussion	-11.0125
▁selber	-11.0125
▁j	-11.0136
box	-11.0145
gründe	-11.0146
▁Psycho	-11.0152
▁eingesetzt	-11.0153
▁Gemeinden	-11.0158
▁limited	-11.0159
▁Microsoft	-11.0167
▁Higgs	-11.0167
▁studiert	-11.0167
▁refer	-11.0168
▁verbrachte	-11.0168
▁möglicherweise	-11.017
▁Katze	-11.0174
▁Farm	-11.0175
tiker	-11.0177
▁grown	-11.0181
sorge	-11.0187
▁95	-11.0208
▁cure	-11.0209
▁wartet	-11.0217
▁Höhle	-11.0218
▁collapse	-11.0218
▁extinct	-11.0218
▁survey	-11.0218
▁unterstützt	-11.0218
▁volunteer	-11.0218
▁teuer	-11.0218
▁Fleisch	-11.0218
▁guide	-11.0221
▁1950	-11.0221
Tech	-11.0222
▁otherwise	-11.0223
schalten	-11.0236
▁conscious	-11.0236
gebaut	-11.024
film	-11.0246
▁lebte	-11.0261
produkt	-11.0264
▁Laptop	-11.027
▁fascinating	-11.027
▁Stanford	-11.027
▁invisible	-11.027
▁Grafik	-11.027
▁Child	-11.027
▁egg	-11.027
▁fresh	-11.027
▁beantworten	-11.027
▁reef	-11.0272
▁illness	-11.0272
▁Trick	-11.0274
To	-11.0276
▁Dienst	-11.0279
▁medi	-11.0281
▁watched	-11.0286
▁Händen	-11.029
▁highest	-11.029
fragen	-11.0291
▁independent	-11.0298
statt	-11.0301
▁foundation	-11.0302
▁Homo	-11.0303
▁Minute	-11.031
▁reform	-11.0312
stärke	-11.0319
▁mathematics	-11.0321
▁Muskel	-11.0321
▁Meilen	-11.0322
rechnet	-11.0322
▁Tanz	-11.0323
▁comfortable	-11.0323
▁lebendig	-11.0325
▁versus	-11.0326
▁anfing	-11.0328
▁religiöse	-11.0329
▁daily	-11.0329
tanz	-11.0332
▁Germany	-11.0334
lösen	-11.0337
▁erfinden	-11.0338
ologische	-11.0345
▁Matt	-11.0345
▁transformation	-11.0346
fon	-11.0348
istischen	-11.0354
muster	-11.0355
▁Hall	-11.0358
▁electric	-11.0361
▁Grenze	-11.0362
▁Sub	-11.037
▁equivalent	-11.0374
▁folks	-11.0374
▁newspaper	-11.0374
▁verteilt	-11.0375
▁Handlung	-11.0378
▁grass	-11.0379
▁dennoch	-11.0381
60	-11.0405
▁perfectly	-11.0406
▁Moleküle	-11.041
▁tech	-11.0414
▁Canada	-11.0426
▁artificial	-11.0426
▁contract	-11.0426
▁irgendetwas	-11.0426
▁puzzle	-11.0426
▁unterscheiden	-11.0426
▁hidden	-11.0426
▁Erste	-11.0426
▁hyper	-11.0428
▁Stufe	-11.043
▁error	-11.043
▁caused	-11.0436
▁Maus	-11.0443
front	-11.0452
▁topic	-11.0459
▁Mund	-11.047
▁Very	-11.0475
▁closed	-11.0477
▁cow	-11.0478
▁Manhattan	-11.0479
▁Spiegel	-11.0479
▁entspricht	-11.0479
▁survival	-11.0479
▁lift	-11.0479
▁malaria	-11.0479
▁Unterhaltung	-11.0479
lässig	-11.0482
▁bull	-11.0486
▁Hör	-11.0488
gekommen	-11.049
▁paying	-11.049
▁Summe	-11.0491
▁lebten	-11.0495
▁organisiert	-11.0497
▁mentioned	-11.0498
▁Klang	-11.0498
▁stelle	-11.0514
▁32	-11.0515
▁Open	-11.0517
▁meiste	-11.0519
▁experienced	-11.0521
gänge	-11.0525
pflanzen	-11.0531
▁Gedächtnis	-11.0531
▁Restaurant	-11.0531
▁öffnet	-11.0531
▁exchange	-11.0531
▁precise	-11.0531
▁curious	-11.0532
▁trauma	-11.0534
▁mouse	-11.0535
▁wake	-11.0538
▁Other	-11.0539
leiter	-11.0539
▁expected	-11.0541
If	-11.055
▁researchers	-11.0555
▁unless	-11.0561
▁resource	-11.0563
▁Mag	-11.0568
kette	-11.0573
▁origin	-11.0582
▁Mexico	-11.0585
▁elephant	-11.0585
▁grandmother	-11.0585
▁36	-11.0585
▁Schnitt	-11.0585
▁Texas	-11.0585
▁präsent	-11.0585
▁filter	-11.0585
▁round	-11.0585
▁operating	-11.0586
▁brief	-11.0586
▁Multi	-11.0586
▁existence	-11.0589
▁invention	-11.0597
▁gehören	-11.06
▁Sitz	-11.0601
läuft	-11.0602
▁Student	-11.0604
▁currently	-11.0607
▁compare	-11.0611
▁Come	-11.062
▁Ober	-11.0625
▁tiefer	-11.0627
▁26	-11.0635
stimmung	-11.0638
▁Wettbewerb	-11.0638
▁disaster	-11.0638
▁stood	-11.0638
▁kennt	-11.0638
▁Blume	-11.0638
▁Fakten	-11.0638
▁Investition	-11.0639
▁smile	-11.0639
▁ernsthaft	-11.0639
▁admit	-11.064
▁somit	-11.064
Sahara	-11.0641
▁angesehen	-11.0643
▁Dach	-11.0646
grenze	-11.0649
how	-11.0658
grab	-11.066
▁Annahme	-11.0664
auto	-11.0664
▁schlechter	-11.0677
▁logic	-11.0684
menge	-11.0689
▁Mac	-11.069
▁pure	-11.0691
▁Eigentlich	-11.0692
▁budget	-11.0692
▁cognitive	-11.0692
▁reduzieren	-11.0692
▁wheel	-11.0692
▁Alternative	-11.0692
▁gehabt	-11.0692
▁gelesen	-11.0692
▁Zitat	-11.0693
▁Ausmaß	-11.0695
▁tail	-11.0695
▁managed	-11.0696
▁Cent	-11.0702
▁Absicht	-11.0704
▁lifetime	-11.0704
40	-11.0704
wähl	-11.0711
▁Spieler	-11.0721
▁filled	-11.0724
▁Bedürfnisse	-11.0725
▁counter	-11.0737
lag	-11.0743
▁schlagen	-11.0743
▁profession	-11.0744
theorie	-11.0745
▁Dokument	-11.0746
▁Schimpansen	-11.0746
▁channel	-11.0746
▁economist	-11.0746
▁equation	-11.0746
▁zugänglich	-11.0746
▁William	-11.0746
erkennung	-11.0746
▁analog	-11.0746
▁Three	-11.0746
▁Ah	-11.0747
▁fellow	-11.0747
▁display	-11.0747
zukommen	-11.0754
Aber	-11.0756
litz	-11.0763
▁Beweise	-11.0764
▁release	-11.0771
▁trug	-11.0771
krise	-11.0773
▁Teilchen	-11.0773
▁Ski	-11.0777
ctive	-11.0796
▁practical	-11.08
▁zunächst	-11.08
▁Partei	-11.08
▁Trend	-11.0801
▁vergleichen	-11.0801
Pa	-11.0803
effekt	-11.0814
▁Seh	-11.0814
▁kostenlos	-11.0818
▁collection	-11.0818
▁row	-11.082
▁könnt	-11.0821
▁deeper	-11.0823
▁emotion	-11.0824
▁receive	-11.0826
krankheit	-11.0832
schwer	-11.0832
geschlagen	-11.0834
▁roten	-11.0836
▁Schau	-11.0837
▁businesses	-11.0842
tti	-11.0849
lohn	-11.0849
▁Dinosaurier	-11.0855
▁ordinary	-11.0855
▁circuit	-11.0855
bücher	-11.0855
▁Black	-11.0855
▁Nachbarn	-11.0855
▁besagt	-11.0855
▁Interview	-11.0855
wissenschaftlich	-11.0856
▁Zell	-11.0858
▁Schaf	-11.0858
▁Lektion	-11.0861
durch	-11.0864
▁habit	-11.0888
▁forced	-11.0889
haltung	-11.0908
▁Definition	-11.091
▁contribute	-11.091
▁entworfen	-11.091
▁wisdom	-11.091
▁Toilette	-11.091
zentrum	-11.091
▁zoom	-11.091
▁verbreiten	-11.091
▁verdient	-11.091
▁Streit	-11.091
▁considered	-11.0912
▁Wirkung	-11.0912
▁crack	-11.0914
▁safety	-11.0914
▁120	-11.0929
▁picked	-11.0934
▁Atem	-11.0934
▁dank	-11.0937
▁organic	-11.0939
▁daß	-11.0939
back	-11.0947
kosten	-11.0952
▁Galaxien	-11.096
▁inspirieren	-11.0965
plätze	-11.0965
▁feedback	-11.0966
▁observe	-11.0966
▁losing	-11.0967
reise	-11.0967
▁Fotograf	-11.0967
▁Doktor	-11.0968
▁irre	-11.097
▁Phase	-11.097
▁Wohl	-11.097
▁gehalten	-11.0971
▁Kerl	-11.0976
▁aktuelle	-11.0977
▁Seine	-11.0987
lust	-11.0993
80	-11.0995
▁Hinweis	-11.1003
wind	-11.1003
▁terrorist	-11.1006
▁Bush	-11.101
sistent	-11.1018
▁Methoden	-11.1018
▁Katastrophe	-11.1021
▁Metapher	-11.1021
▁Uganda	-11.1021
▁definieren	-11.1021
▁nervous	-11.1021
▁official	-11.1021
▁gewählt	-11.1021
sphäre	-11.1022
▁chip	-11.1022
▁planning	-11.1024
▁loud	-11.1024
▁Feind	-11.1024
▁gay	-11.1026
▁pin	-11.1032
▁Garten	-11.1037
▁kick	-11.1038
▁Jim	-11.104
aries	-11.104
▁string	-11.1041
▁wieso	-11.1043
▁killing	-11.1044
▁seriously	-11.1044
▁advance	-11.1047
▁28	-11.1048
▁grundlegend	-11.1049
ographie	-11.105
ridge	-11.1051
▁involve	-11.1051
▁trägt	-11.1052
▁load	-11.1061
▁encounter	-11.1077
▁fasziniert	-11.1077
▁anonym	-11.1077
▁maintain	-11.1077
▁Jemand	-11.1077
▁mill	-11.1077
▁hopefully	-11.1078
▁2004	-11.1083
▁dealing	-11.1084
▁ride	-11.1085
▁Camp	-11.109
▁Reich	-11.1092
▁Innen	-11.1094
▁Peter	-11.1095
▁wondering	-11.1096
▁orbit	-11.1101
▁concern	-11.111
▁hide	-11.1113
kräfte	-11.1133
▁Magazin	-11.1133
▁accurate	-11.1133
▁stupid	-11.1133
▁allerdings	-11.1133
▁geändert	-11.1133
▁shoes	-11.1133
▁Null	-11.1133
heiratet	-11.1133
▁Wohlstand	-11.1134
ax	-11.1134
▁mirror	-11.1135
▁entgegen	-11.1135
▁Patent	-11.1136
▁Zeitalter	-11.1141
▁fähig	-11.1142
iness	-11.1145
▁bias	-11.1146
▁["	-11.1147
view	-11.1147
▁hergestellt	-11.1148
wood	-11.1153
▁dry	-11.1154
haben	-11.1171
▁lung	-11.1173
tip	-11.1176
▁fourth	-11.1176
positiv	-11.1181
▁brauche	-11.1181
▁exact	-11.1183
▁Chirurg	-11.1189
▁Klinik	-11.1189
▁liberal	-11.1189
▁automatisch	-11.1189
▁doubt	-11.1189
▁Gestalt	-11.1189
▁Haufen	-11.1189
▁wach	-11.119
▁Gegensatz	-11.119
samkeit	-11.1194
▁Linien	-11.1194
▁schlau	-11.1196
▁Photo	-11.1196
▁Stock	-11.1197
▁Gib	-11.1198
▁associated	-11.1199
▁pill	-11.1201
▁erkannt	-11.122
Bahn	-11.122
▁Laut	-11.1226
▁factory	-11.1226
▁speaker	-11.1233
gebildet	-11.1243
▁fra	-11.1246
▁Australien	-11.1246
▁Existenz	-11.1246
▁distribution	-11.1246
▁heavy	-11.1246
▁vaccine	-11.1246
▁ancestor	-11.1246
▁empty	-11.1246
▁vessel	-11.1246
▁credit	-11.1246
▁chart	-11.1247
▁Kirche	-11.1247
▁awful	-11.1249
schrieb	-11.1253
▁setting	-11.1257
▁nurse	-11.1271
▁Hinsicht	-11.1276
▁schi	-11.1276
Nun	-11.1284
Yes	-11.1291
opo	-11.1293
▁Mary	-11.1294
▁erkennt	-11.1301
▁Dimension	-11.1303
▁symptom	-11.1303
▁Kreuz	-11.1303
▁establish	-11.1303
▁fiction	-11.1303
▁verschwinden	-11.1303
▁Schatten	-11.1303
▁Verhältnis	-11.1303
▁kilometers	-11.1304
▁Riesen	-11.1304
▁Viertel	-11.1304
▁schickte	-11.1304
▁Küche	-11.1305
▁Pferd	-11.1305
▁protest	-11.1311
▁electrical	-11.1314
▁increasingly	-11.1314
▁vermute	-11.1316
▁Medic	-11.1325
masse	-11.1326
▁Brit	-11.1335
▁publish	-11.1338
▁essential	-11.1349
▁abuse	-11.1349
▁member	-11.1351
▁tall	-11.1355
▁Oxford	-11.1361
▁Project	-11.1361
▁epidemic	-11.1361
▁Argument	-11.1361
▁zentrale	-11.1361
▁facing	-11.1361
▁Health	-11.1361
▁weather	-11.1361
▁lawyer	-11.1361
▁körperlich	-11.1361
▁komisch	-11.1363
▁Umfeld	-11.1363
ologists	-11.1365
▁Euro	-11.1366
print	-11.1366
▁Hotel	-11.1366
▁clip	-11.137
▁Straf	-11.137
▁arrived	-11.1377
▁echten	-11.1382
▁launched	-11.1388
▁Nano	-11.1391
gut	-11.1399
▁Kapital	-11.1418
▁President	-11.1418
▁berührt	-11.1418
▁embrace	-11.1418
▁galaxy	-11.1418
▁courage	-11.1418
▁pocket	-11.1419
▁Would	-11.1419
▁Helden	-11.1419
▁Diagramm	-11.1419
▁zahlen	-11.142
▁weibliche	-11.1421
▁dumm	-11.1421
▁Lager	-11.1421
▁Öko	-11.1421
▁Folie	-11.1422
▁2,000	-11.1427
▁begrenzt	-11.143
▁suchte	-11.1431
▁initial	-11.1432
▁abhängig	-11.1435
▁robotic	-11.1439
▁fehlt	-11.1439
schaftlichen	-11.1441
▁theater	-11.1441
▁Fast	-11.1442
▁zunehmend	-11.145
house	-11.1474
Ü	-11.1477
▁Schwierigkeiten	-11.1477
▁analysis	-11.1477
▁dramatisch	-11.1477
▁permanent	-11.1477
▁pleasure	-11.1477
▁variety	-11.1477
▁vulnerable	-11.1477
▁sweet	-11.1477
technik	-11.1477
▁Christian	-11.1477
▁bildet	-11.1477
▁Geschenk	-11.1477
▁skill	-11.1479
▁virtuelle	-11.148
▁pray	-11.1482
▁Vier	-11.1485
maker	-11.1487
gibt	-11.149
fertig	-11.1495
▁Does	-11.15
▁Rock	-11.151
▁Erwachsene	-11.1534
▁Individuen	-11.1535
▁Kleidung	-11.1535
▁Märkte	-11.1535
▁combination	-11.1535
▁galaxies	-11.1535
▁studieren	-11.1535
▁Gesamt	-11.1535
▁slave	-11.1535
▁anwenden	-11.1536
▁transition	-11.1537
▁Theater	-11.1537
▁addict	-11.1538
▁ethic	-11.1538
▁Hunderte	-11.1541
▁season	-11.1541
▁construction	-11.1542
▁peak	-11.1543
cap	-11.1548
▁shut	-11.155
▁gelb	-11.1551
▁100,000	-11.1553
▁liebte	-11.1563
▁saved	-11.1568
▁nieder	-11.1575
▁molecule	-11.1587
▁broke	-11.159
systeme	-11.1591
aufnahme	-11.1592
▁Auswahl	-11.1594
▁Privat	-11.1594
▁tomorrow	-11.1594
▁Köpfe	-11.1594
ibility	-11.1594
▁rural	-11.1594
▁SMS	-11.1594
▁deswegen	-11.1594
züge	-11.1595
labor	-11.1602
▁tear	-11.1603
▁gestern	-11.1605
▁Eindruck	-11.1608
friend	-11.1617
werfen	-11.1621
feuer	-11.163
spring	-11.1631
▁85	-11.1639
▁Planet	-11.164
▁irgend	-11.1651
▁Erlebnis	-11.1653
▁Korruption	-11.1653
▁equipment	-11.1653
▁quantum	-11.1653
▁vergangen	-11.1653
▁Britain	-11.1654
▁gründete	-11.1655
▁Brown	-11.1656
▁normally	-11.1662
▁rocket	-11.1665
▁Schalt	-11.1672
▁scared	-11.1694
▁Comp	-11.1695
rauch	-11.1699
▁wing	-11.1707
versorgung	-11.1713
▁Stattdessen	-11.1713
▁fängt	-11.1713
▁jährlich	-11.1713
▁laptop	-11.1713
▁radikal	-11.1713
▁äußerst	-11.1713
▁beinahe	-11.1713
▁geschickt	-11.1713
▁Ursache	-11.1713
▁gebraucht	-11.1713
frau	-11.1716
▁Fest	-11.1717
▁orange	-11.1723
▁teure	-11.1726
▁poet	-11.1737
▁10.000	-11.1737
boot	-11.1751
Ex	-11.176
▁covered	-11.1771
▁Kombination	-11.1772
▁Persönlichkeit	-11.1772
▁consumption	-11.1772
▁convention	-11.1772
▁mathematical	-11.1772
▁transparent	-11.1772
▁GDP	-11.1772
▁Organismen	-11.1772
▁property	-11.1772
▁klug	-11.1773
▁erscheint	-11.1773
üpf	-11.1776
gefühl	-11.1777
schritt	-11.1777
▁Wall	-11.1779
▁extract	-11.1783
▁swim	-11.1785
▁ergibt	-11.1786
▁nano	-11.1789
hielt	-11.1792
▁Gesichter	-11.1796
verbrauch	-11.1796
streit	-11.1798
▁Besuch	-11.1802
For	-11.1802
rock	-11.1813
▁Fälle	-11.1829
▁danger	-11.1832
organisation	-11.1833
▁Wälder	-11.1833
▁Zwischen	-11.1833
▁akzeptieren	-11.1833
▁beinhaltet	-11.1833
▁eindeutig	-11.1833
▁gestorben	-11.1833
▁underneath	-11.1833
▁distinct	-11.1833
▁importance	-11.1833
▁silence	-11.1833
▁Zuschauer	-11.1833
▁relation	-11.1833
▁spannend	-11.1833
▁Prä	-11.1834
▁management	-11.1839
▁Erwachsenen	-11.1839
artikel	-11.1842
▁Besitz	-11.1842
▁cri	-11.1852
▁Anteil	-11.1855
Wa	-11.1857
▁actor	-11.1871
▁Güte	-11.1874
team	-11.1879
▁Ol	-11.1879
▁height	-11.1882
▁discuss	-11.1883
▁beliebt	-11.1892
▁Elektrizität	-11.1893
▁Everybody	-11.1893
▁Kanada	-11.1893
▁Lebewesen	-11.1893
▁Prototyp	-11.1893
▁abstract	-11.1893
▁according	-11.1893
▁assumption	-11.1893
▁implement	-11.1893
▁possibilities	-11.1893
▁volume	-11.1893
▁chicken	-11.1893
▁reagiert	-11.1893
fahrer	-11.1894
▁Kenia	-11.1895
▁dauern	-11.1895
▁instant	-11.1899
▁2006	-11.19
▁flip	-11.1903
▁processes	-11.1904
▁Anruf	-11.1905
▁Mich	-11.1909
▁grad	-11.1916
down	-11.1923
face	-11.1923
▁Wohnung	-11.1925
▁advanced	-11.1925
▁Sprech	-11.193
scale	-11.1937
hrung	-11.1939
▁grundsätzlich	-11.1954
▁agriculture	-11.1954
▁parallel	-11.1954
▁reject	-11.1954
▁valuable	-11.1954
▁Räume	-11.1954
▁Zauber	-11.1954
▁Everything	-11.1954
▁definiert	-11.1954
▁Hilfs	-11.1954
▁judge	-11.1955
▁polar	-11.1955
▁üblich	-11.1955
▁Webseite	-11.1955
▁Fels	-11.1957
▁kaufte	-11.1957
▁review	-11.196
▁Vorfahren	-11.1963
wissen	-11.1963
schreiben	-11.1969
▁label	-11.1979
▁Sea	-11.1987
falte	-11.2001
load	-11.2001
▁participate	-11.2016
schränkung	-11.2016
▁Foundation	-11.2016
▁Gerechtigkeit	-11.2016
▁empathy	-11.2016
▁zerstören	-11.2016
▁manipulat	-11.2016
▁versteht	-11.2016
▁entfernen	-11.2016
▁besorgt	-11.2016
▁regard	-11.2016
▁status	-11.2016
▁doppelt	-11.2016
▁convert	-11.2017
▁ungewöhnlich	-11.2018
▁classic	-11.2018
▁Moral	-11.2019
▁Tonnen	-11.202
▁Tele	-11.2024
▁grid	-11.2028
▁relatively	-11.203
therapie	-11.2032
X	-11.2041
▁umgeben	-11.2044
▁Sogar	-11.2049
▁tea	-11.205
▁van	-11.2062
▁increasing	-11.2066
▁Rio	-11.2068
▁Florida	-11.2077
▁beschäftigen	-11.2077
▁celebrate	-11.2077
▁verbindet	-11.2077
▁Füße	-11.2077
▁schätzen	-11.2077
▁mammal	-11.2077
▁joke	-11.2077
▁soldiers	-11.2077
▁Winter	-11.2078
▁preserv	-11.2078
▁aufzubauen	-11.2078
▁carefully	-11.2079
▁Mikroben	-11.2082
anti	-11.2085
▁warming	-11.2087
▁Top	-11.2088
▁Milch	-11.209
flug	-11.2091
▁Kilo	-11.2092
▁Weltraum	-11.2101
Hi	-11.212
▁Acht	-11.213
ücken	-11.2131
▁Global	-11.2139
züglich	-11.2139
▁Buchstaben	-11.2139
▁Entfernung	-11.2139
politik	-11.214
▁Darstellung	-11.214
▁ruhig	-11.214
▁Deutschland	-11.214
▁Invest	-11.214
▁corruption	-11.2141
▁saubere	-11.2141
▁title	-11.2141
▁specifically	-11.2142
opho	-11.2156
▁exception	-11.2161
▁Juli	-11.2166
▁consume	-11.2168
▁Aussage	-11.2176
▁Union	-11.2183
▁German	-11.2187
▁August	-11.2202
▁Brennstoff	-11.2202
▁command	-11.2202
▁dimensions	-11.2202
▁roughly	-11.2202
▁stattdessen	-11.2202
▁teenager	-11.2202
▁steigt	-11.2202
▁evil	-11.2202
▁sexuelle	-11.2202
▁Japanese	-11.2202
▁darstellen	-11.2203
▁Space	-11.2206
▁antwortete	-11.2211
witz	-11.2215
ächte	-11.2219
▁director	-11.2224
zwei	-11.2226
ologe	-11.2227
sländern	-11.2229
▁gelöst	-11.2232
▁Szene	-11.2233
▁physische	-11.2238
bringt	-11.224
▁künstliche	-11.2242
▁Congress	-11.2265
▁yesterday	-11.2265
▁Chemie	-11.2265
▁vermitteln	-11.2265
▁darunter	-11.2266
wissenschaftler	-11.2268
anthrop	-11.2271
▁rapidly	-11.2273
kunde	-11.2274
▁Leider	-11.2275
streben	-11.2276
▁dive	-11.2282
▁zählen	-11.2287
▁plate	-11.2292
getragen	-11.232
▁mention	-11.2323
▁Sprach	-11.2328
volv	-11.2328
▁activities	-11.2328
▁kontrolliert	-11.2328
▁absorb	-11.2328
▁kitchen	-11.2328
▁Minister	-11.2328
▁emissions	-11.2328
▁Kurve	-11.2328
▁snow	-11.2328
▁tube	-11.2329
▁Damals	-11.2329
▁kurzem	-11.2329
▁Turk	-11.2329
▁Teilnehmer	-11.233
▁mittlere	-11.233
▁außen	-11.233
▁grain	-11.2333
▁Gates	-11.2337
ermaßen	-11.2339
ji	-11.2342
schaltet	-11.2343
▁protection	-11.2354
fusion	-11.2362
▁blo	-11.2363
▁sight	-11.2363
▁handle	-11.2364
▁exam	-11.237
▁Großmutter	-11.2392
▁Hollywood	-11.2392
▁Löcher	-11.2392
▁Plattform	-11.2392
▁Risiken	-11.2392
▁academic	-11.2392
▁infection	-11.2392
▁surgeon	-11.2392
▁Number	-11.2392
▁quasi	-11.2392
▁besuchen	-11.2392
▁Schaden	-11.2392
▁chemistry	-11.2392
▁internal	-11.2397
▁toilet	-11.2398
▁cutting	-11.2399
▁Since	-11.2399
ville	-11.2404
▁added	-11.2406
▁Wieso	-11.2416
preis	-11.2418
▁firm	-11.242
▁700	-11.2421
▁habitat	-11.2429
▁PM	-11.2436
▁ersetzen	-11.2444
▁Ereignisse	-11.2444
bär	-11.2446
waffe	-11.2448
▁langfristig	-11.2456
oberfläche	-11.2456
▁demonstrate	-11.2456
▁dolphin	-11.2456
▁liquid	-11.2456
▁verfolgt	-11.2456
▁incentive	-11.2456
▁shame	-11.2456
▁schlafen	-11.2457
Audio	-11.2458
▁Latin	-11.2458
▁pulled	-11.2458
▁stock	-11.2465
▁schwimmen	-11.2466
▁33	-11.2472
ografie	-11.2477
▁convinced	-11.2483
trägt	-11.2484
foot	-11.2484
▁relate	-11.2492
▁Ruf	-11.2492
wise	-11.2497
▁occasion	-11.252
▁Teenager	-11.252
▁männliche	-11.252
▁prototype	-11.252
▁decline	-11.2521
▁unbekannt	-11.2521
▁tötet	-11.2521
▁Could	-11.2521
▁Maßstab	-11.2521
▁unendlich	-11.2521
▁Transport	-11.2522
▁fruit	-11.2523
▁Mehrheit	-11.2523
▁transportation	-11.2529
▁2001	-11.2529
▁crop	-11.2534
leiten	-11.2551
▁statement	-11.2558
antwort	-11.2558
▁Blau	-11.2567
▁conclusion	-11.2585
▁inspiration	-11.2585
▁length	-11.2585
▁perceive	-11.2585
▁physicist	-11.2585
▁vermeiden	-11.2585
▁client	-11.2585
▁Debatte	-11.2585
▁healthcare	-11.2585
▁transfer	-11.2586
▁klinische	-11.2586
▁Zahn	-11.2588
▁Wetter	-11.2588
▁tribe	-11.2597
▁Molekül	-11.2605
▁released	-11.2621
▁introduce	-11.2621
träger	-11.2621
raub	-11.2624
▁presentation	-11.263
▁Ausnahme	-11.2636
▁höre	-11.2644
blas	-11.2644
seitige	-11.2648
schleunig	-11.265
▁Allgemein	-11.2651
▁Komponente	-11.2651
▁chimpanzee	-11.2651
▁battery	-11.2651
▁überwinden	-11.2651
▁Strahl	-11.2651
orientiert	-11.2651
▁Media	-11.2651
▁appreciate	-11.2653
▁Zufall	-11.2658
▁Witz	-11.266
▁Südafrika	-11.2664
▁Darum	-11.2664
▁Four	-11.267
▁Betrieb	-11.267
▁bow	-11.2676
▁effectively	-11.2676
▁Abfall	-11.2679
▁soviel	-11.2707
▁Fehl	-11.2711
▁Literatur	-11.2717
▁2011	-11.2717
▁drüben	-11.2717
▁explanation	-11.2717
▁Wechsel	-11.2717
▁gelebt	-11.2717
▁Training	-11.2717
▁microbes	-11.2717
schieben	-11.2722
▁liefern	-11.2725
▁prepared	-11.2732
▁winter	-11.2736
▁bike	-11.2741
▁organized	-11.2744
▁introduced	-11.2746
dreht	-11.2749
▁Aktion	-11.2749
▁thin	-11.2782
▁Diagnose	-11.2783
▁privilege	-11.2783
▁radiation	-11.2783
▁Tour	-11.2783
▁quarter	-11.2783
▁worldwide	-11.2783
▁klassische	-11.2783
▁historical	-11.2783
▁zieht	-11.2783
▁icon	-11.2784
▁severe	-11.2785
▁passionate	-11.2786
▁Nase	-11.2788
▁House	-11.2788
▁lady	-11.2791
half	-11.2796
▁meaningful	-11.2802
▁alien	-11.281
▁however	-11.2811
lässt	-11.2815
▁Unterricht	-11.2816
CA	-11.2819
▁leiten	-11.2823
tempo	-11.2824
▁800	-11.2829
▁Grand	-11.2839
▁comfort	-11.2847
▁vertrauen	-11.2848
vermögen	-11.2849
▁educate	-11.2849
▁molecular	-11.2849
▁CEO	-11.2849
▁scheinbar	-11.2849
▁Smith	-11.285
▁criminal	-11.285
▁psychological	-11.285
▁Zehn	-11.285
▁employees	-11.285
▁prime	-11.285
▁steuern	-11.285
▁steel	-11.2851
▁Option	-11.2853
▁Sir	-11.2856
▁Viren	-11.2858
▁heilen	-11.2858
amme	-11.2859
▁flies	-11.286
▁jail	-11.2861
leitung	-11.2866
klasse	-11.2868
▁generally	-11.2884
▁Shi	-11.289
▁fundamentally	-11.2893
▁Gleichung	-11.2904
▁schwach	-11.2913
geworfen	-11.2917
▁Könnte	-11.2917
▁Spezial	-11.2917
▁advice	-11.2917
▁definitely	-11.2917
▁rescue	-11.2917
▁2012	-11.2917
▁Echtzeit	-11.2917
▁erweitern	-11.2917
▁spectrum	-11.2917
▁witness	-11.2917
▁teeth	-11.2917
▁empfinde	-11.2917
▁Saturn	-11.2917
▁Fahrrad	-11.2917
▁poetry	-11.2919
▁gebeten	-11.293
▁verhalten	-11.2934
▁Women	-11.2935
▁shall	-11.2936
▁Pop	-11.2937
fühle	-11.2963
▁Mel	-11.2964
▁Schulter	-11.2967
▁prediction	-11.2972
boden	-11.2973
▁wundervolle	-11.2975
▁Potential	-11.2984
▁aggressiv	-11.2984
▁appropriate	-11.2984
▁jünger	-11.2984
▁Extrem	-11.2984
▁bietet	-11.2984
▁gegründet	-11.2984
▁hydr	-11.2984
▁spider	-11.2984
▁sphere	-11.2985
▁Flasche	-11.2985
▁CD	-11.2986
▁deserve	-11.2987
▁verstehe	-11.2988
hütte	-11.299
▁Neben	-11.2997
kleid	-11.2998
▁apartment	-11.3
▁aufgebaut	-11.3015
▁Geistes	-11.3026
▁mono	-11.3039
größe	-11.3052
▁NGO	-11.3052
▁circumstance	-11.3052
▁elegant	-11.3052
▁gewann	-11.3052
▁properties	-11.3052
▁sammelt	-11.3052
▁erfuhr	-11.3052
▁section	-11.3052
▁Dutzend	-11.3052
▁technological	-11.3052
▁durfte	-11.3052
▁gefangen	-11.3052
spruch	-11.3052
▁erschien	-11.3053
▁britische	-11.3053
▁darstellt	-11.3053
▁Rasse	-11.3056
▁Jugendliche	-11.306
▁2003	-11.3061
gewalt	-11.3073
Mein	-11.3074
▁antworte	-11.3076
▁lebe	-11.3098
▁physically	-11.3099
will	-11.3112
stone	-11.312
▁Bedrohung	-11.3121
▁Gemälde	-11.3121
▁Präsentation	-11.3121
▁Respekt	-11.3121
▁Vietnam	-11.3121
▁church	-11.3121
▁conservation	-11.3121
▁langweilig	-11.3121
▁phrase	-11.3121
▁privacy	-11.3121
▁producing	-11.3121
▁Überraschung	-11.3121
▁Übung	-11.3121
▁illusion	-11.3121
▁verletzt	-11.3121
▁Wesentlichen	-11.3121
▁White	-11.3121
▁studio	-11.3121
▁Werbung	-11.3121
▁Billionen	-11.3121
▁Therapie	-11.3121
▁mystery	-11.3121
▁primary	-11.3122
▁Rakete	-11.3123
▁mutig	-11.3125
▁acid	-11.3126
▁hieß	-11.3126
▁compete	-11.3129
▁stehe	-11.313
ierbar	-11.3136
▁Yet	-11.3156
verhalten	-11.3179
gemacht	-11.3187
bindung	-11.3187
▁accomplish	-11.319
▁Kommentar	-11.319
▁emerging	-11.319
▁Zweifel	-11.319
▁Batterie	-11.319
▁Metall	-11.319
▁autism	-11.319
▁englische	-11.319
▁wiederholt	-11.319
▁flog	-11.319
▁intention	-11.3191
▁Blase	-11.3191
▁Ausstellung	-11.3196
▁settle	-11.3196
▁panel	-11.3197
▁sparen	-11.3197
▁escape	-11.3198
▁marine	-11.3202
▁Weltkrieg	-11.3202
▁Angriff	-11.3203
▁River	-11.3208
▁lens	-11.3221
▁urge	-11.3222
▁Ehre	-11.3224
technolog	-11.3232
luft	-11.3235
zuhalten	-11.3243
▁Mathe	-11.3247
▁Mexiko	-11.3259
▁Wurzel	-11.3259
▁gravity	-11.3259
▁kollektive	-11.3259
▁While	-11.3259
▁kreieren	-11.3259
▁Kredit	-11.3259
schmerz	-11.326
▁confront	-11.3262
▁diverse	-11.3262
▁Anreiz	-11.3264
wohl	-11.3264
▁zusammenarbeite	-11.3265
▁verließ	-11.3274
shirt	-11.3277
▁Box	-11.3277
▁vorzustellen	-11.3278
▁geteilt	-11.3282
▁convince	-11.33
üssig	-11.3303
ummer	-11.3316
weil	-11.3317
hai	-11.3322
▁Cambridge	-11.3329
▁Perhaps	-11.3329
▁Schließlich	-11.3329
▁beeindruckend	-11.3329
▁lecture	-11.3329
▁stretch	-11.3329
▁ritual	-11.3329
▁berichtet	-11.3329
▁silk	-11.3329
▁Jesus	-11.333
▁route	-11.333
▁implant	-11.333
▁Russland	-11.333
▁Mobil	-11.333
▁aufgewachsen	-11.333
▁Spielzeug	-11.3331
▁enthält	-11.3333
▁Kampagne	-11.3336
nehmer	-11.3339
▁tele	-11.3341
▁clothes	-11.3342
▁Audience	-11.3348
gerufen	-11.3356
▁Klar	-11.3361
level	-11.3365
▁busy	-11.3365
break	-11.3372
▁Haushalt	-11.3386
▁dramatic	-11.3398
▁Nächste	-11.3399
▁Rezept	-11.3399
▁Verbesserung	-11.3399
▁confidence	-11.3399
▁eröffnet	-11.3399
▁robust	-11.3399
▁telescope	-11.3399
▁Infektion	-11.3399
▁Ähnlich	-11.3399
▁Central	-11.3399
▁Anführer	-11.3399
▁prize	-11.34
straße	-11.34
▁sculpture	-11.34
▁therapy	-11.34
losigkeit	-11.3401
▁Dafür	-11.3404
▁cub	-11.3405
▁Galaxie	-11.3406
▁France	-11.3407
door	-11.3412
▁hotel	-11.3416
▁seitdem	-11.3416
▁Hallo	-11.3417
gewicht	-11.3418
▁gebrochen	-11.3418
▁Ohne	-11.3421
▁Tony	-11.3422
▁fake	-11.3429
▁Koch	-11.3431
▁Bord	-11.3433
▁critic	-11.3436
weiß	-11.3458
post	-11.3468
▁Terror	-11.3469
▁Pacific	-11.347
▁Spektrum	-11.347
▁beteiligt	-11.347
▁democratic	-11.347
▁flexible	-11.347
▁shadow	-11.347
▁wütend	-11.347
▁DNS	-11.347
▁afternoon	-11.347
▁Stuhl	-11.347
▁barrier	-11.3471
▁mechanical	-11.3471
▁gespielt	-11.3471
▁pipe	-11.3471
▁Magnet	-11.3472
▁gefällt	-11.3476
▁Alltag	-11.3479
▁Danach	-11.3483
▁dick	-11.3484
▁Angestellte	-11.3484
▁staff	-11.3492
▁script	-11.3497
▁percentage	-11.3514
Wow	-11.3526
▁bemerken	-11.3542
▁Olympic	-11.3542
▁Philip	-11.3542
▁collaboration	-11.3542
▁sophisticated	-11.3542
▁Gegenwart	-11.3542
▁drauf	-11.3542
▁swimming	-11.3542
gewiesen	-11.3542
▁brutal	-11.3542
▁Flagge	-11.3542
▁beschrieben	-11.3542
▁löst	-11.3542
medizin	-11.3542
▁storm	-11.3542
▁terrorism	-11.3542
▁underwater	-11.3544
▁evolutionary	-11.3546
ordnung	-11.3547
▁tank	-11.3555
▁Long	-11.3555
▁Lücke	-11.357
American	-11.3577
groß	-11.3577
▁mile	-11.3589
▁Decke	-11.359
version	-11.3601
▁analyze	-11.3614
▁betroffen	-11.3614
▁observation	-11.3614
▁penguin	-11.3614
▁reduziert	-11.3614
▁wünsche	-11.3614
mitglied	-11.3614
▁basierend	-11.3614
▁furchtbar	-11.3614
▁harvest	-11.3614
▁disrupt	-11.3614
▁sinnvoll	-11.3614
▁Anyway	-11.3614
▁Belohnung	-11.3614
▁merken	-11.3614
▁reference	-11.3615
▁toxic	-11.3618
▁Anstatt	-11.3618
▁Bombe	-11.3619
▁Mike	-11.362
▁dahinter	-11.3621
▁Unfall	-11.3623
▁linear	-11.3627
▁endet	-11.3633
▁graphic	-11.3656
▁ignore	-11.3662
▁branch	-11.3672
▁Klassenzimmer	-11.3686
▁Nutzung	-11.3686
▁exploration	-11.3686
▁pilot	-11.3686
▁dunkel	-11.3686
ifiziert	-11.3686
▁kriegen	-11.3687
▁dropped	-11.3688
▁froh	-11.3688
▁hoping	-11.3689
▁Weiter	-11.3696
▁29	-11.3697
long	-11.3704
motiv	-11.3714
▁Wow	-11.3716
▁viruses	-11.3717
▁Hill	-11.3718
▁Jane	-11.3721
▁agent	-11.3725
dependent	-11.3744
▁dish	-11.3746
▁constant	-11.3747
▁musician	-11.3748
geld	-11.3758
▁Algorithmen	-11.3759
▁Zunächst	-11.3759
▁ingredient	-11.3759
▁lediglich	-11.3759
▁literature	-11.3759
▁manufacturing	-11.3759
▁mortality	-11.3759
▁drone	-11.376
▁erneut	-11.3761
▁awareness	-11.3762
▁medium	-11.3763
▁feststellen	-11.3764
▁wrap	-11.3768
▁Schlange	-11.3773
▁fiber	-11.3773
▁clock	-11.3774
▁typically	-11.3777
▁psychische	-11.3778
▁Bevor	-11.3778
▁brave	-11.3782
▁Chef	-11.3788
▁Mio	-11.3807
▁Scham	-11.3814
▁sozial	-11.3819
sammlung	-11.3833
▁challenging	-11.3833
▁kümmert	-11.3833
▁Blatt	-11.3833
▁dünn	-11.3833
▁Business	-11.3833
▁trinken	-11.3833
▁Überzeugung	-11.3833
▁integrate	-11.3833
ländische	-11.3833
▁Störung	-11.3833
▁behave	-11.3833
▁Hindernis	-11.3833
▁reisen	-11.3835
play	-11.3836
▁split	-11.3838
läufe	-11.384
äumt	-11.3841
▁schuf	-11.3845
▁Afrikaner	-11.3851
reibung	-11.3862
▁mochte	-11.3902
▁Chemikalien	-11.3907
▁Studio	-11.3907
▁hydrogen	-11.3907
▁tödlich	-11.3907
▁unknown	-11.3907
▁unusual	-11.3907
▁wüsste	-11.3907
▁überlebt	-11.3907
▁Geburtstag	-11.3907
▁infinite	-11.3907
▁getrennt	-11.3907
▁psychology	-11.3907
▁neural	-11.3908
▁spiritual	-11.3908
▁Sechs	-11.3908
▁intense	-11.3908
▁Blind	-11.3908
▁favor	-11.3909
▁geistige	-11.391
▁biologist	-11.3918
▁reverse	-11.3919
▁apple	-11.3919
▁Kabel	-11.3922
▁Aufbau	-11.3924
▁transplant	-11.3939
studie	-11.396
▁nest	-11.3969
kann	-11.3973
▁Back	-11.3979
▁Christmas	-11.3981
▁Deswegen	-11.3981
▁calculate	-11.3981
▁kaputt	-11.3981
▁erforscht	-11.3981
▁memories	-11.3981
▁hypo	-11.3981
▁industrielle	-11.3981
▁Disney	-11.3981
▁limb	-11.3982
gebung	-11.3982
▁angry	-11.3982
▁wechseln	-11.3984
▁commitment	-11.3987
▁opera	-11.3987
▁productive	-11.3991
wickelt	-11.3992
▁Jeff	-11.3992
▁pile	-11.4003
▁beibringen	-11.4005
Also	-11.402
▁Magie	-11.4027
▁journal	-11.4037
▁magnet	-11.4044
▁Februar	-11.4057
▁Potenzial	-11.4057
▁Republic	-11.4057
▁Schicksal	-11.4057
▁Teufel	-11.4057
▁concrete	-11.4057
▁instruction	-11.4057
▁regelmäßig	-11.4057
▁department	-11.4057
▁NSA	-11.4057
▁Wände	-11.4057
▁besitzt	-11.4057
▁nerve	-11.4057
▁repair	-11.4057
▁dargestellt	-11.4058
▁Talent	-11.4058
▁Schuhe	-11.4059
▁Presse	-11.4059
▁boom	-11.406
▁Stahl	-11.406
▁plot	-11.4064
▁wofür	-11.4064
stiegen	-11.4067
▁bug	-11.4068
ächtige	-11.4071
▁ausgebildet	-11.4074
▁Ideal	-11.4078
▁strip	-11.4081
schlaf	-11.4108
▁vierte	-11.4111
▁investiert	-11.4123
▁sustain	-11.4129
▁Beobachtung	-11.4132
▁Kongress	-11.4132
▁Nachbarschaft	-11.4132
▁Research	-11.4132
▁password	-11.4132
▁pollution	-11.4132
▁complain	-11.4132
▁predator	-11.4132
▁struck	-11.4132
▁visible	-11.4132
▁Alpha	-11.4133
▁framework	-11.4133
▁Sky	-11.4133
▁Terrorismus	-11.4133
▁east	-11.414
schirm	-11.4141
▁Verstehen	-11.4142
▁Sterbe	-11.4144
media	-11.4145
schreiten	-11.4153
ebene	-11.416
▁painful	-11.4164
born	-11.4181
gesetz	-11.4193
▁weigh	-11.4202
▁Bibliothek	-11.4209
▁Führer	-11.4209
▁Silicon	-11.4209
▁geholfen	-11.4209
▁Analyse	-11.4209
▁LED	-11.4209
▁license	-11.4209
▁Autismus	-11.4209
▁Pinguin	-11.4209
▁false	-11.4209
▁erhöhen	-11.4209
▁Mangel	-11.4209
▁erfüllt	-11.421
▁birthday	-11.421
▁hunger	-11.421
▁Schnee	-11.4211
▁hinunter	-11.4214
schließt	-11.4215
▁55	-11.4229
gewinn	-11.4244
gelöst	-11.4249
▁Nick	-11.4263
▁brach	-11.4268
▁luck	-11.4281
▁Antibiotika	-11.4286
▁ansieht	-11.4286
▁beispielsweise	-11.4286
▁cortex	-11.4286
▁dynamisch	-11.4286
▁violent	-11.4286
▁rhythm	-11.4286
▁applied	-11.4286
▁Scott	-11.4286
▁vorsichtig	-11.4286
▁knapp	-11.4286
▁attitude	-11.4286
▁Zähne	-11.4286
▁historische	-11.4286
▁steal	-11.4289
lution	-11.4291
▁Pfund	-11.4291
▁Verbrechen	-11.4295
▁5,000	-11.4295
▁Ohren	-11.4297
▁unterrichten	-11.4298
▁3,000	-11.4299
▁bekomme	-11.43
▁Wann	-11.4304
▁improvement	-11.4312
Achse	-11.4332
▁Russ	-11.435
zeichnung	-11.4363
▁Inspiration	-11.4363
▁bicycle	-11.4363
▁demokratische	-11.4363
▁grandfather	-11.4363
▁intervention	-11.4363
▁physician	-11.4363
▁pregnant	-11.4363
▁telephone	-11.4363
▁narrow	-11.4363
▁proportion	-11.4363
▁BIP	-11.4363
▁drill	-11.4363
▁Syria	-11.4363
▁pitch	-11.4363
▁sail	-11.4363
▁Stammzellen	-11.4364
▁ought	-11.4364
▁solange	-11.4365
▁Chaos	-11.4371
▁Brian	-11.4375
▁37	-11.4381
▁lachen	-11.4383
trick	-11.4409
▁Kopie	-11.4409
lusion	-11.4441
▁Zeichnung	-11.4441
▁centuries	-11.4441
▁club	-11.4441
▁destruction	-11.4441
▁neugierig	-11.4441
▁domestic	-11.4441
▁fortunate	-11.4441
▁Blue	-11.4441
▁vorbereitet	-11.4441
▁spüren	-11.4441
▁Rettung	-11.4441
▁merkte	-11.4442
sequenz	-11.4442
▁sunlight	-11.4443
▁Sonnensystem	-11.4443
▁rush	-11.4444
▁sowas	-11.445
Dollar	-11.4483
rief	-11.4486
skop	-11.449
▁Free	-11.4493
▁angle	-11.4499
mination	-11.4506
▁file	-11.4513
▁Kapitel	-11.452
▁primitive	-11.452
▁trigger	-11.452
▁verursachen	-11.452
▁computation	-11.452
▁Fokus	-11.452
▁finance	-11.452
▁thick	-11.452
▁retire	-11.452
▁ruin	-11.4521
▁occurred	-11.4522
▁citizen	-11.4523
▁$1	-11.4523
▁wünschte	-11.4523
▁cents	-11.4525
▁Konsum	-11.4525
▁teilweise	-11.4527
▁1,5	-11.4529
▁editor	-11.4535
▁Chip	-11.4538
tograf	-11.4538
▁Wagen	-11.4539
▁Asien	-11.4548
▁edit	-11.455
▁Dick	-11.4552
gestalt	-11.4562
„	-11.4563
▁organize	-11.4575
▁ultimate	-11.4588
▁Behinderung	-11.4599
▁irgendjemand	-11.4599
▁providing	-11.4599
▁somewhat	-11.4599
▁dancing	-11.4599
▁schreibt	-11.4599
▁variation	-11.4599
förmig	-11.4599
▁deploy	-11.4599
▁Greek	-11.4599
▁Mäuse	-11.4599
▁balloon	-11.4599
▁Krankenhäuser	-11.4599
▁Louis	-11.4599
▁Something	-11.4599
▁bekämpfen	-11.4599
▁Ruhe	-11.46
▁presence	-11.46
▁Schlacht	-11.46
▁ultra	-11.46
geschäft	-11.46
▁Pilz	-11.4602
▁wählt	-11.4603
▁download	-11.4604
▁2050	-11.4606
▁equality	-11.4607
▁boring	-11.461
▁prima	-11.4611
▁Verfahren	-11.4612
strom	-11.4617
▁Sichtweise	-11.462
meister	-11.4623
▁Bauch	-11.4657
▁creature	-11.4678
▁Grippe	-11.4679
▁Impfstoff	-11.4679
▁Widerstand	-11.4679
▁Zerstörung	-11.4679
▁chapter	-11.4679
▁horrible	-11.4679
▁iPod	-11.4679
▁2015	-11.4679
▁secure	-11.4679
▁smoke	-11.468
▁Before	-11.468
▁zufrieden	-11.468
▁böse	-11.468
▁suspect	-11.4681
▁vital	-11.4682
▁Albert	-11.4686
▁liefert	-11.4686
▁Denkweise	-11.469
▁humor	-11.4692
▁startete	-11.4694
▁Derek	-11.4696
fragt	-11.4717
fällt	-11.4717
Look	-11.473
▁evolve	-11.4731
▁invite	-11.4733
▁Flo	-11.4743
▁stieg	-11.4747
trug	-11.4751
gefähr	-11.4759
▁Männchen	-11.476
▁TEDTalk	-11.476
▁bizarre	-11.476
▁dominant	-11.476
▁kämpft	-11.476
▁mosquito	-11.476
▁paradigm	-11.476
▁Konsequenzen	-11.476
▁weshalb	-11.476
▁unmittelbar	-11.476
▁Vorhersage	-11.476
▁gekauft	-11.476
▁heisst	-11.476
▁motivate	-11.4761
▁lehrt	-11.4761
▁tunnel	-11.4763
▁Prinzipien	-11.4765
▁treiben	-11.4766
▁globe	-11.4769
▁cheat	-11.4773
glas	-11.4773
▁Leiter	-11.4809
▁inspire	-11.4812
▁pink	-11.4813
modul	-11.4816
▁kilo	-11.482
digit	-11.482
▁Außer	-11.484
▁Treffen	-11.4841
▁bedroht	-11.4841
▁begegnen	-11.4841
▁berühren	-11.4841
▁discipline	-11.4841
▁laboratory	-11.4841
▁manufacture	-11.4841
▁städtische	-11.4841
▁Fremden	-11.4841
▁desperate	-11.4841
▁motivation	-11.4841
▁contrast	-11.4841
▁computing	-11.4841
▁gestaltet	-11.4841
▁Futter	-11.4841
▁legitim	-11.4841
▁Berlin	-11.4842
▁dramatically	-11.4843
▁befreien	-11.4843
▁gelangt	-11.4843
▁verlangt	-11.4844
▁Turn	-11.4844
▁transmit	-11.4845
▁Mauer	-11.4845
kamera	-11.4851
▁Strand	-11.4851
▁lying	-11.4853
▁Verlauf	-11.4853
▁flach	-11.4856
▁Ereignis	-11.4856
▁passive	-11.4856
▁attend	-11.4868
▁cord	-11.4871
▁Seide	-11.4879
▁cloth	-11.4908
▁politisch	-11.4915
utzen	-11.4919
geschwindigkeit	-11.4923
▁Alexander	-11.4923
▁Erinnern	-11.4923
▁Flügel	-11.4923
▁Freiwillige	-11.4923
▁Nobody	-11.4923
▁Säugetier	-11.4923
▁Tätigkeit	-11.4923
▁europäische	-11.4923
▁genügend	-11.4923
▁revenue	-11.4923
▁verschwunden	-11.4923
▁ökologisch	-11.4923
▁aufgeregt	-11.4923
▁zwang	-11.4923
▁medication	-11.4923
▁Square	-11.4923
▁Teleskop	-11.4923
▁verglichen	-11.4924
▁Bürgermeister	-11.4924
leuchtet	-11.4924
▁Sonnenlicht	-11.4924
▁lehren	-11.4925
▁organisieren	-11.4925
▁psychologist	-11.4926
▁dankbar	-11.4931
▁Six	-11.4946
▁wachsende	-11.4955
urchschnittliche	-11.4959
▁rau	-11.4962
Spiel	-11.4969
▁Unfortunately	-11.5006
▁Versorgung	-11.5006
▁efficiency	-11.5006
▁fabric	-11.5006
▁romantic	-11.5006
▁Parkinson	-11.5006
▁navigat	-11.5006
▁April	-11.5006
▁flash	-11.5006
▁murder	-11.5006
▁Marketing	-11.5006
▁Ursprung	-11.5006
▁gründen	-11.5007
▁nowhere	-11.5007
▁Everyone	-11.5009
▁exakt	-11.5012
▁quad	-11.5022
reißen	-11.5027
▁regime	-11.5028
▁Make	-11.5031
tief	-11.5035
küste	-11.5045
System	-11.5053
▁Entwurf	-11.5089
▁Verletzung	-11.5089
▁gesammelt	-11.5089
▁nachgedacht	-11.5089
▁phenomena	-11.5089
▁sensitive	-11.5089
▁Skelett	-11.5089
▁Ebola	-11.5089
▁activist	-11.5089
gefasst	-11.5089
▁welcome	-11.5089
behörde	-11.5089
▁wovon	-11.509
▁genießen	-11.509
▁fließen	-11.5091
▁tonight	-11.5094
▁stoppen	-11.5094
▁Johnson	-11.5096
▁wiederholen	-11.5096
▁biologisch	-11.5098
produktion	-11.5099
▁enthalten	-11.5104
▁42	-11.5115
▁vertical	-11.5127
Wissen	-11.5139
▁suppose	-11.5144
▁Serie	-11.515
▁Fett	-11.5154
▁Jugend	-11.5164
▁Blätter	-11.5173
▁Remember	-11.5173
▁antibiotics	-11.5173
▁awesome	-11.5173
▁dioxide	-11.5173
▁elektronische	-11.5173
▁kognitive	-11.5173
▁microscope	-11.5173
▁nervös	-11.5173
▁policies	-11.5173
▁hormone	-11.5173
▁piano	-11.5173
▁regret	-11.5173
▁punish	-11.5173
▁silent	-11.5173
▁Weisheit	-11.5173
▁knock	-11.5173
▁worauf	-11.5173
▁flood	-11.5173
▁Meister	-11.5173
▁causing	-11.5174
▁Status	-11.5174
▁sweat	-11.5174
▁Frankreich	-11.5175
▁Studierende	-11.5175
▁Sicher	-11.5176
▁Comic	-11.5178
▁Darüber	-11.5182
▁mittels	-11.5184
▁Rauch	-11.519
▁Report	-11.5194
▁Koran	-11.5199
▁quot	-11.5213
ruhe	-11.5218
▁Wäre	-11.5249
frage	-11.5258
▁constrain	-11.5258
▁Carolina	-11.5258
▁Kategorie	-11.5258
▁November	-11.5258
▁Plötzlich	-11.5258
▁corporate	-11.5258
▁solving	-11.5258
▁unexpected	-11.5258
▁verdammt	-11.5258
▁Wärme	-11.5258
▁Ängste	-11.5258
▁Bestandteil	-11.5258
▁depth	-11.5258
▁overcome	-11.5258
▁defend	-11.5259
▁Kugel	-11.5259
▁Henry	-11.5259
▁Hacker	-11.5264
▁Fertig	-11.5277
▁spezifische	-11.5277
▁Dreh	-11.5278
verkehr	-11.5291
Drohne	-11.53
school	-11.5307
basierte	-11.5314
Institut	-11.5322
▁Farb	-11.5324
schön	-11.5334
▁commit	-11.5336
nnerhalb	-11.5343
clusive	-11.5343
▁Budget	-11.5343
▁Heutzutage	-11.5343
▁Skulptur	-11.5343
▁Ungleichheit	-11.5343
▁gerettet	-11.5343
▁resistance	-11.5343
▁grateful	-11.5344
▁scholar	-11.5344
▁Finally	-11.5344
▁genius	-11.5344
▁Kolonie	-11.5344
▁miracle	-11.5344
anstalt	-11.5344
▁Schwimm	-11.5344
▁freue	-11.5344
▁greenhouse	-11.5344
▁ewig	-11.5345
▁knee	-11.5348
▁exhibition	-11.5348
▁neigen	-11.5353
▁heutige	-11.5367
Philosoph	-11.543
▁Wirklich	-11.543
▁Fantasie	-11.543
▁Verwendung	-11.543
▁correspond	-11.543
▁physikalische	-11.543
▁recommend	-11.543
▁FBI	-11.543
methode	-11.543
▁milk	-11.543
▁flew	-11.543
▁capitalism	-11.5433
▁wireless	-11.5434
elect	-11.5437
▁wahrnehmen	-11.5438
▁Knie	-11.5444
▁colleague	-11.5448
held	-11.5462
stütze	-11.5466
▁physisch	-11.5466
nutzer	-11.5485
▁Wichtigste	-11.5499
▁Brooklyn	-11.5517
▁Nachhaltigkeit	-11.5517
▁Stephen	-11.5517
▁insbesondere	-11.5517
▁judgment	-11.5517
▁konfrontiert	-11.5517
▁merkwürdig	-11.5517
▁veröffentlichen	-11.5517
▁Neugier	-11.5517
▁frankly	-11.5517
▁erweitert	-11.5517
▁infiziert	-11.5517
▁inject	-11.5517
▁Mandela	-11.5517
▁Ritual	-11.5517
▁produktiv	-11.5517
▁Population	-11.5517
▁extent	-11.5517
▁pretend	-11.5517
▁horizontal	-11.5517
▁committed	-11.5518
▁anpassen	-11.5519
▁tanzen	-11.5519
▁Schweine	-11.5519
geborene	-11.552
stamm	-11.552
▁2020	-11.5522
▁fluid	-11.5523
▁objective	-11.5528
▁Tauch	-11.5535
▁rapid	-11.5543
▁Sorge	-11.5544
▁finanzielle	-11.5576
▁automatically	-11.5604
▁öfter	-11.5604
▁Angebot	-11.5604
▁scream	-11.5604
▁housing	-11.5604
▁Enkel	-11.5605
▁psychologische	-11.5605
▁zurückkehren	-11.5605
▁Gebrauch	-11.5605
▁Rwanda	-11.5605
▁ugly	-11.5605
▁unterwegs	-11.5605
▁technologische	-11.5605
▁alarm	-11.5605
▁rufen	-11.5606
▁eingeladen	-11.5606
▁consistent	-11.5607
▁expectations	-11.5608
▁guard	-11.561
▁authority	-11.5611
▁Congo	-11.5612
▁Naja	-11.5612
▁leap	-11.5615
▁Hong	-11.5621
pflege	-11.5628
Projekt	-11.5656
▁Großvater	-11.5693
▁Taliban	-11.5693
▁Verbreitung	-11.5693
▁authentic	-11.5693
▁candidate	-11.5693
▁conclude	-11.5693
▁exploit	-11.5693
▁identical	-11.5693
▁lächerlich	-11.5693
▁obsessed	-11.5693
▁thumb	-11.5693
▁Ägypten	-11.5693
▁County	-11.5693
▁continuous	-11.5693
▁philosophy	-11.5693
▁reserve	-11.5693
▁Illusion	-11.5693
▁neutral	-11.5693
▁carried	-11.5693
▁Privatsphäre	-11.5693
▁Next	-11.5693
▁Kritik	-11.5693
▁betreiben	-11.5693
▁sustainability	-11.5693
▁erfüllen	-11.5694
▁betrieben	-11.5694
▁sales	-11.5696
▁besessen	-11.5696
istori	-11.5698
▁hook	-11.5698
▁database	-11.5702
▁comic	-11.5704
▁Einzelne	-11.5708
▁magnetic	-11.5715
gehört	-11.5746
schlecht	-11.5748
gehalten	-11.5765
▁Gemüse	-11.5782
▁Hawaii	-11.5782
▁Trotzdem	-11.5782
▁anxiety	-11.5782
▁Fundament	-11.5782
▁lifestyle	-11.5782
▁Nelson	-11.5782
▁befand	-11.5782
▁verliert	-11.5782
▁Richter	-11.5783
▁wisst	-11.5783
▁chest	-11.5783
▁immense	-11.5784
▁mechanisch	-11.5784
▁brown	-11.5786
▁hinterlassen	-11.5786
▁rising	-11.5786
▁überlegt	-11.5787
▁bond	-11.58
▁könne	-11.5809
psychiat	-11.5813
geschnitten	-11.582
▁spiele	-11.5842
”	-11.5872
▁Geschmack	-11.5872
▁Kennedy	-11.5872
▁ernähren	-11.5872
▁fotografiert	-11.5872
▁inequality	-11.5872
▁recognition	-11.5872
▁ridiculous	-11.5872
▁beschreibt	-11.5872
▁Schauspieler	-11.5872
▁süß	-11.5872
▁Saudi	-11.5872
▁Kreatur	-11.5872
▁Hitze	-11.5872
▁versorgen	-11.5872
▁philosopher	-11.5873
▁Pilot	-11.5873
▁Brustkrebs	-11.5873
▁refuse	-11.5873
▁Tesla	-11.5873
▁Herstellung	-11.5874
▁jegliche	-11.5875
▁Dadurch	-11.5877
▁shake	-11.5878
▁Verkauf	-11.5879
▁gray	-11.5884
▁optimistisch	-11.5885
▁audit	-11.5892
▁loop	-11.59
▁frisch	-11.5925
region	-11.5928
▁commun	-11.596
▁Atlantic	-11.5963
▁adjust	-11.5963
▁curiosity	-11.5963
▁exploring	-11.5963
▁gezwungen	-11.5963
▁procedure	-11.5963
▁routine	-11.5963
▁scenario	-11.5963
gängig	-11.5963
▁plenty	-11.5963
▁distant	-11.5963
▁shelter	-11.5964
▁hinzufügen	-11.5964
aktivität	-11.5969
▁Nadel	-11.5969
▁controlled	-11.597
flüge	-11.597
▁Umfrage	-11.5974
▁Umgang	-11.5975
glücklicherweise	-11.5975
▁Moore	-11.6001
stufe	-11.6006
kapital	-11.6055
▁Mobiltelefon	-11.6055
▁Shakespeare	-11.6055
▁cooperation	-11.6055
▁crucial	-11.6055
▁distributed	-11.6055
▁exponential	-11.6055
▁infected	-11.6055
▁obstacle	-11.6055
▁rebuild	-11.6055
▁Spannung	-11.6055
▁Zentral	-11.6055
▁stirbt	-11.6055
gespräch	-11.6055
▁external	-11.6055
▁raising	-11.6055
▁asteroid	-11.6055
▁instinct	-11.6055
▁agenda	-11.6055
▁geschützt	-11.6055
osphere	-11.6055
▁animation	-11.6056
▁breed	-11.6057
▁aussah	-11.6059
▁wundervoll	-11.6067
▁Julia	-11.6068
minal	-11.6085
ähnliche	-11.6117
called	-11.6122
wünscht	-11.6144
▁350	-11.6146
▁Erdbeben	-11.6147
▁Gandhi	-11.6147
▁Psychologie	-11.6147
▁Symmetrie	-11.6147
▁earthquake	-11.6147
▁fascinated	-11.6147
▁intellektuell	-11.6147
▁neither	-11.6147
▁scratch	-11.6147
▁Süß	-11.6148
▁margin	-11.6148
▁cluster	-11.6148
▁erfand	-11.6148
▁productivity	-11.6148
▁engaging	-11.6149
▁staatliche	-11.6149
▁Dün	-11.6149
▁Böse	-11.6149
▁glu	-11.6151
▁isoliert	-11.6153
▁landete	-11.6157
unterricht	-11.6208
spitze	-11.621
▁Löwen	-11.6241
▁gentlemen	-11.6241
▁Flüssigkeit	-11.6241
▁diagram	-11.6241
▁feminist	-11.6241
▁compound	-11.6241
▁household	-11.6241
▁Dörfer	-11.6241
▁strike	-11.6241
▁manifest	-11.6241
▁Philosophie	-11.6241
▁Animation	-11.6241
▁drove	-11.6241
nseits	-11.6241
▁heaven	-11.6241
▁isolated	-11.6241
▁properly	-11.6241
▁Tempo	-11.6241
faktor	-11.6241
▁Mögliche	-11.6241
▁Dienstleistung	-11.6241
gebunden	-11.6242
▁Basically	-11.6242
▁kreiert	-11.6243
▁minimal	-11.6246
▁Zurück	-11.625
wichtig	-11.6276
hirn	-11.629
▁impos	-11.6299
grafische	-11.6309
bomb	-11.6316
▁Senat	-11.6323
objekt	-11.6326
▁synchron	-11.6335
▁Clinton	-11.6335
▁Feynman	-11.6335
▁Original	-11.6335
▁column	-11.6335
▁economies	-11.6335
▁finanziert	-11.6335
▁library	-11.6335
▁pyramid	-11.6335
▁vernünftig	-11.6335
▁Schriftsteller	-11.6335
▁Polizist	-11.6335
▁regulation	-11.6335
▁Erfinder	-11.6335
▁Geruch	-11.6336
▁Verlangen	-11.6336
▁footprint	-11.6336
▁Terroristen	-11.6336
▁Front	-11.6337
▁grave	-11.6337
▁hindurch	-11.6339
▁Sektor	-11.634
meldet	-11.6346
gelenk	-11.6347
teressanterweise	-11.6347
ombin	-11.6352
▁beendet	-11.6367
▁logisch	-11.6378
conscious	-11.6394
stunde	-11.6406
▁1998	-11.6431
▁Anstieg	-11.6431
▁Lebenserwartung	-11.6431
▁Motivation	-11.6431
▁confident	-11.6431
▁conservative	-11.6431
▁guarantee	-11.6431
▁hässlich	-11.6431
▁integriert	-11.6431
▁opposed	-11.6431
▁portrait	-11.6431
▁resolution	-11.6431
▁surveillance	-11.6431
▁Überwachung	-11.6431
▁distract	-11.6431
chirurg	-11.6431
▁Impuls	-11.6431
▁fragment	-11.6431
▁Apollo	-11.6431
▁Treppe	-11.6431
▁Anpassung	-11.6431
▁gemessen	-11.6431
▁Quanten	-11.6431
▁stammen	-11.6431
▁leitet	-11.6432
▁Gulf	-11.6435
▁salt	-11.6443
▁plug	-11.6449
▁Lincoln	-11.6527
▁Shanghai	-11.6527
▁chocolate	-11.6527
▁irgendwelche	-11.6527
▁suicide	-11.6527
á	-11.6527
▁Gipfel	-11.6527
▁Initiative	-11.6527
▁Stämme	-11.6527
▁exposed	-11.6527
▁Besondere	-11.6527
▁Bronx	-11.6527
▁emergency	-11.6527
▁Brüder	-11.6527
▁Logik	-11.6527
▁Weibchen	-11.6527
▁Bruno	-11.6527
▁trocken	-11.6527
▁request	-11.6527
▁Einwohner	-11.6527
▁wirksam	-11.6527
▁backwards	-11.6527
▁optimistic	-11.6528
▁bedeckt	-11.6529
plikation	-11.6529
▁Onkel	-11.653
▁Nachfrage	-11.6537
▁angenehm	-11.6554
glück	-11.6567
discriminat	-11.6576
hundert	-11.6585
männer	-11.6624
▁Detroit	-11.6624
▁renewable	-11.6624
▁Arctic	-11.6624
▁erfordert	-11.6624
▁incident	-11.6624
▁reparieren	-11.6624
▁stroke	-11.6624
▁hungry	-11.6624
▁clue	-11.6624
▁diagnosed	-11.6624
▁reiste	-11.6624
▁Nothing	-11.6624
▁Gleichgewicht	-11.6624
▁Italien	-11.6624
▁Ehemann	-11.6625
▁Kapitalismus	-11.6625
▁viral	-11.6626
▁floating	-11.6626
▁sorgt	-11.6627
▁Schild	-11.6628
▁verlor	-11.6634
▁Hals	-11.6636
wache	-11.6677
Yeah	-11.6685
script	-11.6686
▁Abou	-11.6689
Sti	-11.671
▁Empathie	-11.6722
▁Ethiopia	-11.6722
▁announced	-11.6722
▁decrease	-11.6722
▁gefährdet	-11.6722
▁gestartet	-11.6722
▁gewöhnt	-11.6722
▁korrekt	-11.6722
▁mathematician	-11.6722
▁umgekehrt	-11.6722
▁unerwartet	-11.6722
▁yield	-11.6722
▁Knopf	-11.6722
▁letztlich	-11.6722
▁depressed	-11.6722
▁herself	-11.6722
kontakt	-11.6722
▁zwingen	-11.6722
▁Ocean	-11.6722
läufig	-11.6722
▁abandon	-11.6722
▁angepasst	-11.6722
▁worm	-11.6726
▁müsst	-11.6726
▁Palm	-11.6727
▁Strecke	-11.6727
▁Andrew	-11.6727
▁activate	-11.6728
generation	-11.6728
▁Eigenschaft	-11.6733
firma	-11.6744
▁Schwelle	-11.675
computer	-11.6784
▁Videospiele	-11.6796
▁Kranken	-11.6821
frequent	-11.6821
▁Angelegenheit	-11.6821
▁Kandidat	-11.6821
▁analysieren	-11.6821
▁chromosome	-11.6821
▁dedicated	-11.6821
▁identifizieren	-11.6821
▁underground	-11.6821
▁vegetable	-11.6821
▁ceiling	-11.6821
▁enemy	-11.6821
▁geeignet	-11.6821
▁vielmehr	-11.6821
▁Nahrungsmittel	-11.6821
▁Watson	-11.6821
physik	-11.6821
▁feiern	-11.6821
▁hardware	-11.6821
▁indicate	-11.6821
▁obesity	-11.6821
▁Bewohner	-11.6821
▁Schöne	-11.6821
▁dringend	-11.6821
▁getestet	-11.6821
▁Maßnahmen	-11.6821
▁Dialog	-11.6823
▁slum	-11.6823
brachte	-11.6824
▁accessible	-11.6824
▁Queen	-11.6825
▁Work	-11.6827
ogram	-11.6832
▁Waffe	-11.6859
dollar	-11.6884
century	-11.6884
field	-11.6884
▁1999	-11.6921
▁Abraham	-11.6921
▁Anstrengung	-11.6921
▁Berkeley	-11.6921
▁Diabetes	-11.6921
▁Schätzung	-11.6921
▁disgust	-11.6921
▁erwähnen	-11.6921
▁explosion	-11.6921
▁poison	-11.6921
▁senior	-11.6921
▁verstecken	-11.6921
▁ausgewählt	-11.6921
▁tweet	-11.6921
▁Voice	-11.6924
▁Pollen	-11.6926
streu	-11.6958
ggle	-11.6963
▁benutze	-11.6993
▁Hyper	-11.7006
▁Bedarf	-11.7022
▁Vermögen	-11.7022
▁adventure	-11.7022
▁recycle	-11.7022
▁uncomfortable	-11.7022
▁verblüffend	-11.7022
▁Astronom	-11.7022
▁Eigentum	-11.7022
▁Hügel	-11.7022
▁disagree	-11.7022
▁Ökonomen	-11.7022
▁MRI	-11.7022
▁Schädel	-11.7022
▁borrow	-11.7022
▁erledigen	-11.7022
▁facial	-11.7022
▁frozen	-11.7022
▁consult	-11.7022
▁granted	-11.7022
▁Schweiz	-11.7022
▁entwarf	-11.7022
▁gesture	-11.7022
▁minus	-11.7022
▁herrscht	-11.7022
▁utter	-11.7022
▁stimmen	-11.7022
▁appeal	-11.7023
▁Virginia	-11.7023
▁football	-11.7023
▁Dunkelheit	-11.7023
▁mutation	-11.7023
▁Schweden	-11.7023
▁Schnell	-11.7023
▁subtle	-11.7025
▁stets	-11.7025
▁Sierra	-11.7026
▁Stasi	-11.7028
invasiv	-11.7116
häuser	-11.7124
empfindlich	-11.7124
entwicklung	-11.7124
▁DVD	-11.7124
▁Klavier	-11.7124
▁Nordamerika	-11.7124
▁Normalerweise	-11.7124
▁Tränen	-11.7124
▁diabetes	-11.7124
▁district	-11.7124
▁illustrate	-11.7124
▁legacy	-11.7124
▁paradox	-11.7124
▁2014	-11.7124
▁Vagina	-11.7124
▁defense	-11.7124
▁Niveau	-11.7124
▁örtliche	-11.7124
▁frog	-11.7124
▁Mikroskop	-11.7124
▁Schlechte	-11.7125
▁schief	-11.7125
▁füllen	-11.7125
▁sheep	-11.713
▁Ernst	-11.7136
ponent	-11.7144
▁Merk	-11.7156
▁Pflanze	-11.7163
▁Gehör	-11.7163
▁particle	-11.7191
▁weapon	-11.7191
▁arrive	-11.7198
▁psych	-11.7226
▁Mountain	-11.7227
▁Seattle	-11.7227
▁furniture	-11.7227
▁jüngste	-11.7227
▁measuring	-11.7227
▁Tunnel	-11.7227
▁Erziehung	-11.7227
▁insurance	-11.7227
▁Neuigkeiten	-11.7227
▁dignity	-11.7227
▁Humor	-11.7227
▁ladies	-11.7227
städte	-11.7227
▁sharp	-11.7227
würfe	-11.7228
▁Ziege	-11.723
greift	-11.7235
zählen	-11.727
▁formula	-11.7298
▁Digital	-11.7331
▁Philadelphia	-11.7331
▁Vergnügen	-11.7331
▁autonomous	-11.7331
▁embedded	-11.7331
▁happier	-11.7331
▁hilfreich	-11.7331
▁insgesamt	-11.7331
▁ländlichen	-11.7331
▁neuroscience	-11.7331
▁schmerzhaft	-11.7331
▁struggling	-11.7331
▁anscheinend	-11.7331
▁drift	-11.7331
▁fließt	-11.7331
▁Selbstmord	-11.7331
▁nachdenkt	-11.7331
▁polio	-11.7331
▁Medium	-11.7331
verhältnis	-11.7332
▁freak	-11.7333
▁mimic	-11.7334
▁Linse	-11.7347
Source	-11.7379
tschaftswachstum	-11.7381
stätte	-11.7386
sexual	-11.7413
rgendwo	-11.7436
▁Benjamin	-11.7436
▁Charlie	-11.7436
▁Church	-11.7436
▁Größenordnung	-11.7436
▁Röntgen	-11.7436
▁Tragödie	-11.7436
▁geöffnet	-11.7436
▁strategies	-11.7436
▁Speicher	-11.7436
▁description	-11.7436
Jährige	-11.7436
▁Beijing	-11.7436
▁angemessen	-11.7436
▁reputation	-11.7436
▁tragedy	-11.7436
▁Praxis	-11.7436
▁Käfer	-11.7436
▁Kevin	-11.7436
▁tackle	-11.7436
▁replicate	-11.7437
▁Sprung	-11.7437
▁Redwood	-11.7437
▁IBM	-11.7437
▁Jones	-11.7439
bedarf	-11.744
▁mask	-11.7447
▁Gramm	-11.7464
gras	-11.7527
kämpfe	-11.7542
▁Alkohol	-11.7543
drängt	-11.7543
▁Parlament	-11.7543
▁Ruanda	-11.7543
▁Service	-11.7543
▁abstrakte	-11.7543
▁agricultural	-11.7543
▁corporation	-11.7543
▁exponentiell	-11.7543
▁fliegt	-11.7543
▁molekulare	-11.7543
▁participants	-11.7543
▁repräsentiert	-11.7543
▁sacred	-11.7543
▁skeleton	-11.7543
▁universities	-11.7543
▁Übrigens	-11.7543
▁fulfill	-11.7543
▁herausfand	-11.7543
▁colony	-11.7543
▁Letztes	-11.7543
▁anbieten	-11.7543
▁absurd	-11.7543
▁intuition	-11.7543
▁Vorurteile	-11.7543
▁ensure	-11.7543
▁Soviet	-11.7543
▁Heilung	-11.7543
▁restrict	-11.7543
▁Level	-11.7543
▁Venus	-11.7543
brüche	-11.7543
▁blank	-11.7543
▁Gegenstände	-11.7543
▁spill	-11.7544
▁Bedürfnis	-11.7585
strafe	-11.7605
kilometer	-11.7612
drehen	-11.7624
Star	-11.763
▁McDonald	-11.765
▁schizophren	-11.765
▁Feedback	-11.765
▁Leonardo	-11.765
▁Lächeln	-11.765
▁Studium	-11.765
▁Transparenz	-11.765
▁acknowledge	-11.765
▁bewahren	-11.765
▁muslimische	-11.765
▁transparency	-11.765
▁simulation	-11.765
▁Delhi	-11.765
▁motiviert	-11.765
▁Beitrag	-11.7651
▁Meeting	-11.7651
▁Reichtum	-11.7651
▁verbraucht	-11.7652
▁Edward	-11.7652
▁ethisch	-11.7652
unterschied	-11.7652
▁blend	-11.7653
▁Branche	-11.7653
▁Verwandte	-11.7653
▁shore	-11.7653
▁Auftrag	-11.7658
Cola	-11.7698
▁Nachde	-11.7702
Technologie	-11.7722
sammeln	-11.7722
bleiben	-11.7725
spezifisch	-11.7735
▁Diplomat	-11.7759
▁Gletscher	-11.7759
▁Priorität	-11.7759
▁Töchter	-11.7759
▁Weihnachts	-11.7759
▁boundaries	-11.7759
▁contribution	-11.7759
▁definitiv	-11.7759
▁französische	-11.7759
▁rainforest	-11.7759
▁sorgfältig	-11.7759
▁synthetic	-11.7759
▁unangenehm	-11.7759
▁Befehl	-11.7759
▁dauerhaft	-11.7759
▁evaluat	-11.7759
▁Apfel	-11.7759
▁concert	-11.7759
▁verringern	-11.7759
▁unterrichtet	-11.7759
▁federal	-11.7759
▁sensation	-11.7759
▁Bürgerkrieg	-11.776
gebrauch	-11.776
▁Höhepunkt	-11.7761
▁Modern	-11.7762
▁Platte	-11.7767
▁tragic	-11.7768
▁Ehrlich	-11.7794
rabischen	-11.7814
unwahrscheinlich	-11.7822
philosoph	-11.7868
▁Blickwinkel	-11.7869
▁Jewish	-11.7869
▁Kohlendioxid	-11.7869
▁Kooperation	-11.7869
▁Monterey	-11.7869
▁Nährstoffe	-11.7869
▁Schokolade	-11.7869
▁demonstration	-11.7869
▁erfasst	-11.7869
▁reconstruct	-11.7869
▁spectacular	-11.7869
▁Sammlung	-11.7869
▁acquire	-11.7869
▁circa	-11.7869
▁substance	-11.7869
▁Cartoon	-11.7869
▁Gemeinsam	-11.7869
▁Hormon	-11.7869
ifikation	-11.7869
▁affair	-11.7869
▁jeweils	-11.7869
▁suburb	-11.7869
▁whistle	-11.7869
▁programmieren	-11.7869
▁Arthur	-11.7869
▁Väter	-11.7869
kreuz	-11.787
▁deutsche	-11.787
▁domain	-11.787
▁Fußball	-11.787
▁Lärm	-11.787
▁beschleunigt	-11.7871
▁theories	-11.7873
gesundheit	-11.7876
gestoßen	-11.7894
gemeinschaft	-11.7906
▁corn	-11.793
▁immediate	-11.7968
sterblichkeit	-11.7977
▁volcan	-11.798
publik	-11.798
▁1994	-11.798
▁1995	-11.798
▁Abenteuer	-11.798
▁Disziplin	-11.798
▁Produktivität	-11.798
▁breakthrough	-11.798
▁diskutieren	-11.798
▁elsewhere	-11.798
▁enhance	-11.798
▁identified	-11.798
▁inklusive	-11.798
▁sketch	-11.798
▁Hölle	-11.798
▁inspiring	-11.798
▁interconnect	-11.798
▁südlich	-11.798
▁Mozart	-11.798
▁heiraten	-11.798
▁identisch	-11.798
▁Verteilung	-11.798
▁profile	-11.798
missbrauch	-11.798
resistant	-11.798
▁Daumen	-11.7981
▁systematisch	-11.7981
▁klingen	-11.7981
brecher	-11.7987
moral	-11.8008
▁Effizienz	-11.8092
▁Entstehung	-11.8092
▁Moskito	-11.8092
▁Nairobi	-11.8092
gefügt	-11.8092
pflanzt	-11.8092
▁Beschreibung	-11.8092
▁Prüfung	-11.8092
▁Währung	-11.8092
▁akzeptiert	-11.8092
▁aufmerksam	-11.8092
▁bedeutsam	-11.8092
▁calculation	-11.8092
▁fraction	-11.8092
▁gelehrt	-11.8092
▁nutrition	-11.8092
▁charity	-11.8092
▁resolve	-11.8092
▁schwanger	-11.8092
▁skull	-11.8092
▁initiative	-11.8092
▁Slum	-11.8093
▁confirm	-11.8093
▁rabbi	-11.8093
▁mittlerweile	-11.8093
▁vermittelt	-11.8093
▁Standpunkt	-11.8094
▁ausreichend	-11.8094
stadium	-11.8097
floss	-11.81
▁slice	-11.8101
▁negativ	-11.8118
▁terror	-11.812
▁Kontroll	-11.8138
▁Angesicht	-11.8141
▁Gelände	-11.8149
▁Atlanta	-11.8206
▁Frequenz	-11.8206
▁Horizont	-11.8206
▁Hypothese	-11.8206
▁Richtlinie	-11.8206
▁SETI	-11.8206
▁dilemma	-11.8206
▁erneuerbare	-11.8206
▁simplicity	-11.8206
▁verdoppelt	-11.8206
▁verzweifelt	-11.8206
▁Baseball	-11.8206
▁Simulation	-11.8206
▁fragile	-11.8206
▁sandwich	-11.8206
▁fügt	-11.8206
▁mysterious	-11.8206
süchtig	-11.8206
▁Sweden	-11.8206
Nobelpreis	-11.8206
▁Knoten	-11.8206
▁figuring	-11.8206
▁japanische	-11.8206
▁afterwards	-11.8206
▁Globalisierung	-11.8207
analyse	-11.8207
▁Aufstieg	-11.8209
stift	-11.8236
▁stieß	-11.8278
temperatur	-11.832
diagnose	-11.8321
▁spontan	-11.8321
▁Bitcoin	-11.8321
▁Buddha	-11.8321
▁Department	-11.8321
▁Joseph	-11.8321
▁Täuschung	-11.8321
▁Wohlbefinden	-11.8321
▁advertising	-11.8321
▁ehemalige	-11.8321
▁jahrelang	-11.8321
▁offiziell	-11.8321
▁smooth	-11.8321
▁variable	-11.8321
▁2013	-11.8321
▁Intuition	-11.8321
▁Liefer	-11.8321
▁recipe	-11.8321
▁engagiert	-11.8321
▁probability	-11.8321
▁Lügen	-11.8321
▁begun	-11.8322
▁Anzeige	-11.8322
▁institutional	-11.8323
▁mild	-11.8324
▁beetle	-11.8325
▁rettet	-11.8328
strecken	-11.8331
▁capita	-11.8361
geschoss	-11.8374
▁unglücklich	-11.8381
Programm	-11.8401
second	-11.8419
▁Verhandlung	-11.8437
▁CRISPR	-11.8437
▁Chinesisch	-11.8437
▁Mumbai	-11.8437
▁Snowden	-11.8437
▁eliminate	-11.8437
▁ethnic	-11.8437
▁freiwillig	-11.8437
▁helicopter	-11.8437
▁inevitable	-11.8437
▁mushroom	-11.8437
▁präzise	-11.8437
▁recruit	-11.8437
▁verschwindet	-11.8437
▁verwirrt	-11.8437
▁bewirkt	-11.8437
▁fifth	-11.8437
▁reinvent	-11.8437
▁Jordan	-11.8437
▁fought	-11.8437
▁translation	-11.8437
▁Babies	-11.8437
▁twist	-11.8437
▁erzielen	-11.8438
▁fortune	-11.8439
▁Zero	-11.8439
▁assess	-11.844
▁restore	-11.8446
▁chat	-11.8458
▁schreibe	-11.849
mütig	-11.8542
▁virtue	-11.8548
verständnis	-11.8555
▁Alaska	-11.8555
▁Karikatur	-11.8555
▁Neanderthal	-11.8555
▁alcohol	-11.8555
▁astonishing	-11.8555
▁champion	-11.8555
▁chief	-11.8555
▁fabulous	-11.8555
▁mechanics	-11.8555
▁ungeheuer	-11.8555
▁unterscheidet	-11.8555
▁überwältigend	-11.8555
nutzung	-11.8555
▁Through	-11.8555
▁chaos	-11.8555
▁explode	-11.8555
▁leverage	-11.8555
▁shrimp	-11.8555
▁umfasst	-11.8555
▁abilities	-11.8555
▁Third	-11.8555
▁cousin	-11.8555
▁Tibet	-11.8555
▁convey	-11.8555
▁beschützen	-11.8555
▁verlangen	-11.8556
weisung	-11.8566
sprung	-11.8571
genoss	-11.8574
▁Hochschul	-11.8591
mangel	-11.8595
▁Angel	-11.8596
wachstum	-11.8618
Where	-11.8638
cellular	-11.8642
▁Hätte	-11.8657
▁skeptic	-11.8674
gebäude	-11.8674
▁Konzentration	-11.8674
▁Privileg	-11.8674
▁Variation	-11.8674
▁accelerate	-11.8674
▁ausschließlich	-11.8674
▁bewältigen	-11.8674
▁comparison	-11.8674
▁competitive	-11.8674
▁dictionary	-11.8674
▁diskutiert	-11.8674
▁musikalische	-11.8674
▁survivor	-11.8674
▁vielfältig	-11.8674
prinzip	-11.8674
▁Substanz	-11.8674
schaffung	-11.8674
▁Canyon	-11.8674
▁Craig	-11.8674
▁überprüfen	-11.8674
▁Scheibe	-11.8674
▁Mühe	-11.8674
▁Pfeil	-11.8675
▁geplant	-11.8675
▁vernetzt	-11.8676
▁Gerade	-11.8676
gesichts	-11.8699
geholt	-11.8737
gewöhnlich	-11.8754
related	-11.8757
▁horizon	-11.8793
▁Algorithmus	-11.8794
▁Columbia	-11.8794
▁Democrat	-11.8794
▁Engagement	-11.8794
▁Individuum	-11.8794
▁October	-11.8794
▁Sklaverei	-11.8794
▁Treibhausgas	-11.8794
▁Völker	-11.8794
▁facility	-11.8794
▁intersection	-11.8794
▁resilience	-11.8794
▁structural	-11.8794
▁stärkste	-11.8794
▁vagina	-11.8794
▁verhindert	-11.8794
▁Regenwald	-11.8794
▁beschränkt	-11.8794
▁excuse	-11.8794
▁Möbel	-11.8794
▁ermutigen	-11.8794
▁hübsch	-11.8794
▁trivial	-11.8794
▁Winkel	-11.8794
bedingungen	-11.8794
▁erstaunt	-11.8794
▁spirituelle	-11.8794
▁injury	-11.8794
▁Pläne	-11.8795
▁dominate	-11.8795
▁Merkmale	-11.8795
▁silly	-11.8795
▁stoßen	-11.8795
▁Akteur	-11.8796
▁rope	-11.8797
▁vereint	-11.8801
geteilt	-11.8827
▁aktuell	-11.889
▁menschlich	-11.8903
í	-11.8916
▁Bangladesh	-11.8916
▁Mahlzeit	-11.8916
▁Nachmittag	-11.8916
▁Obviously	-11.8916
▁Oktober	-11.8916
▁agencies	-11.8916
▁anfängt	-11.8916
▁attribute	-11.8916
▁bathroom	-11.8916
▁bestätigt	-11.8916
▁dialogue	-11.8916
▁entschlossen	-11.8916
▁frustrated	-11.8916
▁gemeinnützige	-11.8916
▁genocide	-11.8916
▁pioneer	-11.8916
▁potentiell	-11.8916
▁unbelievable	-11.8916
▁ärmsten	-11.8916
▁Little	-11.8916
▁combat	-11.8916
▁Bescheid	-11.8916
▁Management	-11.8916
▁unterhalb	-11.8916
▁Schwanz	-11.8916
▁Everest	-11.8916
▁relax	-11.8916
▁gegessen	-11.8916
▁Konsumenten	-11.8916
▁elected	-11.8916
▁punch	-11.8917
▁Girl	-11.8917
▁naked	-11.8917
risiko	-11.8917
▁Mittlere	-11.8917
▁Cousin	-11.8917
▁agency	-11.8917
▁Bindung	-11.8917
▁stigma	-11.8917
▁Lagos	-11.8917
kunst	-11.8919
▁Fleck	-11.8921
▁Clar	-11.8945
control	-11.9008
minute	-11.9008
pound	-11.9017
ündigt	-11.904
▁Allerdings	-11.904
▁Gravitation	-11.904
▁Hospital	-11.904
▁Kapazität	-11.904
▁Kompromiss	-11.904
▁Should	-11.904
▁Zufriedenheit	-11.904
▁compromise	-11.904
▁hervorragend	-11.904
▁overwhelming	-11.904
▁sacrifice	-11.904
▁verurteilt	-11.904
▁Verteidigung	-11.904
▁crystal	-11.904
▁suspend	-11.904
▁FDA	-11.904
blätter	-11.904
▁Plätze	-11.904
gewebe	-11.904
▁Liberia	-11.904
▁gewinnt	-11.904
▁zahlreiche	-11.904
▁mood	-11.904
▁Nepal	-11.9041
▁Manager	-11.9041
▁Bereit	-11.9041
▁gefühlt	-11.9042
▁Einzige	-11.9042
fleisch	-11.9044
gefertigt	-11.9068
▁Lampe	-11.9078
haufen	-11.909
abhängig	-11.9124
Zeit	-11.9129
Komm	-11.9155
sufficient	-11.9165
▁Abhängigkeit	-11.9165
▁Besonders	-11.9165
▁Council	-11.9165
▁Flughafen	-11.9165
▁Pyramide	-11.9165
▁Zuhörer	-11.9165
▁außerordentlich	-11.9165
▁category	-11.9165
▁choosing	-11.9165
▁collaborative	-11.9165
▁längst	-11.9165
▁schlussendlich	-11.9165
▁threshold	-11.9165
▁thrill	-11.9165
▁vacuum	-11.9165
▁verknüpft	-11.9165
▁Jupiter	-11.9165
▁Michigan	-11.9165
▁kombiniert	-11.9165
▁primarily	-11.9165
▁smoking	-11.9165
Origami	-11.9165
▁garbage	-11.9165
▁loving	-11.9165
▁shrink	-11.9165
▁valid	-11.9165
unclear	-11.9165
wurzel	-11.9165
drüse	-11.9165
▁Daniel	-11.9165
▁Italian	-11.9165
▁Filter	-11.9165
▁barrel	-11.9166
klatsch	-11.9166
▁Prinz	-11.9167
▁Termin	-11.917
gehoben	-11.917
▁islamische	-11.9171
▁prepare	-11.9263
▁Dynamik	-11.9291
▁Mechanismus	-11.9291
▁anticipate	-11.9291
▁expansion	-11.9291
▁experiencing	-11.9291
▁frequency	-11.9291
▁nutrients	-11.9291
▁nördlich	-11.9291
▁Kalorien	-11.9291
▁Kämpfe	-11.9291
▁disconnect	-11.9291
▁steigern	-11.9291
▁wheelchair	-11.9291
▁cliff	-11.9291
▁beantwortet	-11.9291
▁Versicherung	-11.9291
▁voting	-11.9292
▁versagt	-11.9292
▁Variante	-11.9292
▁erkunden	-11.9292
▁Monster	-11.9292
▁accus	-11.9292
▁scharf	-11.9293
▁finanziell	-11.9332
=	-11.942
assembly	-11.942
schätzung	-11.942
▁Anwälte	-11.942
▁Behauptung	-11.942
▁Gewohnheit	-11.942
▁Himalaya	-11.942
▁Jedenfalls	-11.942
▁Passwörter	-11.942
▁Pazifik	-11.942
▁Syrien	-11.942
▁Urknall	-11.942
▁analysiert	-11.942
▁begleitet	-11.942
▁diagnosis	-11.942
▁diagnostiziert	-11.942
▁erheblich	-11.942
▁erledigt	-11.942
▁grandchildren	-11.942
▁irrational	-11.942
▁kombinieren	-11.942
▁orchestra	-11.942
▁romantische	-11.942
▁vulnerability	-11.942
▁broadcast	-11.942
▁magnitude	-11.942
▁scheitern	-11.942
▁weiterentwickel	-11.942
▁vergleichbar	-11.942
▁impression	-11.942
▁Sarah	-11.942
▁zutiefst	-11.942
▁audio	-11.942
▁transcend	-11.942
▁Säule	-11.942
▁involviert	-11.942
▁peinlich	-11.942
▁gefüllt	-11.942
▁lenken	-11.942
▁Halb	-11.9421
▁spürt	-11.9421
▁tragisch	-11.9421
deutet	-11.9445
Boot	-11.9514
grenzt	-11.9527
▁exhibit	-11.9542
▁Afghan	-11.9549
▁Offensichtlich	-11.9549
#	-11.9549
erfahrung	-11.9549
▁Club	-11.9549
▁Joshua	-11.9549
▁Oxytocin	-11.9549
▁Sklaven	-11.9549
▁Vulkan	-11.9549
▁akademische	-11.9549
▁begegnet	-11.9549
▁brillante	-11.9549
▁capabilities	-11.9549
▁expedition	-11.9549
▁gesünder	-11.9549
▁militärische	-11.9549
▁origami	-11.9549
▁treibt	-11.9549
▁äußere	-11.9549
▁ecological	-11.9549
▁precious	-11.9549
▁unfair	-11.9549
▁uniform	-11.955
▁unfold	-11.955
▁wohlhabend	-11.955
▁pulse	-11.955
▁sanft	-11.955
▁Periode	-11.955
▁snake	-11.955
▁screw	-11.955
▁generell	-11.9551
▁Zeile	-11.9551
▁umfassende	-11.9553
▁snap	-11.9591
▁selbe	-11.9593
patient	-11.9644
Syndrom	-11.9681
▁Berührung	-11.9681
▁Bonobo	-11.9681
▁Schreibtisch	-11.9681
▁Sylvia	-11.9681
▁Unsicherheit	-11.9681
▁Verbraucher	-11.9681
▁anfühlt	-11.9681
▁einschließlich	-11.9681
▁reducing	-11.9681
▁simultaneously	-11.9681
▁terrifying	-11.9681
▁zwölf	-11.9681
▁durchzuführen	-11.9681
▁whatsoever	-11.9681
▁Rechner	-11.9681
▁besaß	-11.9681
▁Truppe	-11.9681
▁glacier	-11.9681
▁signature	-11.9681
▁Erscheinung	-11.9681
kenntnis	-11.9681
höhe	-11.9681
Glücklicherweise	-11.9681
▁theoretisch	-11.9681
▁vertikal	-11.9681
▁gewohnt	-11.9682
▁retina	-11.9682
▁beruflich	-11.9683
aught	-11.9697
ogel	-11.9775
Audience	-11.9778
Modell	-11.9778
fahrzeug	-11.9814
▁Gewässer	-11.9814
▁Holocaust	-11.9814
▁Indonesia	-11.9814
▁Jerusalem	-11.9814
▁Narrator	-11.9814
▁Offenheit	-11.9814
▁Trinkwasser	-11.9814
▁advocate	-11.9814
▁beängstigend	-11.9814
▁biodiversity	-11.9814
▁breakfast	-11.9814
▁enterprise	-11.9814
▁fertilize	-11.9814
▁fortgeschritten	-11.9814
▁gewissermaßen	-11.9814
▁konstruiert	-11.9814
▁pandemic	-11.9814
▁pharmaceutical	-11.9814
konzept	-11.9814
▁1984	-11.9814
▁register	-11.9814
fabrik	-11.9814
▁qualities	-11.9814
▁Fossil	-11.9814
▁automobile	-11.9814
▁verletzen	-11.9814
▁Veranstaltung	-11.9814
▁Elektronik	-11.9814
▁compelling	-11.9814
▁geredet	-11.9814
▁irgendwas	-11.9814
▁ambition	-11.9814
▁bulb	-11.9814
▁Benzin	-11.9814
▁Balance	-11.9814
▁Anwalt	-11.9815
▁crawl	-11.9815
▁Food	-11.9815
▁Gefangene	-11.9815
▁detailliert	-11.9815
bürger	-11.9815
forscher	-11.9815
▁Töne	-11.9816
hülle	-11.9816
Fiction	-11.9821
▁derzeitige	-11.984
▁innovativ	-11.9867
Energieverbrauch	-11.9872
Maschine	-11.9913
looking	-11.9913
▁distinguish	-11.995
▁Anhänger	-11.995
▁Dezember	-11.995
▁Geschwister	-11.995
▁Getreide	-11.995
▁Türkei	-11.995
▁beneath	-11.995
▁chaotisch	-11.995
▁currency	-11.995
▁eingeschränkt	-11.995
▁extension	-11.995
▁gegenwärtige	-11.995
▁konkrete	-11.995
▁participation	-11.995
▁purchase	-11.995
▁schmutzig	-11.995
▁ähnelt	-11.995
▁Führungskräfte	-11.995
▁LHC	-11.995
▁intimate	-11.995
▁Praktik	-11.995
▁Oliver	-11.995
▁reliable	-11.995
▁Mischung	-11.995
▁Tendenz	-11.995
▁torture	-11.995
▁creator	-11.995
▁Mentor	-11.995
märkte	-11.9951
flasche	-11.9953
▁farbige	-11.9955
branche	-11.9976
umbling	-11.9985
richtig	-12.0002
▁Route	-12.0025
engineer	-12.005
food	-12.005
keeper	-12.0068
gehörigkeit	-12.0086
▁Phoenix	-12.0086
▁1996	-12.0086
▁Analogie	-12.0086
▁Erwärmung	-12.0086
▁Gerüst	-12.0086
▁Kosovo	-12.0086
▁Mittagessen	-12.0086
▁Thunfisch	-12.0086
▁Widerspruch	-12.0086
▁Zimbabwe	-12.0086
▁facilities	-12.0086
▁finanzieren	-12.0086
▁gradually	-12.0086
▁injustice	-12.0086
▁smallpox	-12.0086
▁unprecedented	-12.0086
▁unzählige	-12.0086
▁verstärkt	-12.0086
▁LKW	-12.0087
▁Zwilling	-12.0087
▁Kleider	-12.0087
▁valley	-12.0087
▁benannt	-12.0087
▁unheimlich	-12.0087
▁Schweigen	-12.0087
▁parasite	-12.0087
▁überwachen	-12.0087
▁Methan	-12.0087
▁Somalia	-12.0087
▁defeat	-12.0088
Adresse	-12.0148
found	-12.0186
gebrochen	-12.0189
student	-12.0189
katastrophe	-12.0225
kräftig	-12.0225
▁December	-12.0225
▁Glühbirne	-12.0225
▁beschädigt	-12.0225
▁contemporary	-12.0225
▁episode	-12.0225
▁excitement	-12.0225
▁hypothesis	-12.0225
▁oxytocin	-12.0225
▁supermarket	-12.0225
▁Äthiopien	-12.0225
▁Matrix	-12.0225
▁simulate	-12.0225
▁Kansas	-12.0225
▁Reihenfolge	-12.0225
▁attraktiv	-12.0225
▁Konzert	-12.0225
▁RNA	-12.0225
▁motivieren	-12.0225
▁methane	-12.0225
▁Tempel	-12.0225
▁commission	-12.0225
▁miserable	-12.0225
▁Distanz	-12.0225
▁Versprechen	-12.0226
▁künstlerische	-12.0226
▁descend	-12.0226
▁tätig	-12.0226
▁distort	-12.0229
wächs	-12.0231
▁compress	-12.0232
schwäche	-12.0261
geschrieben	-12.0334
▁Deutsch	-12.0365
▁Optimismus	-12.0366
▁Stewart	-12.0366
▁Zentimeter	-12.0366
▁gestohlen	-12.0366
▁multinational	-12.0366
▁stattfindet	-12.0366
▁stomach	-12.0366
▁verfügen	-12.0366
▁vergrößern	-12.0366
geräusch	-12.0366
▁2016	-12.0366
▁Blüte	-12.0366
▁Direktor	-12.0366
▁Urlaub	-12.0366
▁chronic	-12.0366
▁genuine	-12.0366
▁temple	-12.0366
▁thrive	-12.0366
▁microbial	-12.0366
▁Anweisungen	-12.0366
▁Pharma	-12.0366
▁versorgt	-12.0366
▁cyber	-12.0366
▁Vorlesung	-12.0367
▁Schub	-12.037
▁künstlich	-12.0418
organizing	-12.0459
interest	-12.0473
Veröffentlichung	-12.0509
▁empfehle	-12.0509
+	-12.0509
▁Although	-12.0509
▁Durchmesser	-12.0509
▁Fußgänger	-12.0509
▁Notwendigkeit	-12.0509
▁PowerPoint	-12.0509
▁Verzweiflung	-12.0509
▁Voraussetzung	-12.0509
▁awkward	-12.0509
▁beeindruckt	-12.0509
▁chamber	-12.0509
▁collaborator	-12.0509
▁colonies	-12.0509
▁exposure	-12.0509
▁frustriert	-12.0509
▁immigrant	-12.0509
▁Psychologen	-12.0509
▁cheese	-12.0509
▁located	-12.0509
▁spontaneous	-12.0509
▁storytelling	-12.0509
▁circulat	-12.0509
▁Anfänge	-12.0509
▁Furcht	-12.0509
▁Spanish	-12.0509
▁widmen	-12.0509
▁Tweet	-12.0509
▁Später	-12.0509
zentren	-12.0509
▁marvel	-12.0509
▁pride	-12.0509
bewohner	-12.0509
▁Bewertung	-12.051
▁statistisch	-12.051
▁bribe	-12.0511
▁privat	-12.0547
▁appreciat	-12.065
▁streng	-12.0652
charakter	-12.0654
ifizierung	-12.0654
‹	-12.0654
›	-12.0654
▁Erlaubnis	-12.0654
▁Feuerwehr	-12.0654
▁Jersey	-12.0654
▁Michelangelo	-12.0654
▁Norwegen	-12.0654
▁Smartphone	-12.0654
▁Society	-12.0654
▁Thailand	-12.0654
▁categories	-12.0654
▁divorce	-12.0654
▁excellent	-12.0654
▁fröhlich	-12.0654
▁gigantische	-12.0654
▁strategic	-12.0654
▁syndrome	-12.0654
▁venture	-12.0654
▁vergrößert	-12.0654
▁1997	-12.0654
▁Hardware	-12.0654
▁Unabhängigkeit	-12.0654
▁expectancy	-12.0654
▁interrupt	-12.0654
▁züchten	-12.0654
▁Company	-12.0654
▁überqueren	-12.0654
▁mobility	-12.0654
▁Almost	-12.0654
▁generous	-12.0654
▁Peace	-12.0654
▁cruel	-12.0654
▁probieren	-12.0654
▁verarbeitet	-12.0654
▁jewel	-12.0654
▁mutual	-12.0654
▁civic	-12.0655
▁Söhne	-12.0655
▁zehntausende	-12.0655
zweck	-12.0659
röhre	-12.0661
▁spektakulär	-12.0801
▁Canadian	-12.0801
▁Dilemma	-12.0801
▁Industrial	-12.0801
▁Orleans	-12.0801
▁Rollstuhl	-12.0801
▁Roosevelt	-12.0801
▁Stabilität	-12.0801
▁Trennung	-12.0801
▁Twenty	-12.0801
▁humanitarian	-12.0801
▁introvert	-12.0801
▁residents	-12.0801
▁rubber	-12.0801
▁serving	-12.0801
▁smartphone	-12.0801
▁terrified	-12.0801
▁vergewaltigt	-12.0801
▁Jefferson	-12.0801
▁aufhört	-12.0801
▁rückwärts	-12.0801
▁Bruce	-12.0801
▁bzw	-12.0801
▁ownership	-12.0801
▁depressiv	-12.0801
▁Apparat	-12.0801
▁grasp	-12.0801
▁browse	-12.0802
▁exhaust	-12.0802
pixel	-12.0802
▁probiert	-12.0803
europa	-12.0805
▁Arktis	-12.0807
▁Vereinte	-12.0813
▁Dunkel	-12.0949
ó	-12.095
▁Academy	-12.095
▁Carnegie	-12.095
▁Fettleibigkeit	-12.095
▁Götter	-12.095
▁Minderheit	-12.095
▁Oklahoma	-12.095
▁Schwangerschaft	-12.095
▁Verpflichtung	-12.095
▁Verwaltung	-12.095
▁coordinate	-12.095
▁curriculum	-12.095
▁deforestation	-12.095
▁hemisphere	-12.095
▁hungrig	-12.095
▁jellyfish	-12.095
▁paralyzed	-12.095
▁pedestrian	-12.095
▁prosperity	-12.095
▁temporary	-12.095
▁Dopamin	-12.095
▁Wünsche	-12.095
▁earliest	-12.095
▁aspiration	-12.095
▁schätzt	-12.095
▁composition	-12.095
▁bewiesen	-12.095
störungen	-12.095
▁Norway	-12.095
▁tendency	-12.095
▁Tropfen	-12.095
▁beteiligen	-12.095
▁schwamm	-12.0951
▁grace	-12.0951
ströme	-12.0951
▁Kühe	-12.0951
▁programmiert	-12.0951
▁andauernd	-12.0951
▁Schwäche	-12.0951
▁externe	-12.0962
plex	-12.1004
firmen	-12.1036
▁Erstaunlich	-12.1047
größte	-12.1065
‘	-12.1102
▁Amsterdam	-12.1102
▁Expedition	-12.1102
▁Namibia	-12.1102
▁Pennsylvania	-12.1102
▁Portugal	-12.1102
▁Renaissance	-12.1102
▁Technology	-12.1102
▁acoustic	-12.1102
▁beherrschen	-12.1102
▁bestätigen	-12.1102
▁deliberate	-12.1102
▁eröffnen	-12.1102
▁grandparents	-12.1102
▁identifiziert	-12.1102
▁jüdische	-12.1102
▁nukleare	-12.1102
▁sanitation	-12.1102
▁spezialisiert	-12.1102
▁tsunami	-12.1102
▁Cloud	-12.1102
▁Reichweite	-12.1102
▁bräuchte	-12.1102
▁cigarette	-12.1102
▁ermutigt	-12.1102
▁flavor	-12.1102
Nullsummen	-12.1102
▁Hersteller	-12.1102
▁hallucinat	-12.1102
▁resembl	-12.1102
▁drunk	-12.1102
▁Reaktor	-12.1102
▁beruht	-12.1102
▁despair	-12.1102
▁harness	-12.1102
▁Programmierer	-12.1102
▁Rekord	-12.1102
▁Tafel	-12.1103
▁Regime	-12.1134
lapse	-12.1152
efficient	-12.1219
Regierung	-12.1219
▁recall	-12.1243
▁Demonstration	-12.1256
▁Elizabeth	-12.1256
▁Installation	-12.1256
▁Nebenwirkungen	-12.1256
▁Suddenly	-12.1256
▁Szenario	-12.1256
▁believing	-12.1256
▁collaborate	-12.1256
▁communicating	-12.1256
▁cooperate	-12.1256
▁embryo	-12.1256
▁erschafft	-12.1256
▁gelähmt	-12.1256
▁geprägt	-12.1256
▁prescription	-12.1256
▁reproduce	-12.1256
▁1991	-12.1256
▁Hühner	-12.1256
▁amazed	-12.1256
▁membrane	-12.1256
▁ethnische	-12.1256
▁Aufzeichnungen	-12.1256
▁Georgia	-12.1256
▁Ärger	-12.1256
▁Jedoch	-12.1256
▁lonely	-12.1256
▁lügen	-12.1256
▁Poesie	-12.1256
▁interior	-12.1256
▁Belastung	-12.1256
▁Schwierig	-12.1263
blatt	-12.1322
▁Kollege	-12.1348
Patient	-12.1375
Problem	-12.1375
zufügen	-12.141
familie	-12.1412
schüchtern	-12.1412
▁Bakterium	-12.1412
▁Großeltern	-12.1412
▁Ignoranz	-12.1412
▁Informatik	-12.1412
▁Security	-12.1412
▁clarity	-12.1412
▁default	-12.1412
▁encouraging	-12.1412
▁flourish	-12.1412
▁lächeln	-12.1412
▁magnificent	-12.1412
▁matrix	-12.1412
▁monument	-12.1412
▁negotiation	-12.1412
▁recycling	-12.1412
▁stimulate	-12.1412
▁straightforward	-12.1412
▁synthetische	-12.1412
▁ultimative	-12.1412
▁verpflichtet	-12.1412
▁1989	-12.1412
▁Melodie	-12.1412
▁Tokyo	-12.1412
▁diagnostic	-12.1412
▁drastisch	-12.1412
▁rethink	-12.1412
▁verkündet	-12.1412
▁Selektion	-12.1412
▁sibling	-12.1412
▁Sonntag	-12.1412
▁woanders	-12.1412
▁Tanzania	-12.1412
▁excess	-12.1412
▁derjenige	-12.1412
▁befürchte	-12.1412
▁friedlich	-12.1413
▁Hürde	-12.1413
▁possess	-12.1416
▁grip	-12.1443
culture	-12.1535
leidenschaftlich	-12.1549
Herangehensweise	-12.1571
verschmutzung	-12.1571
▁Arizona	-12.1571
▁Indonesien	-12.1571
▁Irgendwie	-12.1571
▁Republikaner	-12.1571
▁accumulate	-12.1571
▁administration	-12.1571
▁athletes	-12.1571
▁continuing	-12.1571
▁dictator	-12.1571
▁dokumentiert	-12.1571
▁endangered	-12.1571
▁geschätzt	-12.1571
▁großzügig	-12.1571
▁iPad	-12.1571
▁konservativ	-12.1571
▁microphone	-12.1571
▁trajectory	-12.1571
▁yourselves	-12.1571
▁Kepler	-12.1571
▁Stickstoff	-12.1571
▁Unglaublich	-12.1571
▁swallow	-12.1571
verarbeitung	-12.1571
▁Einladung	-12.1571
▁MRT	-12.1571
▁leather	-12.1571
▁stattfand	-12.1571
▁März	-12.1571
▁verborgen	-12.1571
▁Hektar	-12.1571
▁Tiefsee	-12.1571
▁Käse	-12.1571
▁Rabbi	-12.1571
▁retreat	-12.1571
Anonym	-12.1571
kugel	-12.1572
▁Glaube	-12.1668
übergreifend	-12.1672
biologi	-12.1688
Publikum	-12.1695
Thank	-12.1695
menschliche	-12.1697
gesagt	-12.17
β	-12.1732
▁Galileo	-12.1732
▁Hausaufgaben	-12.1732
▁Interpretation	-12.1732
▁Luxus	-12.1732
▁Wahnsinn	-12.1732
▁auszuprobieren	-12.1732
▁diamond	-12.1732
▁disabilities	-12.1732
▁drought	-12.1732
▁hybrid	-12.1732
▁indigenous	-12.1732
▁nucleus	-12.1732
▁receiving	-12.1732
▁repräsentieren	-12.1732
▁synapse	-12.1732
▁terribly	-12.1732
▁verwirklichen	-12.1732
▁1975	-12.1732
▁Festival	-12.1732
▁anerkannt	-12.1732
▁knife	-12.1732
▁substantial	-12.1732
è	-12.4315
ã	-12.4528
⁄	-12.5195
Ä	-12.5629
—	-12.719
@	-12.7227
(	-12.7442
^	-12.7807
à	-12.9078
‚	-13.1352
‒	-13.2241
–	-13.6142
ê	-13.9405
ø	-13.9405
­	-13.9405
ù	-13.9405
♫	-14.0368
ā	-14.0405
â	-14.2766
$	-14.5825
ô	-14.5861
ī	-14.5861
	-14.7861
	-14.7861
	-14.7861
É	-14.7861
Á	-15.0361
•	-15.0361
»	-15.3658
~	-15.3695
¡	-15.3695
®	-15.3695
×	-15.3695
ý	-15.8695
©	-15.8695
¶	-15.8695
Ō	-15.8695
ū	-15.8695
你	-15.8695
葱	-15.8695
送	-15.8695
š	-15.8695
«	-16.8661
्	-16.8664
े	-16.8665
र	-16.8666
म	-16.8667
प	-16.8668
ě	-16.8669
Č	-16.867
ć	-16.8671
û	-16.8672
่	-16.8673
ร	-16.8674
ย	-16.8675
œ	-16.8676
¥	-16.8677
£	-16.8678
ú	-16.8679
Å	-16.868
ë	-16.8681
อ	-16.8682
Ç	-16.8683
*	-16.8684
ï	-16.8685
€	-16.8686
‟	-16.8687
́	-16.8688
ñ	-16.8689
°	-16.869
ç	-16.8691
_	-16.8692
/	-16.8693
’	-16.8694
	-16.8695
	-16.8695
¿	-16.8695
ò	-16.8695
Ă	-16.8695
Œ	-16.8695
Ť	-16.8695
Ű	-16.8695
[	-16.8695
к	-16.8695
